<unk>	0
<s>	0
</s>	0
<image>	0
<im_end>	0
<tool>	0
<json>	0
<sys>	0
<reasoning>	0
</reasoning>	0
▁the	-3.6296
.	-3.65882
,	-3.74985
5	-3.78613
4	-3.79158
6	-3.89681
3	-3.97268
▁of	-4.25925
▁	-4.40395
7	-4.40978
▁to	-4.44012
▁and	-4.4405
_	-4.53714
▁a	-4.53971
2	-4.55136
8	-4.75621
▁"	-4.79482
1	-4.84682
-	-4.8534
▁in	-5.03879
s	-5.12014
▁that	-5.30055
▁is	-5.34067
O	-5.36254
▁was	-5.38396
▁I	-5.43765
e	-5.4866
d	-5.51187
▁for	-5.58483
▁with	-5.68472
▁as	-5.82798
▁be	-5.85534
▁we	-5.89058
▁he	-5.92287
▁it	-5.95185
▁The	-5.97661
'	-5.99916
(	-6.00812
Nf	-6.02228
ing	-6.06398
c	-6.07027
▁[	-6.10825
▁Nf	-6.1233
)	-6.12658
▁on	-6.12807
▁had	-6.1386
▁by	-6.14005
n	-6.18208
":	-6.1839
:	-6.20133
▁=	-6.20241
a	-6.20351
f	-6.20958
▁e	-6.21384
▁his	-6.21796
▁are	-6.22206
ed	-6.24026
▁c	-6.2456
▁d	-6.24592
▁not	-6.25703
▁this	-6.26429
Nc	-6.27908
▁:	-6.31749
g	-6.31758
▁from	-6.32015
▁were	-6.32399
▁1.	-6.33877
▁9.	-6.34787
▁10.	-6.35436
▁11.	-6.35618
▁16.	-6.35742
▁15.	-6.3576
▁12.	-6.35894
▁_	-6.35909
▁13.	-6.36151
▁14.	-6.36386
▁17.	-6.36515
▁18.	-6.38076
▁Be	-6.38596
h	-6.39022
▁19.	-6.39946
▁20.	-6.41147
▁2.	-6.42731
"]	-6.42901
b	-6.43372
▁21.	-6.43638
▁f	-6.43893
▁at	-6.44006
▁8.	-6.44491
Ne	-6.44775
▁3.	-6.4517
▁5.	-6.45457
▁4.	-6.45618
▁22.	-6.45725
▁7.	-6.45777
▁Nc	-6.45856
▁6.	-6.46032
`	-6.46645
▁23.	-6.47563
▁which	-6.47691
▁O	-6.4809
▁24.	-6.49576
▁h	-6.5061
▁have	-6.51006
",	-6.51272
/	-6.51585
Bd	-6.51718
▁or	-6.51775
▁(	-6.52002
▁you	-6.52375
Re	-6.52486
▁25.	-6.5286
▁b	-6.52922
▁26.	-6.5667
▁would	-6.57098
▁an	-6.58294
▁27.	-6.60309
▁g	-6.60344
▁Re	-6.61879
▁Kf	-6.61968
Nd	-6.62171
Kf	-6.63245
▁28.	-6.63819
▁all	-6.65269
▁me	-6.65504
▁Bd	-6.6628
▁29.	-6.66497
=	-6.66814
▁Ne	-6.67369
Rd	-6.67521
Be	-6.68656
▁Nd	-6.69428
Bg	-6.71437
▁our	-6.71964
▁30.	-6.72197
▁they	-6.72705
▁can	-6.73871
Rc	-6.74979
▁Bb	-6.75077
▁him	-6.76013
Kg	-6.77348
y	-6.77636
Qd	-6.78346
▁31.	-6.78755
▁Rc	-6.78757
▁model	-6.79611
ly	-6.81289
▁Rd	-6.81457
:`	-6.81582
▁`	-6.82011
Bb	-6.83206
6+	-6.83863
5+	-6.83919
▁32.	-6.83985
▁Kg	-6.84628
▁Qe	-6.85727
▁Tuys	-6.86011
▁will	-6.87314
Qe	-6.87745
Qc	-6.8811
▁Qd	-6.88444
▁about	-6.89205
▁33.	-6.89255
▁my	-6.90107
▁one	-6.91469
▁their	-6.919
x	-6.92402
▁but	-6.92464
▁when	-6.94297
▁34.	-6.94561
▁Bc	-6.94634
4+	-6.94741
model	-6.95226
7+	-6.95881
▁Ke	-6.966
▁there	-6.97589
▁35.	-6.98782
Bc	-6.98803
Ke	-6.98876
▁This	-6.99526
--	-6.99804
▁us	-7.00608
"	-7.01554
▁Qc	-7.02144
▁time	-7.03171
▁if	-7.05381
▁36.	-7.05398
▁It	-7.05606
▁out	-7.06215
3+	-7.06272
▁her	-7.06367
▁``	-7.06633
t	-7.06704
▁them	-7.07339
\	-7.09714
Qb	-7.1061
▁Ra	-7.10661
>	-7.11207
,"	-7.11577
▁37.	-7.11695
▁Kh	-7.12081
▁Rf	-7.12168
▁<	-7.13408
Kh	-7.13459
2+	-7.15394
Bf	-7.16346
▁more	-7.16407
1+	-7.16491
▁Rb	-7.1678
▁He	-7.1683
Rb	-7.17171
▁38.	-7.17238
▁Bg	-7.17615
▁We	-7.17874
Rf	-7.17895
▁A	-7.18436
Ra	-7.1858
▁so	-7.19305
8+	-7.2001
▁#	-7.22636
1-0	-7.22672
Qf	-7.24122
▁39.	-7.24637
▁In	-7.24983
▁up	-7.25428
▁only	-7.26233
▁then	-7.26477
▁Kd	-7.26803
▁see	-7.27007
Bxe	-7.27599
▁Bf	-7.28039
▁40.	-7.30064
▁been	-7.30767
▁Qb	-7.31281
Nxd	-7.31899
▁has	-7.32575
▁over	-7.33455
▁these	-7.33602
▁Qf	-7.34286
Nxe	-7.34664
▁could	-7.34664
▁into	-7.34691
▁If	-7.34699
Bxc	-7.35348
▁each	-7.36106
▁41.	-7.36793
Ng	-7.38277
▁no	-7.39138
Bxf	-7.39291
▁some	-7.40632
▁*	-7.40846
math	-7.40933
Kd	-7.42237
▁exd	-7.42405
▁42.	-7.42504
="	-7.4255
▁she	-7.43026
1/2-1/2	-7.43293
``	-7.4343
▁\	-7.43637
▁Buno	-7.44436
▁Nxd	-7.45149
▁said	-7.45444
▁two	-7.45645
▁self	-7.45816
▁other	-7.46106
▁who	-7.46792
Rg	-7.46813
▁Rg	-7.46955
cxd	-7.47125
▁made	-7.47774
Rxd	-7.49293
▁must	-7.49498
▁-	-7.50233
▁than	-7.5172
▁also	-7.51755
▁43.	-7.51806
▁Nxe	-7.52146
▁Swaziland	-7.53751
A	-7.54232
▁did	-7.54663
Qxd	-7.55107
▁Rxd	-7.56301
▁44.	-7.56779
▁do	-7.56859
▁Bxc	-7.57079
▁cxd	-7.57592
▁king	-7.58296
!"	-7.58942
▁Qg	-7.59055
Rxe	-7.59065
▁what	-7.59791
▁Ng	-7.59877
."	-7.59964
Qg	-7.60456
▁Rh	-7.60549
▁little	-7.60594
D	-7.61375
▁came	-7.61484
▁45.	-7.6205
ECO	-7.63661
▁Bxf	-7.64476
Qa	-7.64633
▁data	-7.64796
▁Qxe	-7.64922
Black	-7.6505
▁number	-7.65516
▁46.	-7.66125
Qh	-7.66986
!	-7.67248
▁much	-7.68385
context	-7.69149
▁Kc	-7.6918
Rh	-7.69312
exd	-7.69414
▁Nb	-7.69424
▁Nbd	-7.69667
i	-7.70008
▁Qa	-7.70538
▁{"	-7.70824
()	-7.70856
▁dxc	-7.70889
▁very	-7.70902
0-1	-7.70982
"}	-7.71325
K	-7.715
▁Qxd	-7.71652
▁any	-7.7197
▁your	-7.72047
▁used	-7.72121
Bxd	-7.72388
j	-7.72438
I	-7.72813
▁its	-7.72814
▁first	-7.72922
response	-7.73214
category	-7.73278
instruction	-7.739
▁Bxe	-7.74097
▁df	-7.74519
▁men	-7.74574
▁Sebuza	-7.74855
▁get	-7.75218
▁such	-7.75344
▁47.	-7.75357
▁Qh	-7.75419
▁great	-7.75709
Nb	-7.75883
Rxc	-7.76511
▁use	-7.7705
▁old	-7.77698
▁before	-7.77927
;	-7.78001
?"	-7.78583
▁Bxd	-7.79412
▁same	-7.79489
m	-7.79794
▁most	-7.80155
▁For	-7.80422
▁..	-7.80534
▁48.	-7.81164
▁like	-7.81265
▁Rxe	-7.81426
▁“	-7.81608
▁how	-7.82273
in	-7.82849
▁Rxc	-7.83628
▁They	-7.83711
Ba	-7.84474
dxc	-7.84954
▁MLflow	-7.85279
.",	-7.86119
▁dxe	-7.86448
▁told	-7.86777
▁take	-7.86828
▁Labotsibeni	-7.87908
▁way	-7.88029
▁where	-7.88222
▁49.	-7.8842
▁input	-7.88451
mlflow	-7.8889
u	-7.89074
▁being	-7.89226
▁L	-7.89533
▁back	-7.90174
▁warriors	-7.90244
r	-7.90381
▁after	-7.90791
bxc	-7.91456
The	-7.91515
axb	-7.93291
C	-7.94146
▁royal	-7.94387
),	-7.94626
▁values	-7.94981
class	-7.95072
APILink	-7.95604
).	-7.95692
S	-7.95716
▁white	-7.95848
▁|	-7.95937
▁make	-7.96401
Nxc	-7.96402
▁reference	-7.96644
▁When	-7.96709
▁Nxc	-7.96782
▁S	-7.96866
▁man	-7.97132
▁+	-7.97155
B	-7.97425
▁50.	-7.97714
Bh	-7.9795
▁many	-7.98314
▁theory	-7.9836
▁soon	-7.98384
▁fxe	-7.98819
▁went	-7.98924
Qxc	-7.99022
w	-7.99233
▁place	-7.99378
White	-7.99777
▁y	-7.9981
er	-8.00236
▁body	-8.00457
dxe	-8.00462
hxg	-8.0109
▁bxc	-8.01422
▁may	-8.01505
▁kraal	-8.0224
▁Nh	-8.03025
Qxe	-8.03121
▁>>	-8.03355
▁seemed	-8.03484
▁relativity	-8.03498
▁using	-8.04036
groupby	-8.04644
):	-8.05101
▁There	-8.05434
▁group	-8.05524
▁51.	-8.05614
▁come	-8.06525
Nxf	-8.06618
▁np	-8.07062
▁set	-8.07405
Kc	-8.07713
▁war	-8.07813
▁hxg	-8.08008
▁light	-8.08195
▁co	-8.08297
▁queen	-8.08483
th	-8.08751
▁should	-8.0882
{	-8.08895
▁return	-8.09161
▁Qxf	-8.09162
▁people	-8.09774
▁while	-8.09797
▁indunas	-8.10582
▁Kb	-8.11426
▁THE	-8.11762
▁axb	-8.11943
al	-8.1296
ref	-8.13091
▁Rxf	-8.13411
▁52.	-8.13539
▁down	-8.14546
▁long	-8.14631
▁Na	-8.1464
▁found	-8.14694
Qxf	-8.14819
▁result	-8.15029
▁through	-8.15727
▁Ba	-8.15828
▁X	-8.1597
▁know	-8.16451
▁gxf	-8.16476
▁import	-8.16489
▁now	-8.16501
</	-8.16875
Nh	-8.16971
▁x	-8.1718
X	-8.17512
}	-8.17548
▁good	-8.18302
▁motion	-8.18309
gxf	-8.18797
▁Sugden	-8.19671
▁general	-8.19745
▁work	-8.19764
▁given	-8.19774
fxe	-8.19775
::	-8.20033
▁As	-8.20397
▁Lomwazi	-8.20551
▁53.	-8.20575
▁space	-8.20902
py	-8.21284
self	-8.2133
▁without	-8.21354
▁Then	-8.21412
▁Nxf	-8.2158
▁go	-8.21637
▁day	-8.21952
▁until	-8.22031
Rxf	-8.22096
Rad	-8.22458
("	-8.22722
▁witch	-8.22875
exf	-8.23026
▁Oom	-8.23156
▁following	-8.23707
▁gave	-8.2454
log	-8.25171
▁last	-8.2531
Rxa	-8.25502
]	-8.25559
▁R	-8.26648
▁Qxc	-8.26812
o	-8.26878
Nbd	-8.2699
▁54.	-8.27213
▁law	-8.28858
▁system	-8.28976
DataFrame	-8.29313
td	-8.29414
▁small	-8.29623
▁shall	-8.29827
▁father	-8.30556
▁few	-8.31401
▁several	-8.32341
")	-8.33
▁s	-8.33213
Tunga	-8.33215
▁different	-8.33238
▁models	-8.33242
qa	-8.33255
▁B	-8.33351
`,	-8.33484
pyfunc	-8.33592
weight	-8.34001
▁OF	-8.34033
▁Tzaneen	-8.34235
▁relative	-8.35256
▁Bh	-8.35468
▁tree	-8.35935
▁between	-8.36054
▁asked	-8.36128
E	-8.3667
Rfd	-8.36911
▁array	-8.3698
and	-8.37003
▁always	-8.37021
▁N	-8.37069
samples	-8.37235
▁night	-8.37543
R	-8.37782
▁55.	-8.38125
None	-8.38417
Na	-8.38461
▁exf	-8.38726
▁every	-8.38962
▁method	-8.39383
▁example	-8.39944
▁Rxb	-8.40149
▁'	-8.40181
▁n	-8.40694
`.	-8.41208
plot	-8.41315
▁here	-8.41474
▁name	-8.41479
▁another	-8.41841
▁thought	-8.41866
▁during	-8.41876
▁later	-8.41898
▁order	-8.4227
▁even	-8.42358
▁want	-8.42753
▁however	-8.4384
▁velocity	-8.43845
▁four	-8.44543
sum	-8.44576
▁def	-8.44659
▁un	-8.44969
▁next	-8.44975
▁value	-8.45209
▁M	-8.45752
▁since	-8.45894
▁those	-8.45896
▁56.	-8.46083
▁C	-8.46168
▁function	-8.46213
▁P	-8.46561
.\	-8.4703
ml	-8.4756
▁You	-8.47643
▁field	-8.47665
Rxb	-8.47703
▁These	-8.48419
▁**	-8.48501
▁second	-8.4872
▁King	-8.48754
▁might	-8.49047
▁moment	-8.49052
▁mlflow	-8.49093
▁But	-8.49393
▁Bxb	-8.49766
loss	-8.49769
Qxb	-8.4988
meth	-8.50102
://	-8.50104
▁along	-8.50238
es	-8.50263
able	-8.50315
▁case	-8.50792
▁She	-8.50828
alpha	-8.51042
Rfe	-8.51062
▁both	-8.51146
▁Sibijaan	-8.51288
▁grouped	-8.51562
auto	-8.51642
▁pd	-8.51963
▁saw	-8.52308
▁well	-8.5268
:`\	-8.52692
▁real	-8.53055
▁column	-8.53197
examples	-8.53433
▁reached	-8.53486
▁part	-8.53678
▁points	-8.54069
▁class	-8.54169
predict	-8.54181
▁t	-8.54257
▁quite	-8.54553
▁possible	-8.5457
▁loss	-8.54764
▁three	-8.54865
▁default	-8.55388
N	-8.55509
▁became	-8.55691
▁Queen	-8.559
▁means	-8.5597
Kb	-8.55976
▁camp	-8.5648
?	-8.56495
Bxg	-8.56771
▁tell	-8.57139
▁regression	-8.57277
▁point	-8.57516
▁right	-8.57733
▁seen	-8.57773
▁After	-8.57987
▁Gutenberg	-8.57991
features	-8.58013
▁best	-8.58016
▁give	-8.58053
▁Boers	-8.5853
▁days	-8.58808
▁knew	-8.59164
▁because	-8.59248
▁57.	-8.59344
▁fact	-8.59346
▁under	-8.59535
▁end	-8.59744
▁Rxa	-8.60247
tracking	-8.60295
▁Qxb	-8.60648
▁T	-8.60655
▁going	-8.60656
▁word	-8.61101
▁gin	-8.61167
▁new	-8.61392
▁never	-8.61573
](/	-8.61596
▁course	-8.61634
▁To	-8.61983
▁sample	-8.62008
▁axis	-8.62335
0.	-8.62723
▁full	-8.62728
▁find	-8.62755
▁though	-8.62762
▁respect	-8.628
▁Zombode	-8.62809
False	-8.62907
▁Boer	-8.63471
.??	-8.63829
▁large	-8.64032
http	-8.6411
▁Project	-8.64165
estimators	-8.64183
▁sent	-8.65391
▁things	-8.6565
▁am	-8.65987
▁image	-8.66105
Rac	-8.66437
▁Lebombo	-8.66529
▁gravitational	-8.66664
▁Bxg	-8.6668
▁58.	-8.66686
▁Rad	-8.66866
▁known	-8.66998
_{	-8.67026
▁rest	-8.67512
▁brought	-8.67814
▁59.	-8.6789
linear	-8.67892
▁took	-8.67992
Nxg	-8.68021
▁short	-8.68209
))	-8.68416
▁Rac	-8.68897
▁began	-8.69111
▁again	-8.69128
▁Rfd	-8.6928
spark	-8.69314
init	-8.69772
or	-8.69964
▁train	-8.70206
▁life	-8.70516
▁wanted	-8.70637
Rxg	-8.70714
on	-8.70758
train	-8.71249
k	-8.7141
▁distance	-8.71509
▁Rxg	-8.71559
▁induna	-8.71574
▁sort	-8.71582
▁just	-8.71756
▁1,	-8.71894
▁sun	-8.71975
▁called	-8.72029
▁Swazis	-8.72314
▁able	-8.72367
▁Qxg	-8.72631
▁head	-8.72677
▁Swazi	-8.72767
▁index	-8.73021
▁women	-8.73108
▁does	-8.73139
▁within	-8.7337
▁too	-8.73374
▁non	-8.73675
T	-8.73795
▁question	-8.73941
▁chief	-8.73985
▁length	-8.74049
▁run	-8.74505
What	-8.74818
▁away	-8.74835
▁home	-8.75389
▁British	-8.75846
▁Tracking	-8.75971
▁However	-8.76005
l	-8.7601
▁On	-8.76601
ies	-8.76912
▁position	-8.76928
▁left	-8.77631
▁output	-8.77633
Rae	-8.77789
▁My	-8.77897
▁mother	-8.7818
▁thus	-8.78755
as	-8.78868
an	-8.79012
▁own	-8.79017
▁transformation	-8.79622
▁60.	-8.79708
[	-8.79798
st	-8.79909
fxg	-8.79941
▁looked	-8.80318
Kxg	-8.80669
▁impis	-8.80685
Bxb	-8.80722
**	-8.80786
re	-8.80833
▁show	-8.8114
▁w	-8.81166
:`~	-8.81604
▁morning	-8.81624
▁Lochien	-8.81662
▁trip	-8.81722
to	-8.81805
Event	-8.81903
Qxg	-8.82219
sph	-8.82282
max	-8.82319
▁death	-8.82538
▁With	-8.82565
▁Kxg	-8.82574
▁impi	-8.82585
doctors	-8.82637
▁samples	-8.83052
▁son	-8.83312
▁See	-8.83349
▁started	-8.83523
▁E	-8.83885
time	-8.85294
ordinate	-8.86011
▁heard	-8.86497
▁hand	-8.86551
▁visit	-8.86729
▁axes	-8.86799
min	-8.86821
▁1	-8.86961
▁laws	-8.87173
▁columns	-8.87387
▁linear	-8.87538
▁re	-8.87696
▁above	-8.87731
▁still	-8.8777
▁killed	-8.87909
▁country	-8.87926
▁years	-8.88025
body	-8.88409
random	-8.88475
dimensional	-8.88528
fit	-8.88566
▁manner	-8.89322
▁throne	-8.89326
▁feet	-8.89341
▁eyes	-8.89497
▁61.	-8.89525
▁terms	-8.89617
▁ever	-8.89634
▁information	-8.89972
en	-8.90117
▁By	-8.90201
tree	-8.91334
ordinates	-8.91419
▁shape	-8.91782
cxb	-8.9185
▁special	-8.92179
Q	-8.92458
▁His	-8.92534
▁against	-8.92598
▁feature	-8.92827
▁returned	-8.92972
▁i	-8.93225
["	-8.93251
▁Rfe	-8.93412
▁fit	-8.93578
▁object	-8.93591
▁line	-8.9383
▁nothing	-8.94266
▁section	-8.94271
▁world	-8.94272
▁better	-8.943
▁government	-8.94304
P	-8.94402
▁help	-8.94447
path	-8.9447
▁training	-8.94547
▁FFT	-8.9464
▁Kxf	-8.94672
▁off	-8.94736
▁Qxa	-8.94843
images	-8.95251
fft	-8.95979
▁decided	-8.96035
▁side	-8.96112
▁five	-8.96152
▁need	-8.9679
data	-8.96851
np	-8.96882
regression	-8.96906
▁say	-8.96956
Nxb	-8.97018
Rxh	-8.9703
▁principle	-8.97115
▁state	-8.9715
▁hut	-8.97216
▁All	-8.97644
▁among	-8.97671
▁coronation	-8.97699
▁F	-8.98288
▁\"	-8.98307
▁Nxb	-8.98406
▁thing	-8.9842
at	-8.98803
+0	-8.98868
▁At	-8.98954
the	-8.9899
▁H	-8.99223
▁raw	-8.99246
▁present	-8.99409
▁Paul	-8.99492
▁start	-8.99645
▁got	-8.9969
ve	-8.99709
▁Now	-9.00047
▁features	-9.00066
v	-9.00246
▁cxb	-9.00258
▁methods	-9.00491
python	-9.00541
▁fxg	-9.00557
▁matter	-9.00633
state	-9.00994
▁either	-9.01374
▁making	-9.01426
▁die	-9.02108
▁based	-9.02123
▁D	-9.02359
Bxh	-9.02489
ll	-9.0298
DataFrameGroupBy	-9.0299
▁physical	-9.03059
▁cannot	-9.03069
▁turned	-9.03146
▁62.	-9.03246
doctor	-9.03416
Rfc	-9.03496
▁according	-9.03594
▁hands	-9.03679
▁0.+	-9.03681
Qxa	-9.04377
▁J	-9.04577
predictions	-9.04581
▁carriage	-9.0491
▁p	-9.0541
▁done	-9.05589
▁Rxh	-9.05704
load	-9.05836
▁environment	-9.06375
org	-9.06493
▁/>	-9.06496
▁stood	-9.0677
▁practically	-9.0677
▁gone	-9.06998
▁Umzulek	-9.0703
▁63.	-9.07067
▁party	-9.07135
▁list	-9.07689
▁look	-9.07778
▁high	-9.08092
True	-9.08168
Kxf	-9.08196
▁surface	-9.0823
▁include	-9.08411
▁let	-9.08538
p	-9.0863
frac	-9.08646
▁almost	-9.08774
api	-9.08947
▁That	-9.09121
▁least	-9.09141
▁TO	-9.09172
▁K	-9.09443
open	-9.09445
▁Ka	-9.09715
],	-9.0973
ion	-9.09762
▁max	-9.0984
▁hold	-9.1003
▁led	-9.10047
▁direction	-9.10072
▁top	-9.10141
▁format	-9.10178
▁Rietvlei	-9.10635
▁Rae	-9.10648
▁embankment	-9.10682
▁Bxa	-9.10684
▁inverse	-9.10716
▁ready	-9.10732
_,	-9.10768
▁Section	-9.10784
▁Our	-9.11058
▁0,	-9.11741
▁savage	-9.12083
▁thousand	-9.12086
Date	-9.12106
lambda	-9.12199
▁G	-9.12327
._	-9.12672
▁South	-9.12708
▁explained	-9.12725
▁experience	-9.12734
▁passed	-9.12737
is	-9.12864
▁often	-9.12984
test	-9.13152
▁bodies	-9.13376
▁"""	-9.13872
▁fight	-9.13899
>`	-9.14322
classes	-9.14422
▁forward	-9.1443
▁ground	-9.14472
▁Nxg	-9.14479
▁meet	-9.14648
▁felt	-9.14677
▁fire	-9.14698
▁important	-9.14773
▁held	-9.14785
▁taking	-9.14849
▁trees	-9.14956
▁waiting	-9.15155
▁64.	-9.15243
▁Models	-9.1526
▁random	-9.15623
0	-9.15839
df	-9.16072
▁call	-9.16094
index	-9.16195
models	-9.16343
llustration	-9.16693
▁log	-9.16725
▁enough	-9.16757
▁addition	-9.16781
▁file	-9.168
▁whole	-9.16827
▁gxh	-9.16838
W	-9.1684
▁AND	-9.1693
▁dead	-9.17005
▁form	-9.17161
▁Model	-9.17335
▁frequency	-9.17433
sample	-9.17487
z	-9.1749
▁target	-9.17689
▁trouble	-9.17792
▁None	-9.17882
Rab	-9.17937
▁type	-9.18017
▁reason	-9.18346
gl	-9.18367
▁single	-9.1837
▁universe	-9.18372
▁problem	-9.1838
▁flavor	-9.18549
▁###	-9.18706
▁regard	-9.18817
▁whether	-9.18885
▁hard	-9.19084
▁times	-9.1932
▁sci	-9.1992
text	-9.20171
▁six	-9.2025
▁test	-9.20526
TER	-9.20612
▁sklearn	-9.20636
00	-9.20774
▁think	-9.20908
▁together	-9.2106
▁already	-9.21087
▁nature	-9.21137
▁common	-9.21167
▁keep	-9.21207
▁details	-9.21239
est	-9.21324
▁around	-9.21325
▁horses	-9.21462
+	-9.21812
▁distribution	-9.21837
▁learning	-9.22329
▁hundred	-9.22645
▁mean	-9.22704
▁support	-9.22964
Series	-9.23062
le	-9.23189
▁estimator	-9.23238
▁idea	-9.23245
▁something	-9.23291
▁food	-9.23303
▁multiple	-9.23305
▁half	-9.2332
▁English	-9.23322
▁Python	-9.23499
▁far	-9.23618
▁zero	-9.23628
▁provided	-9.23658
▁coming	-9.2396
▁W	-9.24128
▁others	-9.24211
▁taken	-9.24257
▁predictions	-9.2426
hat	-9.24347
▁custom	-9.24546
▁ten	-9.25296
oob	-9.25482
▁business	-9.25607
▁followed	-9.25627
gxh	-9.25656
▁instead	-9.25669
_.	-9.25691
▁Kxe	-9.25734
▁65.	-9.26005
▁natural	-9.26309
."]	-9.26404
▁2	-9.26606
#	-9.26739
▁m	-9.2675
▁put	-9.26856
▁talk	-9.26874
▁parameter	-9.27308
▁predict	-9.27352
▁salute	-9.27451
▁become	-9.27496
▁certain	-9.27795
mean	-9.27862
Kxe	-9.27872
▁film	-9.27879
▁split	-9.2789
▁yet	-9.27909
▁front	-9.27925
▁continuum	-9.27992
▁constant	-9.28055
AP	-9.28117
▁decision	-9.28164
▁From	-9.28278
▁events	-9.28496
▁house	-9.28602
▁==	-9.2875
▁per	-9.2913
rng	-9.29132
M	-9.29268
input	-9.29575
▁kraals	-9.29804
▁figure	-9.29887
Ka	-9.30009
▁remember	-9.30079
▁obtain	-9.30087
▁create	-9.30129
▁Transvaal	-9.30259
▁compute	-9.30292
▁(_	-9.30308
▁exactly	-9.30356
▁agreed	-9.30467
▁similar	-9.30584
▁himself	-9.30611
L	-9.3098
▁gb	-9.3105
▁CH	-9.31055
▁functions	-9.31606
9	-9.31935
▁Rab	-9.32106
▁force	-9.32146
▁algorithm	-9.32261
\"	-9.32387
▁don	-9.32389
You	-9.32487
▁classification	-9.32598
html	-9.32674
▁Bakoor	-9.32696
▁further	-9.32698
▁>	-9.32731
▁mass	-9.32821
▁groups	-9.32825
▁simple	-9.32897
▁across	-9.32901
▁rigid	-9.32992
out	-9.33087
▁66.	-9.33122
](	-9.33157
▁Of	-9.33292
one	-9.3352
ation	-9.33527
range	-9.34096
▁One	-9.34276
▁score	-9.34422
▁friend	-9.34667
▁node	-9.34833
▁miles	-9.35013
id	-9.35047
sql	-9.35171
▁sense	-9.35232
▁children	-9.35259
classification	-9.3526
leaf	-9.35295
params	-9.35302
Qxh	-9.35379
Bxa	-9.35533
▁GroupBy	-9.35575
_2	-9.35686
▁event	-9.35805
▁thousands	-9.35899
▁../	-9.36066
▁words	-9.3638
F	-9.36575
size	-9.3678
▁range	-9.36987
uri	-9.37011
▁black	-9.37205
▁consideration	-9.37219
▁dtype	-9.37597
▁kind	-9.37611
▁experiment	-9.37638
▁mind	-9.37696
▁particular	-9.37743
▁finally	-9.37797
png	-9.37803
▁While	-9.37881
▁due	-9.37888
▁received	-9.37912
▁below	-9.37943
▁seems	-9.38003
raw	-9.38053
▁young	-9.38056
Neil	-9.38077
▁boys	-9.38165
▁required	-9.38208
▁load	-9.3822
▁negative	-9.38227
='	-9.38554
▁DataFrame	-9.39108
▁2,	-9.39243
▁live	-9.39706
▁stand	-9.39721
▁names	-9.39738
▁condition	-9.39856
▁results	-9.3989
▁rifle	-9.39893
▁water	-9.39903
▁Kxd	-9.40113
▁No	-9.40264
▁prevent	-9.40391
▁million	-9.40396
▁Qxh	-9.4041
▁Mbabane	-9.40453
▁United	-9.40463
save	-9.40551
▁arrived	-9.40554
▁stars	-9.4058
▁follows	-9.40658
▁0.	-9.40695
▁amount	-9.40823
(["	-9.40838
">	-9.41059
▁Bxh	-9.41444
int	-9.41455
▁bring	-9.41755
▁disc	-9.42145
▁equal	-9.42298
▁drink	-9.42309
▁bxa	-9.42543
▁wagon	-9.42603
▁close	-9.43035
▁Fourier	-9.43093
▁caught	-9.43103
▁behind	-9.43108
▁various	-9.43157
▁States	-9.43203
▁moving	-9.43312
▁Valley	-9.43358
▁native	-9.4336
▁ought	-9.43614
_)	-9.43748
▁Euclidean	-9.43768
score	-9.43853
▁kill	-9.44043
▁answer	-9.44094
▁term	-9.44151
▁ship	-9.44152
▁/	-9.4466
',	-9.4476
ness	-9.45234
▁Transform	-9.45531
▁print	-9.45578
▁["	-9.45629
function	-9.4578
▁earth	-9.45837
▁themselves	-9.45872
▁definition	-9.45876
2.	-9.45905
▁afraid	-9.45931
▁specified	-9.4595
▁Nge	-9.46013
▁raised	-9.46079
▁allowed	-9.46114
▁Let	-9.46343
Kxd	-9.46346
▁Lorentz	-9.46492
▁Galileian	-9.46503
▁built	-9.46599
▁died	-9.4668
Round	-9.46701
▁instance	-9.4671
It	-9.46995
▁true	-9.47096
`)	-9.47213
▁metrics	-9.47371
ry	-9.47408
▁0	-9.47537
▁works	-9.47785
foo	-9.47801
▁check	-9.47994
▁captain	-9.48093
type	-9.48162
ers	-9.48265
shape	-9.48439
▁spoke	-9.4845
▁pay	-9.48662
▁ask	-9.48722
▁quickly	-9.48835
▁child	-9.48918
▁considered	-9.48942
▁New	-9.48975
▁coefficients	-9.48995
▁arms	-9.49148
▁equations	-9.49219
▁numbers	-9.49224
▁kaffirs	-9.49248
▁getting	-9.49396
▁code	-9.49481
▁upon	-9.49508
▁year	-9.49583
▁parameters	-9.4963
▁less	-9.49766
"),	-9.50032
ous	-9.50149
▁{	-9.50255
▁effect	-9.50422
▁fine	-9.50581
``.	-9.50632
▁met	-9.50674
([	-9.50685
▁min	-9.51079
▁voice	-9.51087
▁horse	-9.51166
▁join	-9.51391
])	-9.51418
ell	-9.51502
▁k	-9.51526
agg	-9.51597
transform	-9.51601
▁fundamental	-9.51669
▁mechanics	-9.51743
▁air	-9.51747
▁won	-9.5175
▁fixed	-9.51764
▁Jafta	-9.51807
▁67.	-9.52026
▁myself	-9.52046
▁change	-9.52125
lasso	-9.52186
sklearn	-9.52196
Nkoos	-9.52212
▁friends	-9.5232
▁So	-9.52567
info	-9.52704
bxa	-9.52794
▁view	-9.53031
▁near	-9.53047
▁lines	-9.53133
▁learn	-9.53159
▁pyfunc	-9.53444
Sit	-9.53874
▁road	-9.5419
▁kaffir	-9.54215
▁feeling	-9.54227
*	-9.54333
▁Africa	-9.54344
ance	-9.54421
func	-9.54667
▁everything	-9.54703
▁latter	-9.54714
▁except	-9.54734
▁directly	-9.5474
▁Finally	-9.54772
▁interested	-9.54784
▁why	-9.54804
▁version	-9.54812
▁transformed	-9.54894
▁including	-9.55015
We	-9.55022
float	-9.55111
▁clear	-9.55116
▁API	-9.55143
Compute	-9.55244
"],	-9.55314
▁classes	-9.5537
▁pandas	-9.55604
▁weights	-9.55641
no	-9.56367
val	-9.56494
▁Some	-9.56662
ity	-9.56671
▁size	-9.56986
▁hear	-9.57086
=["	-9.57308
us	-9.57693
▁peace	-9.57716
▁(`	-9.57721
▁bad	-9.57727
▁kept	-9.57834
▁Next	-9.57835
▁imagine	-9.57835
▁dancing	-9.57839
▁measuring	-9.5786
▁Each	-9.57892
▁regularization	-9.57898
▁wives	-9.57899
prediction	-9.58033
▁straight	-9.58049
▁regarded	-9.58078
▁string	-9.58119
THE	-9.58445
▁early	-9.5846
split	-9.58519
▁o	-9.58544
closed	-9.58653
Regressor	-9.5866
el	-9.59039
▁play	-9.59267
▁sure	-9.59397
▁int	-9.59546
▁send	-9.60407
▁chance	-9.60476
▁operation	-9.60497
▁control	-9.60712
nThe	-9.60844
▁trek	-9.61037
▁money	-9.61047
▁energy	-9.61052
▁travel	-9.61065
▁useful	-9.61079
▁else	-9.61116
▁minutes	-9.61171
▁realized	-9.61195
▁woman	-9.612
▁produce	-9.61433
▁wide	-9.61489
▁care	-9.61496
▁logging	-9.61561
▁Regression	-9.61583
▁once	-9.61612
general	-9.61715
▁considerations	-9.61751
He	-9.61856
▁missing	-9.61914
▁turn	-9.62126
▁add	-9.62238
▁save	-9.6236
▁r	-9.62863
lr	-9.63027
▁suppose	-9.63126
▁Dr	-9.63144
▁reach	-9.63282
▁z	-9.63297
▁rain	-9.63406
▁action	-9.6345
bar	-9.63678
▁sight	-9.63841
▁standard	-9.63957
▁feel	-9.64231
▁York	-9.6438
▁anything	-9.64389
▁chosen	-9.64401
▁implementation	-9.64403
▁trail	-9.64429
▁agreement	-9.64452
▁rather	-9.64455
▁lead	-9.64456
▁expected	-9.64488
▁original	-9.64531
ww	-9.64544
▁obtained	-9.64625
▁talked	-9.64634
▁argument	-9.64638
▁complex	-9.64713
▁power	-9.6477
target	-9.6477
▁clocks	-9.64807
▁account	-9.6486
▁allows	-9.64917
▁lived	-9.64932
}(	-9.64943
▁ended	-9.65055
▁average	-9.65201
▁de	-9.65233
▁itself	-9.65417
``,	-9.65539
▁allow	-9.65674
▁fields	-9.66564
▁race	-9.66758
▁####	-9.6676
▁consider	-9.66771
▁IN	-9.66959
)`	-9.67168
▁battle	-9.67261
▁statement	-9.67268
▁brother	-9.6727
"])	-9.67321
rate	-9.67336
▁difference	-9.6734
▁measure	-9.67573
▁process	-9.67574
ce	-9.67594
▁understand	-9.67642
it	-9.67706
▁wild	-9.67815
▁Crespinell	-9.67829
▁permission	-9.67829
▁stopped	-9.67838
▁face	-9.6785
▁additional	-9.67875
▁necessary	-9.67906
▁development	-9.67913
▁believe	-9.67925
▁compared	-9.67979
▁longer	-9.68002
▁although	-9.68058
ary	-9.68121
▁loaded	-9.68148
▁showed	-9.68223
▁smoke	-9.6826
▁sat	-9.68271
▁ran	-9.68287
▁hot	-9.68294
▁torch	-9.68358
▁68.	-9.68363
▁batch	-9.68527
▁wagons	-9.68617
When	-9.68755
pdf	-9.68779
▁savages	-9.6879
▁fast	-9.69039
▁local	-9.69057
▁key	-9.69116
▁deep	-9.69408
name	-9.6952
▁Kxh	-9.69603
▁table	-9.69747
iter	-9.69784
ical	-9.7002
ccording	-9.70422
▁move	-9.70496
▁warrior	-9.70844
▁leave	-9.7094
▁boy	-9.70967
▁usual	-9.71321
▁electronic	-9.71394
▁Ermelo	-9.71397
▁twenty	-9.71397
▁discrete	-9.71399
▁Server	-9.71399
▁individual	-9.71399
▁geometry	-9.71401
▁row	-9.71403
▁Note	-9.71413
▁via	-9.71469
▁Thus	-9.71493
▁having	-9.71573
▁cows	-9.71648
▁running	-9.71701
▁hours	-9.71826
▁access	-9.7186
▁yes	-9.71869
▁gold	-9.72089
▁ndarray	-9.72181
>`.	-9.72241
▁variables	-9.72362
mask	-9.7237
▁uses	-9.72577
he	-9.72664
Nxh	-9.72812
▁step	-9.72995
▁hope	-9.73659
of	-9.73704
▁Nxh	-9.74034
▁float	-9.74051
▁provide	-9.74096
▁remain	-9.74106
▁land	-9.74159
▁wait	-9.74211
▁equation	-9.74553
▁makes	-9.74568
▁book	-9.74648
▁represent	-9.74855
▁family	-9.75093
▁glad	-9.751
▁celebration	-9.75103
▁configuration	-9.75107
▁sleep	-9.75123
▁outside	-9.75154
▁carried	-9.75204
▁avoid	-9.75223
2019	-9.75225
▁poor	-9.75238
▁happened	-9.7525
▁railway	-9.75278
▁passing	-9.75279
▁remained	-9.75279
▁estimated	-9.75318
▁answered	-9.75339
▁killing	-9.75402
▁Newton	-9.7548
ful	-9.75488
▁dataset	-9.75506
▁sum	-9.7569
▁defined	-9.75709
output	-9.75797
start	-9.76015
▁stage	-9.76221
▁open	-9.76242
learn	-9.76253
How	-9.76543
[0]	-9.76927
▁blood	-9.76967
▁rods	-9.77041
▁10	-9.77282
▁low	-9.77448
▁runs	-9.77587
▁command	-9.77926
▁appear	-9.78237
▁village	-9.78295
▁mountain	-9.78381
▁guide	-9.78569
less	-9.78613
▁crowd	-9.78738
▁initial	-9.78911
▁prince	-9.78937
▁Hermitian	-9.78947
▁immediately	-9.78962
▁job	-9.78979
▁suggest	-9.79016
▁Belfast	-9.79034
▁whose	-9.79083
kit	-9.79097
▁||	-9.79115
▁corresponds	-9.79141
▁depend	-9.79162
▁late	-9.79173
▁inference	-9.7922
▁cost	-9.79259
▁particularly	-9.79353
▁th	-9.79387
▁criterion	-9.79423
▁really	-9.79429
per	-9.79461
▁fighting	-9.79486
▁total	-9.79567
▁Every	-9.79596
▁begin	-9.79619
▁strong	-9.79666
▁John	-9.79846
▁weight	-9.79853
▁error	-9.79983
▁current	-9.80034
server	-9.80227
▁objects	-9.80243
▁python	-9.80308
▁main	-9.80374
types	-9.80437
axis	-9.80449
▁added	-9.80487
Nxa	-9.80686
▁orders	-9.8113
▁pass	-9.81429
scores	-9.81709
If	-9.81914
▁What	-9.81917
V	-9.82039
▁influence	-9.82265
▁aggregation	-9.82454
▁Compute	-9.82544
▁store	-9.8275
▁proud	-9.8284
rand	-9.82848
▁leaf	-9.8285
▁##	-9.82927
▁Foundation	-9.82935
▁beginning	-9.82937
▁Relativity	-9.82937
▁Heaven	-9.82938
▁tried	-9.82976
▁meant	-9.82981
▁companions	-9.82993
▁corresponding	-9.83031
▁usually	-9.83046
▁watch	-9.83072
udf	-9.83076
▁available	-9.83137
▁positive	-9.83138
▁charge	-9.8321
nIn	-9.83234
▁determined	-9.83308
▁series	-9.83334
▁link	-9.83335
▁complete	-9.83402
▁match	-9.83581
example	-9.83663
▁Mr	-9.83978
▁observed	-9.83982
▁datasets	-9.84248
▁Here	-9.84257
▁stop	-9.84291
MLflow	-9.84362
docs	-9.84516
validation	-9.84607
[:	-9.84689
iris	-9.84727
▁path	-9.84891
▁stream	-9.84946
"""	-9.85035
2013	-9.85372
▁refer	-9.85378
▁l	-9.85444
▁prediction	-9.85579
▁deal	-9.86422
▁honor	-9.86503
▁attempt	-9.8654
▁game	-9.86585
▁bottle	-9.86626
ic	-9.86725
▁American	-9.86795
▁heart	-9.86911
by	-9.86939
▁params	-9.86968
▁importance	-9.86993
▁entire	-9.87018
▁carry	-9.8704
▁General	-9.87043
▁popular	-9.87099
▁theoretical	-9.87101
▁wife	-9.87107
▁wonderful	-9.87119
▁seven	-9.87125
▁observer	-9.8715
▁suddenly	-9.87154
▁description	-9.87211
▁chest	-9.87227
▁watched	-9.87284
Nge	-9.874
▁Gaussian	-9.87419
▁69.	-9.87424
▁try	-9.87497
all	-9.875
").	-9.87596
▁produced	-9.8771
▁provides	-9.87743
▁accuracy	-9.87803
▁pictures	-9.87817
▁meaning	-9.87822
▁conditions	-9.8799
▁Dur	-9.88106
▁becomes	-9.88123
array	-9.88161
get	-9.8819
stage	-9.88254
▁apply	-9.88567
Give	-9.88727
▁Mzaan	-9.889
▁doing	-9.8897
like	-9.89017
ting	-9.89092
▁red	-9.89217
nce	-9.89282
▁none	-9.89551
▁reg	-9.89935
trees	-9.90077
▁stepp	-9.90326
▁FOR	-9.90537
▁[1	-9.90623
▁farm	-9.90627
▁square	-9.90683
▁fear	-9.90806
▁language	-9.90835
▁types	-9.90915
▁circle	-9.90976
▁practice	-9.91021
▁happen	-9.91066
▁hour	-9.912
▁big	-9.91296
▁exact	-9.91388
▁An	-9.91432
▁rate	-9.91433
▁differ	-9.91434
▁propagation	-9.9145
▁Commissioner	-9.91451
▁cattle	-9.9147
▁army	-9.91483
Classifier	-9.91535
▁spherical	-9.91557
▁interesting	-9.91581
▁track	-9.91611
▁months	-9.91612
▁treated	-9.91616
▁70.	-9.91634
▁drawn	-9.91656
▁equivalent	-9.91677
})	-9.91697
▁construction	-9.91709
▁neg	-9.91731
▁Tom	-9.91829
▁North	-9.91922
▁contains	-9.9193
▁valid	-9.91941
▁foot	-9.92047
▁mountains	-9.9208
▁guard	-9.92141
day	-9.92188
▁natives	-9.92321
▁cross	-9.92346
▁rifles	-9.92377
▁round	-9.92531
▁content	-9.92565
▁clock	-9.92749
Model	-9.93104
two	-9.93199
fraction	-9.93375
Y	-9.9341
ts	-9.93412
Why	-9.9342
stream	-9.93557
add	-9.93888
▁cases	-9.94467
▁require	-9.94998
▁attack	-9.95028
▁person	-9.95217
▁solution	-9.95373
2"]	-9.95407
▁river	-9.95413
▁expedition	-9.95417
▁picture	-9.95442
▁len	-9.95473
▁norm	-9.95747
▁approach	-9.95758
▁protect	-9.958
▁choice	-9.95805
▁variable	-9.95869
▁accord	-9.95918
▁independent	-9.9593
▁kno	-9.95943
▁League	-9.95999
▁easily	-9.96011
▁therefore	-9.96016
▁basis	-9.96034
ally	-9.96034
▁classical	-9.96034
▁grass	-9.96035
({"	-9.96046
▁assured	-9.96064
▁delay	-9.96072
▁enemy	-9.96101
▁Klaas	-9.96102
▁greatest	-9.96104
▁comparison	-9.96106
▁label	-9.96118
▁nearly	-9.9612
▁plane	-9.96145
▁certainly	-9.96158
▁carrying	-9.96199
▁rope	-9.96249
▁learned	-9.96275
▁arranged	-9.96297
▁broken	-9.96318
▁greater	-9.96347
Tell	-9.96398
▁predicted	-9.96471
▁remaining	-9.96685
▁fully	-9.96699
len	-9.96766
▁operations	-9.96785
>>	-9.96836
▁trained	-9.96897
▁Lasso	-9.96935
▁Not	-9.96992
▁club	-9.97292
(0,	-9.97476
▁dance	-9.97502
key	-9.97575
▁shows	-9.97667
`:	-9.97946
proba	-9.97958
apply	-9.98177
ifft	-9.98252
gradient	-9.98255
quantile	-9.98268
▁Kxc	-9.98318
metrics	-9.98425
learning	-9.98465
set	-9.98486
▁hills	-9.98576
▁plan	-9.98593
write	-9.98607
▁transform	-9.98673
zeros	-9.98715
▁validation	-9.98805
ial	-9.99037
▁examples	-9.99087
std	-9.99127
▁systems	-9.99162
"--	-9.99298
▁9	-9.99392
H	-9.99417
▁1)	-9.99456
ING	-9.99535
▁remark	-9.99837
▁situation	-10.0005
with	-10.0015
▁performance	-10.0026
▁Even	-10.0036
▁previous	-10.0067
▁toward	-10.0076
▁RELATIVITY	-10.0076
▁veldt	-10.0076
▁SWAZILAND	-10.0076
GradientBoosting	-10.0076
▁impossible	-10.0076
▁message	-10.0076
▁mules	-10.0076
▁satisfy	-10.0076
▁connection	-10.0076
▁powerful	-10.0076
▁behaviour	-10.0077
There	-10.0078
▁fairly	-10.0078
▁slowly	-10.0079
▁expression	-10.008
▁enter	-10.0081
▁faster	-10.0081
▁shouted	-10.0083
▁difficulty	-10.0083
In	-10.0085
▁binary	-10.0088
▁satisfied	-10.0092
▁centre	-10.0092
▁trying	-10.0096
▁smaller	-10.0097
latest	-10.0098
▁71.	-10.0102
▁break	-10.0103
▁shortly	-10.0105
▁outfit	-10.0106
▁appeared	-10.0109
▁build	-10.0109
▁fashion	-10.0111
▁free	-10.0112
▁math	-10.0117
▁artifact	-10.0118
▁72.	-10.012
▁specific	-10.012
▁Great	-10.0122
')	-10.0127
▁workers	-10.0128
▁supported	-10.0137
▁convert	-10.0141
▁signature	-10.0146
nan	-10.0155
1.	-10.0164
_{\	-10.0164
▁computed	-10.0168
▁lives	-10.0172
▁copy	-10.0181
▁""	-10.0183
▁init	-10.0184
▁eye	-10.0196
▁resulting	-10.0196
▁Red	-10.0203
▁keys	-10.0242
_2,	-10.025
change	-10.0269
▁band	-10.0275
)`.	-10.0294
▁artifacts	-10.0314
▁perform	-10.0321
Kxh	-10.0333
▁Y	-10.0351
▁area	-10.04
▁ray	-10.042
▁20	-10.0424
ent	-10.0474
▁comes	-10.0474
ur	-10.048
▁replace	-10.0482
▁shoot	-10.0484
▁And	-10.049
ment	-10.0492
>`_	-10.0509
▁observation	-10.0519
▁setting	-10.052
▁cause	-10.0522
▁lot	-10.0535
▁forth	-10.0542
▁gather	-10.0555
▁shot	-10.0561
▁determine	-10.0574
▁coffee	-10.0576
▁Dutch	-10.0576
▁Instead	-10.0576
▁ceremonies	-10.0576
▁agree	-10.0576
▁dawn	-10.0576
▁laid	-10.0577
▁heavy	-10.0578
▁spot	-10.0579
▁reality	-10.0579
▁lost	-10.058
▁finished	-10.0581
▁physics	-10.0582
▁leader	-10.0583
▁stock	-10.0585
▁largest	-10.0585
▁dying	-10.0588
▁associated	-10.059
▁Soon	-10.0594
▁entered	-10.0595
▁Makeza	-10.06
▁library	-10.06
▁animals	-10.06
▁Q	-10.0602
▁mentioned	-10.0605
▁typical	-10.061
▁World	-10.0612
ian	-10.0614
▁unique	-10.0614
▁standing	-10.0615
▁efficient	-10.0616
▁talking	-10.0617
▁safe	-10.0623
▁absolute	-10.0625
▁categories	-10.0626
▁generally	-10.0627
▁ahead	-10.0631
▁consist	-10.0633
▁requires	-10.0639
▁sound	-10.065
▁numerical	-10.0651
▁sp	-10.0667
▁signal	-10.0668
▁1-	-10.0709
▁U	-10.0715
▁2-	-10.0721
▁city	-10.0721
il	-10.0734
rod	-10.0736
ive	-10.074
world	-10.0762
term	-10.0767
Rcd	-10.0769
▁nn	-10.0792
point	-10.0813
reference	-10.0816
env	-10.082
▁uncle	-10.0826
_1,	-10.0829
▁text	-10.0832
diviner	-10.0834
depth	-10.0844
▁gradient	-10.0845
▁opt	-10.0845
subsample	-10.0846
classifier	-10.0854
based	-10.0856
Kxc	-10.0864
▁lay	-10.0865
----------------	-10.088
▁contain	-10.0888
▁named	-10.0889
▁noted	-10.0892
▁Hand	-10.0895
▁How	-10.09
rs	-10.0904
ince	-10.0912
G	-10.0926
▁age	-10.0928
▁dis	-10.0943
Rfb	-10.101
▁period	-10.1023
▁domain	-10.1043
▁element	-10.1045
▁shield	-10.1046
▁stone	-10.1054
▁India	-10.1075
▁broke	-10.1077
true	-10.1081
▁wish	-10.1085
▁drop	-10.1094
▁speak	-10.1094
im	-10.1101
▁escort	-10.1102
▁Gini	-10.1102
▁subject	-10.1102
▁ceremony	-10.1102
▁planned	-10.1102
▁Shortly	-10.1103
▁floor	-10.1103
▁caves	-10.1103
▁fellow	-10.1106
▁ourselves	-10.1106
ted	-10.111
▁third	-10.1114
▁announced	-10.1114
▁understood	-10.1114
▁copyright	-10.1115
▁vary	-10.1116
▁corn	-10.1118
▁performed	-10.1121
▁belong	-10.1123
▁judged	-10.1123
▁First	-10.1127
▁fell	-10.114
▁assume	-10.1141
▁73.	-10.1157
▁3,	-10.1163
for	-10.1169
▁starting	-10.1173
▁wore	-10.1174
ch	-10.1202
80	-10.1215
▁truth	-10.1219
^	-10.1222
▁leaves	-10.1222
▁multi	-10.1224
▁sparse	-10.1226
▁level	-10.1228
▁included	-10.1237
1"]	-10.1239
▁files	-10.1251
▁border	-10.1251
▁matrix	-10.1277
▁ago	-10.1313
▁questions	-10.1323
feature	-10.1324
▁verbose	-10.1331
▁tent	-10.1346
rew	-10.1377
▁sub	-10.1395
▁wear	-10.1395
onnx	-10.1398
▁note	-10.1456
rods	-10.1474
They	-10.1483
any	-10.1497
pache	-10.1498
▁Nxa	-10.1501
|	-10.1524
~~~~~~~~~~~~~~~~	-10.1533
spite	-10.1538
▁win	-10.1555
▁places	-10.1558
<	-10.156
())	-10.1579
▁Dickson	-10.1593
▁messenger	-10.16
▁Prince	-10.1605
▁team	-10.1605
▁closed	-10.1617
▁price	-10.1619
▁structure	-10.162
▁season	-10.1622
▁proceed	-10.1632
▁material	-10.1637
▁accept	-10.1639
ng	-10.1647
▁quick	-10.1648
▁Nce	-10.165
▁final	-10.1651
nth	-10.1656
▁Use	-10.1657
▁equipment	-10.1657
▁recommend	-10.1657
▁transmission	-10.1657
▁curious	-10.1657
▁excited	-10.1657
▁consequence	-10.1658
▁buried	-10.1658
▁Jackson	-10.1658
▁maximum	-10.1658
▁leaving	-10.1658
▁future	-10.1658
▁living	-10.1658
▁anxious	-10.1659
▁lightning	-10.166
▁Town	-10.166
▁dropped	-10.1663
▁science	-10.1665
▁story	-10.1666
▁north	-10.1669
▁settled	-10.1669
▁existence	-10.167
▁campus	-10.1671
▁intended	-10.1672
▁Theory	-10.1672
▁sign	-10.1672
▁highest	-10.1673
▁lie	-10.1674
▁reader	-10.1677
▁serve	-10.1682
▁noticed	-10.1684
run	-10.1688
▁larger	-10.1692
▁paid	-10.1693
▁Zulus	-10.1698
▁License	-10.1699
▁removed	-10.1703
▁Their	-10.1706
▁calling	-10.1708
sky	-10.1711
▁penalty	-10.1713
▁74.	-10.1715
▁needed	-10.1716
▁deployment	-10.1716
▁shields	-10.1717
0,	-10.1717
**:	-10.1736
▁looking	-10.1741
▁fitting	-10.1751
group	-10.1767
▁ideas	-10.1792
▁labels	-10.1796
▁supports	-10.1799
▁problems	-10.1807
}}	-10.1838
▁rules	-10.1845
▁3	-10.185
▁squares	-10.1857
▁UDF	-10.1876
▁grouping	-10.1876
Ngf	-10.189
▁definite	-10.1893
This	-10.191
▁War	-10.1922
aggregate	-10.1927
▁flavors	-10.1933
only	-10.1941
rfft	-10.197
error	-10.1986
pmdarima	-10.1988
▁actual	-10.1994
verbose	-10.1995
Mzaan	-10.1995
numpy	-10.1996
iteration	-10.2
clock	-10.2005
values	-10.2011
▁hash	-10.2028
▁server	-10.2061
▁product	-10.2122
▁Nkoos	-10.2133
▁spark	-10.214
▁follow	-10.2146
▁Cap	-10.2154
▁increase	-10.2169
▁interview	-10.2175
▁St	-10.2178
▁attribute	-10.219
▁expect	-10.2196
▁coefficient	-10.2204
▁escape	-10.2214
▁devil	-10.2219
▁solver	-10.2222
▁strange	-10.2236
▁correct	-10.2236
▁catch	-10.2241
▁gravitation	-10.2243
▁afternoon	-10.2246
▁evidence	-10.2246
▁situated	-10.2246
▁countries	-10.2246
▁football	-10.2246
huber	-10.2246
▁surrounded	-10.2246
▁dark	-10.2248
▁corner	-10.2251
ba	-10.2252
▁pre	-10.2253
▁informed	-10.2255
▁walked	-10.2257
▁UI	-10.2257
▁choose	-10.2258
▁easy	-10.2258
▁ROYAL	-10.2259
autolog	-10.2259
▁stay	-10.2263
▁planet	-10.2266
▁shooting	-10.2268
▁bit	-10.2269
▁breaking	-10.2272
▁indicated	-10.2273
▁Mapors	-10.2275
▁hair	-10.2275
▁understanding	-10.2278
▁refused	-10.2282
▁promised	-10.2286
▁continued	-10.2287
▁tracking	-10.2288
▁uniformly	-10.2296
▁referred	-10.2297
▁thinking	-10.2298
▁probability	-10.2305
▁farmer	-10.2312
▁75.	-10.2329
▁module	-10.2334
xtraction	-10.2334
▁logged	-10.2335
men	-10.234
_1`	-10.2342
▁outliers	-10.235
▁Her	-10.2353
▁read	-10.2358
▁rows	-10.237
▁ordered	-10.2377
land	-10.2388
▁search	-10.2392
co	-10.2403
▁doctor	-10.2411
▁ML	-10.2422
▁iteration	-10.2439
value	-10.2457
date	-10.2458
Rde	-10.2465
truck	-10.2492
▁nodes	-10.2513
▁news	-10.2547
zero	-10.255
uch	-10.2552
Well	-10.2592
axes	-10.2599
order	-10.2604
encoder	-10.2608
information	-10.2612
▁warm	-10.2613
statsmodels	-10.2623
down	-10.2627
multi	-10.2627
ant	-10.2634
space	-10.2645
height	-10.2648
▁v	-10.265
ther	-10.2674
▁Do	-10.2674
▁rule	-10.2691
▁tall	-10.2718
that	-10.2721
▁cover	-10.2731
▁interest	-10.2752
▁Din	-10.2753
▁str	-10.2766
coming	-10.2767
▁wonder	-10.2773
▁paragraph	-10.2809
Theil	-10.283
▁exist	-10.2843
se	-10.2846
pd	-10.2852
▁inputs	-10.2852
▁quiet	-10.2862
▁sudden	-10.2863
▁personal	-10.2865
================	-10.2866
▁Johannesburg	-10.287
▁excitement	-10.2871
▁conclusion	-10.2871
▁silence	-10.2871
▁documentation	-10.2871
▁wagonette	-10.2871
▁snake	-10.2871
▁\{#	-10.2871
▁territory	-10.2871
▁loose	-10.2871
▁repeated	-10.2871
▁discussion	-10.2872
▁attention	-10.2872
▁slab	-10.2873
▁guilty	-10.2873
▁dozen	-10.2873
▁seem	-10.2873
▁weather	-10.2874
▁orbit	-10.2874
▁Both	-10.2875
':	-10.2876
▁Reeds	-10.2876
▁introduce	-10.2879
▁pounds	-10.288
▁major	-10.2884
▁Snyman	-10.2884
▁imaginary	-10.2885
▁picked	-10.2885
▁tribute	-10.2885
▁property	-10.2885
▁derived	-10.2885
▁Friedman	-10.2885
csr	-10.2897
▁cast	-10.2898
▁perhaps	-10.29
▁V	-10.2901
▁metadata	-10.2901
▁school	-10.2901
▁waited	-10.2901
▁plain	-10.2902
▁Free	-10.2902
▁developed	-10.2903
▁Learning	-10.2906
▁generate	-10.2907
▁Load	-10.2914
▁represented	-10.2916
▁leading	-10.2927
▁consists	-10.2929
▁holding	-10.2932
▁header	-10.2934
▁76.	-10.2938
▁77.	-10.2966
▁America	-10.2973
Rhd	-10.2977
▁count	-10.2978
▁dependencies	-10.2982
▁goal	-10.3002
▁sick	-10.3014
▁looks	-10.3064
▁targets	-10.3089
▁act	-10.3093
▁rod	-10.3097
_2`	-10.3117
▁update	-10.3139
ridge	-10.314
over	-10.314
ct	-10.3141
if	-10.3157
▁heads	-10.3166
▁screen	-10.3169
count	-10.318
▁hill	-10.3204
▁doubt	-10.3205
os	-10.3214
Who	-10.3253
▁Rhe	-10.3267
lease	-10.3267
src	-10.3278
improvement	-10.3278
left	-10.3279
bodies	-10.3283
▁express	-10.3283
update	-10.3287
ible	-10.3289
201	-10.3292
▁separate	-10.3296
pi	-10.3304
mber	-10.3307
artifacts	-10.3316
▁arrays	-10.3351
Red	-10.3358
▁19	-10.3361
▁returns	-10.3388
io	-10.3393
side	-10.341
▁promise	-10.342
▁detail	-10.3464
kerrie	-10.3479
▁assegai	-10.348
▁car	-10.3481
▁ruler	-10.3484
▁charm	-10.3489
▁march	-10.3515
▁coordinate	-10.3515
▁character	-10.3519
▁direct	-10.352
▁piece	-10.3524
▁fresh	-10.3528
▁serious	-10.3528
▁unit	-10.3536
▁Javanese	-10.3537
▁vacuo	-10.3537
▁knife	-10.3537
▁breakfast	-10.3537
▁middle	-10.3537
▁properties	-10.3538
▁River	-10.3538
▁stories	-10.3538
▁donkeys	-10.3538
▁phenomena	-10.3539
▁farther	-10.3539
▁(“	-10.3539
▁simply	-10.354
▁significant	-10.354
▁concern	-10.3542
▁listened	-10.3543
▁draw	-10.3548
▁criteria	-10.3552
▁arbitrary	-10.3552
▁weak	-10.3553
▁exception	-10.3553
▁noise	-10.3555
▁detailed	-10.3556
▁hotel	-10.3557
▁conception	-10.3558
▁expressed	-10.3559
▁usage	-10.356
ummarization	-10.356
▁VI	-10.3568
▁luck	-10.357
▁town	-10.3572
ordinary	-10.3573
com	-10.3579
▁described	-10.3585
▁radius	-10.3586
▁Father	-10.3586
▁sometimes	-10.3587
▁love	-10.3588
▁buy	-10.3596
▁Owen	-10.3603
▁II	-10.3607
▁inside	-10.3609
▁tools	-10.3613
"]].	-10.362
▁Ju	-10.3626
▁room	-10.3631
▁noon	-10.3639
be	-10.3649
▁sends	-10.3652
▁arguments	-10.3653
▁possess	-10.3657
▁APIs	-10.3658
▁lies	-10.3659
▁lasted	-10.3681
▁cat	-10.3703
▁hundreds	-10.3714
wise	-10.3716
▁describe	-10.3727
▁uniform	-10.3732
▁0],	-10.3738
▁algorithms	-10.3744
owing	-10.3757
▁ts	-10.3759
▁says	-10.3766
▁Man	-10.3771
▁cow	-10.3785
Your	-10.3792
▁[0	-10.3792
see	-10.3804
▁Nfd	-10.3811
▁treat	-10.3817
son	-10.3832
but	-10.386
ike	-10.3894
▁...	-10.3896
▁empir	-10.3901
▁ill	-10.3909
red	-10.3927
Buno	-10.3932
▁address	-10.3933
attr	-10.3955
}`	-10.3966
matplotlib	-10.398
csv	-10.3982
ble	-10.3993
dropna	-10.3997
ensemble	-10.3998
impurity	-10.3999
dates	-10.3999
Now	-10.4003
level	-10.4005
--"	-10.4021
▁extra	-10.4021
Oom	-10.4041
sort	-10.4053
▁knows	-10.4055
She	-10.4059
▁pipe	-10.4106
loader	-10.4135
▁http	-10.4175
▁murder	-10.4178
▁conference	-10.4181
DecisionTree	-10.4187
For	-10.4198
▁ride	-10.42
New	-10.4201
]])	-10.4201
▁officer	-10.4203
▁relation	-10.4204
▁arrive	-10.4211
▁oil	-10.4212
▁raise	-10.4217
brains	-10.422
▁enjoy	-10.4231
▁request	-10.4231
▁flat	-10.4232
▁deliver	-10.4237
me	-10.4241
▁beautiful	-10.4242
▁construct	-10.4243
▁crown	-10.4243
▁formal	-10.4249
▁Gauss	-10.4251
▁geometrical	-10.4252
▁tswala	-10.4252
sqrt	-10.4252
▁division	-10.4252
▁magic	-10.4252
▁marble	-10.4252
▁missionaries	-10.4252
▁THEORY	-10.4252
▁automatically	-10.4252
▁precision	-10.4252
▁James	-10.4252
▁introduction	-10.4252
▁court	-10.4252
▁hypothesis	-10.4252
▁cloud	-10.4253
▁difficulties	-10.4253
▁everywhere	-10.4254
▁schema	-10.4254
▁unless	-10.4254
▁attached	-10.4257
▁impressed	-10.4257
▁office	-10.4259
▁bought	-10.4261
theta	-10.4262
▁engineering	-10.4263
▁steady	-10.4265
▁79.	-10.4265
▁religious	-10.4265
▁lose	-10.4266
▁validity	-10.4266
▁Place	-10.4267
▁descent	-10.4267
▁Rossman	-10.4267
▁regular	-10.4268
▁captured	-10.4269
▁pleasant	-10.4269
▁medium	-10.4269
▁memory	-10.427
▁armed	-10.4271
▁City	-10.4273
▁accepted	-10.4275
▁grown	-10.4277
▁supply	-10.4278
▁capital	-10.4279
▁prepared	-10.4279
▁saddle	-10.4284
rho	-10.4284
▁public	-10.4285
▁machine	-10.4285
▁parallel	-10.4285
▁bright	-10.4285
▁watching	-10.4286
▁78.	-10.4288
▁KING	-10.4293
NA	-10.4294
▁refuse	-10.4297
▁goes	-10.4299
basics	-10.43
▁discover	-10.43
▁welcome	-10.4303
▁directory	-10.4304
▁alone	-10.4315
▁stopping	-10.4323
▁clf	-10.4326
▁history	-10.4326
▁herself	-10.4328
▁board	-10.4329
▁rode	-10.433
ikipedia	-10.4332
▁May	-10.4337
▁categorical	-10.4341
▁showing	-10.4343
▁moved	-10.4353
▁80.	-10.4354
▁Bayesian	-10.4358
▁camped	-10.4366
▁greatly	-10.4371
▁brothers	-10.4371
▁origin	-10.4372
▁continue	-10.4377
▁pointed	-10.4403
flu	-10.4415
▁cold	-10.4426
▁fires	-10.4443
▁founded	-10.4444
▁Kxb	-10.4447
▁shift	-10.4453
▁attend	-10.4456
▁stated	-10.4467
step	-10.4472
▁logistic	-10.4473
▁nor	-10.4477
▁impurity	-10.4512
▁4,	-10.4526
ED	-10.4539
▁("	-10.4546
ish	-10.457
▁28	-10.4581
▁date	-10.4584
Rhe	-10.4592
▁White	-10.4624
▁active	-10.4634
▁cook	-10.4638
▁solve	-10.4696
power	-10.4701
la	-10.4714
first	-10.4716
▁eight	-10.4724
SKI	-10.4736
json	-10.4749
▁health	-10.4749
conda	-10.4753
johnsnowlabs	-10.4755
Yes	-10.4761
frequency	-10.4761
ized	-10.4761
selection	-10.4766
matrix	-10.4768
▁dies	-10.477
But	-10.477
My	-10.4792
can	-10.4807
cent	-10.486
▁fac	-10.4863
▁sets	-10.4903
▁blow	-10.492
ne	-10.4927
▁define	-10.4935
▁cut	-10.4945
▁calculation	-10.4951
▁yield	-10.4962
▁purpose	-10.4962
▁magnitude	-10.4964
▁Zulu	-10.4965
▁fool	-10.4973
▁Function	-10.4976
▁maintain	-10.4979
▁building	-10.4994
▁drive	-10.4995
▁explain	-10.5004
▁select	-10.5006
▁difficult	-10.5008
"]).	-10.501
▁silent	-10.5012
▁pick	-10.5012
▁brief	-10.5012
▁factor	-10.5019
lightgbm	-10.5021
▁mouth	-10.5021
▁Registry	-10.5021
▁liquor	-10.5021
▁Friday	-10.5021
▁GENERAL	-10.5021
▁accompanied	-10.5021
▁grandfather	-10.5021
▁ingredients	-10.5021
▁opinion	-10.5021
▁permanent	-10.5021
▁strength	-10.5021
▁applied	-10.5021
intercept	-10.5021
▁accelerated	-10.5021
20	-10.5021
wiki	-10.5021
▁shook	-10.5021
▁Literary	-10.5021
▁extraordinary	-10.5021
▁treatment	-10.5021
▁supplies	-10.5021
▁passage	-10.5021
▁collection	-10.5022
▁extent	-10.5022
▁purely	-10.5023
▁admit	-10.5024
▁sitting	-10.5024
▁insisted	-10.5026
▁slightly	-10.5027
▁award	-10.5028
▁trousers	-10.5028
▁proper	-10.503
▁Cup	-10.5032
▁enables	-10.5032
▁continuous	-10.5033
▁reported	-10.5034
▁higher	-10.5037
▁China	-10.5037
▁Machine	-10.5037
▁oxen	-10.5037
▁super	-10.5038
▁especially	-10.5042
▁ones	-10.5043
▁QUEEN	-10.5052
▁plt	-10.5057
▁Debeseembie	-10.5057
▁neither	-10.5057
▁Oct	-10.5057
▁fift	-10.5059
▁propositions	-10.506
▁established	-10.506
▁tired	-10.5066
▁rush	-10.5068
▁forty	-10.5074
▁Manaan	-10.5077
▁mathematical	-10.508
▁2022	-10.5088
▁fill	-10.5091
▁exists	-10.5092
▁behave	-10.5094
▁formation	-10.5097
▁FA	-10.5097
▁Poisson	-10.5097
▁charms	-10.5099
▁doors	-10.51
__(	-10.5104
▁born	-10.5106
">`	-10.5107
way	-10.5114
inertial	-10.5119
▁attempts	-10.5127
▁fall	-10.5133
}_	-10.5135
▁`'	-10.5146
storming	-10.5149
=1)	-10.5159
▁Bay	-10.5163
,000	-10.5164
_[	-10.5165
up	-10.5165
▁wave	-10.5167
▁doesn	-10.5173
saved	-10.5178
torming	-10.519
sen	-10.5203
▁implement	-10.5204
▁task	-10.5205
▁created	-10.5206
▁True	-10.5223
▁Bo	-10.5231
▁reasons	-10.5232
ond	-10.5235
▁Ridge	-10.5241
ard	-10.5251
▁holds	-10.5251
▁im	-10.5261
▁presents	-10.5276
▁aid	-10.5292
▁bank	-10.5292
▁user	-10.5317
▁deployments	-10.532
▁climb	-10.5322
▁spen	-10.5322
▁pe	-10.5335
from	-10.5335
▁classifier	-10.5339
▁Co	-10.5366
▁reflect	-10.5377
▁quantile	-10.5378
▁Nhf	-10.5386
res	-10.5395
▁outputs	-10.5398
▁share	-10.542
task	-10.5422
te	-10.5444
▁seconds	-10.5447
man	-10.5457
▁mi	-10.5459
▁prior	-10.546
▁record	-10.5485
new	-10.5487
40	-10.5489
column	-10.5522
▁export	-10.5527
01	-10.553
scale	-10.5539
catboost	-10.5551
right	-10.5551
str	-10.5553
tion	-10.5564
0.0,	-10.557
batch	-10.5593
ick	-10.5594
instance	-10.5596
uniform	-10.5596
pandas	-10.5598
logistic	-10.5602
importances	-10.5606
year	-10.5608
▁1]	-10.5617
brain	-10.5622
exp	-10.5622
added	-10.5629
▁Th	-10.5639
where	-10.5645
columns	-10.5646
search	-10.5649
▁images	-10.5705
stages	-10.5709
▁dash	-10.5717
Sen	-10.5724
▁desire	-10.5749
▁decide	-10.5754
▁limit	-10.5761
(1)	-10.5767
{\	-10.5788
▁combination	-10.5793
▁service	-10.5798
▁mu	-10.5799
▁moon	-10.58
▁rock	-10.5809
▁integer	-10.5811
CKS	-10.5811
▁handle	-10.5812
▁Example	-10.5813
proved	-10.5814
▁mode	-10.5817
▁subset	-10.5819
conf	-10.5821
▁official	-10.5835
▁deploy	-10.5837
}\	-10.5842
▁identical	-10.5845
▁clean	-10.5848
▁paper	-10.5851
▁mark	-10.5854
sigma	-10.5854
▁Canadian	-10.5854
▁dictionary	-10.5854
▁progress	-10.5854
▁splendid	-10.5854
▁birth	-10.5854
▁infinite	-10.5854
▁hypotheses	-10.5854
▁parser	-10.5854
▁valley	-10.5854
▁reduction	-10.5854
▁seldom	-10.5854
▁potential	-10.5854
▁speech	-10.5854
▁WITH	-10.5854
▁functionality	-10.5855
▁jax	-10.5855
CV	-10.5856
▁billion	-10.5857
▁behavior	-10.5858
esian	-10.5859
▁Un	-10.5859
▁donations	-10.5859
▁perfectly	-10.586
▁giving	-10.586
▁specification	-10.586
▁keenly	-10.5861
▁mixed	-10.5861
ober	-10.5863
▁receive	-10.5863
▁beings	-10.5863
▁cabin	-10.5864
▁cunning	-10.5864
▁halted	-10.5864
▁declared	-10.5864
▁etc	-10.5865
▁parties	-10.5865
▁surprised	-10.5867
▁troops	-10.5869
▁leaders	-10.587
▁Databricks	-10.5871
▁Royal	-10.5871
▁trademark	-10.5871
▁entirely	-10.5872
▁tied	-10.5874
▁population	-10.5874
▁registered	-10.5875
▁miss	-10.5877
▁finite	-10.5881
▁income	-10.5882
▁intervals	-10.5882
▁riding	-10.5882
▁advised	-10.5883
▁apart	-10.5897
▁center	-10.5898
▁spirits	-10.5898
▁hole	-10.59
▁dogs	-10.5901
lars	-10.5902
▁viewed	-10.5904
▁performing	-10.5905
▁grant	-10.5905
▁marked	-10.5914
▁Gradient	-10.5918
▁officers	-10.5921
▁US	-10.5922
▁member	-10.5925
▁cats	-10.5927
▁Fast	-10.5928
▁TUYS	-10.5936
Input	-10.5937
▁HIS	-10.5939
▁wood	-10.594
▁mile	-10.5945
▁saying	-10.5949
▁frame	-10.5962
▁alpha	-10.5963
U	-10.5968
▁ways	-10.5973
ccp	-10.5973
▁sphere	-10.5975
▁robust	-10.5979
▁terminal	-10.5982
▁(``	-10.5982
not	-10.5985
▁meal	-10.6
▁faced	-10.6003
=0)	-10.6007
▁lower	-10.6007
my	-10.6008
efore	-10.6019
▁thin	-10.6019
▁Raf	-10.602
▁mad	-10.602
▁forced	-10.6025
▁dim	-10.603
▁experiments	-10.6044
dx	-10.6053
(-1,	-10.6057
line	-10.6062
▁lighted	-10.6074
els	-10.6079
▁success	-10.6101
▁ba	-10.6108
▁sides	-10.6126
▁huts	-10.6129
ie	-10.6129
▁selection	-10.614
▁tale	-10.614
▁Po	-10.6141
lthough	-10.6142
▁pa	-10.6149
'`	-10.615
▁visits	-10.6163
▁18	-10.6177
▁Mos	-10.618
▁sorts	-10.6215
ia	-10.6215
▁j	-10.6233
▁worth	-10.624
001.	-10.6245
▁ball	-10.6246
▁XXI	-10.6278
view	-10.6279
▁fft	-10.6279
▁13	-10.6285
▁num	-10.6294
AL	-10.631
▁police	-10.6341
resample	-10.6372
default	-10.6385
nt	-10.6392
9.	-10.6404
fftn	-10.6422
signature	-10.6442
▁star	-10.6447
epoch	-10.6448
▁throw	-10.6453
decrease	-10.6471
API	-10.6476
kwargs	-10.6482
Ridge	-10.6497
ra	-10.6504
▁10,	-10.6504
Nkosikaas	-10.6505
curves	-10.6506
device	-10.6508
datetime	-10.6509
net	-10.6513
squared	-10.6517
king	-10.6522
ities	-10.6525
list	-10.6531
▁2)	-10.6538
▁flash	-10.6547
deployments	-10.6551
▁queens	-10.6552
un	-10.6554
(),	-10.6602
runs	-10.6615
read	-10.6617
^{	-10.664
▁design	-10.6644
▁glance	-10.6651
▁grow	-10.6656
names	-10.666
▁eat	-10.6668
position	-10.6674
_00	-10.668
▁Down	-10.6687
▁prob	-10.6688
▁husband	-10.6693
▁costume	-10.6699
et	-10.6701
▁walk	-10.6702
▁chicken	-10.6705
▁application	-10.6706
▁shadow	-10.6706
▁girl	-10.6706
ow	-10.6708
▁package	-10.6709
▁explanation	-10.6711
▁temperature	-10.6711
ated	-10.6713
▁vector	-10.672
▁please	-10.672
▁page	-10.6724
▁sacrifice	-10.6726
▁notice	-10.6726
()``	-10.6729
q	-10.6729
▁offer	-10.6736
▁human	-10.6747
▁odd	-10.6747
tol	-10.6749
ransac	-10.6753
▁practical	-10.6756
ose	-10.6756
▁West	-10.6757
J	-10.6759
linalg	-10.6763
Football	-10.6763
▁Diviner	-10.6763
▁England	-10.6763
▁Mercury	-10.6763
▁bottom	-10.6763
▁council	-10.6763
▁necessarily	-10.6763
▁stowaways	-10.6763
epsilon	-10.6763
▁convention	-10.6763
▁Division	-10.6763
▁conflict	-10.6763
▁written	-10.6763
▁Count	-10.6764
▁Gert	-10.6764
▁Makets	-10.6764
▁Value	-10.6764
▁Also	-10.6764
▁Alternatively	-10.6764
▁travelling	-10.6764
▁sheep	-10.6765
▁displacement	-10.6765
▁busy	-10.6765
▁scene	-10.6765
▁hurt	-10.6765
▁regent	-10.6765
▁Republic	-10.6766
▁pushed	-10.6766
▁nearby	-10.6766
▁whatever	-10.6768
▁drank	-10.677
▁simultaneously	-10.677
▁dust	-10.6771
▁successful	-10.6771
▁creating	-10.6772
▁naked	-10.6772
▁huge	-10.6773
ions	-10.6773
▁Special	-10.6773
▁edge	-10.6773
▁peak	-10.6773
▁demanded	-10.6775
▁extended	-10.6776
DAT	-10.6777
▁ensure	-10.6778
▁storage	-10.678
▁shock	-10.678
▁familiar	-10.6781
▁minimum	-10.6782
▁fifteen	-10.6782
▁offered	-10.6782
▁Another	-10.6782
▁guardian	-10.6783
▁walking	-10.6783
▁loud	-10.6785
▁Hence	-10.6785
▁interpretation	-10.6785
▁Later	-10.6785
▁density	-10.6786
▁legs	-10.6788
ely	-10.6792
▁hate	-10.6792
▁III	-10.6795
▁south	-10.6797
▁dimensions	-10.6798
▁particles	-10.6799
▁weeks	-10.68
professional	-10.6801
▁highly	-10.6803
▁shoulders	-10.6805
▁estimates	-10.6806
▁probabilities	-10.6806
▁glasses	-10.6807
▁directed	-10.6808
▁otherwise	-10.6813
▁containing	-10.6818
▁measurements	-10.6818
▁George	-10.6821
▁81.	-10.6824
▁affect	-10.6826
▁offers	-10.6826
▁LABOTSIBENI	-10.683
▁magnitudes	-10.6831
▁drinking	-10.6833
▁desired	-10.6833
▁post	-10.6833
▁related	-10.6835
▁tool	-10.6839
(1,	-10.6839
▁services	-10.6844
▁Micha	-10.6855
▁brave	-10.6855
▁Least	-10.6856
most	-10.6857
((	-10.686
Then	-10.6866
▁evening	-10.6872
2(	-10.6872
ern	-10.6874
batches	-10.6876
▁former	-10.6877
▁estimators	-10.6886
ide	-10.6886
interpreted	-10.689
▁fat	-10.6901
op	-10.6909
▁del	-10.691
▁refers	-10.6912
▁infer	-10.6916
▁teams	-10.6922
BRI	-10.6922
▁appears	-10.6922
▁libraries	-10.6928
▁optional	-10.693
▁boosting	-10.6931
▁pointing	-10.6942
▁rear	-10.6943
lower	-10.695
▁epoch	-10.6961
▁ability	-10.6986
▁changed	-10.6988
▁Select	-10.6999
ring	-10.6999
▁recognize	-10.7021
old	-10.7023
}}}	-10.7041
▁sh	-10.7048
custom	-10.7048
▁forget	-10.7052
▁cure	-10.7052
▁Reti	-10.7089
1,	-10.7095
groups	-10.7099
▁states	-10.711
="/	-10.7126
([1	-10.7133
csc	-10.7151
▁hit	-10.7166
night	-10.717
▁sons	-10.7172
▁numpy	-10.7175
▁chiefs	-10.7176
/).	-10.7195
edu	-10.72
▁horn	-10.7204
▁rights	-10.7228
▁Any	-10.7238
what	-10.7239
ball	-10.7266
grade	-10.7268
▁30	-10.7273
▁Base	-10.7282
▁manage	-10.7284
▁parts	-10.7286
▁haste	-10.7303
▁iris	-10.7322
CH	-10.7325
mse	-10.7327
▁Rhg	-10.736
▁wipe	-10.7365
▁install	-10.7368
▁nation	-10.7393
distance	-10.7409
lar	-10.7424
▁primar	-10.743
ker	-10.7438
dataset	-10.7453
64)	-10.7453
OM	-10.7459
sparse	-10.746
string	-10.7475
▁po	-10.7479
RANSAC	-10.7491
muti	-10.7494
('	-10.7497
FFT	-10.7498
Euclidean	-10.7501
least	-10.7507
argument	-10.7507
filter	-10.7507
missing	-10.751
()`	-10.7511
help	-10.7514
presented	-10.7515
room	-10.7519
dropout	-10.752
▁lad	-10.7521
Kxb	-10.7526
version	-10.7538
xgb	-10.7543
ar	-10.7546
ifftn	-10.7553
No	-10.7571
built	-10.7625
These	-10.7628
▁willing	-10.763
▁Con	-10.7642
loc	-10.7645
_-	-10.7654
{1}{	-10.7668
▁rng	-10.7669
▁report	-10.7675
10	-10.7685
▁bodyguard	-10.7693
▁assumption	-10.7704
▁advantage	-10.7705
▁arrangement	-10.7705
▁option	-10.7712
▁execution	-10.7713
▁numeric	-10.7714
▁fruit	-10.7719
▁medicine	-10.7724
▁payment	-10.7724
▁Except	-10.7732
▁route	-10.7736
▁minister	-10.7739
assic	-10.7749
▁breath	-10.7754
table	-10.7757
▁slight	-10.7759
PyFunc	-10.7763
TYPE	-10.7763
▁Breasts	-10.7763
▁Makateese	-10.7763
▁Minkowski	-10.7763
▁Pretoria	-10.7763
▁Surrey	-10.7763
▁album	-10.7763
▁liquid	-10.7763
▁nevertheless	-10.7763
▁peculiar	-10.7763
▁primitive	-10.7763
▁symmetry	-10.7763
▁volunteer	-10.7763
▁Execution	-10.7763
▁contrast	-10.7763
▁imposing	-10.7763
▁confidence	-10.7763
cumsum	-10.7763
▁worried	-10.7763
▁optimization	-10.7763
▁significance	-10.7763
▁advice	-10.7763
▁postulate	-10.7763
▁indignant	-10.7764
▁angry	-10.7764
morrow	-10.7764
▁specify	-10.7764
▁simultaneity	-10.7764
▁Animal	-10.7764
▁packed	-10.7764
▁Campus	-10.7764
▁daughter	-10.7764
▁assistance	-10.7764
▁Mauser	-10.7764
▁Charles	-10.7764
▁century	-10.7764
▁conversation	-10.7764
▁sunlight	-10.7764
▁framework	-10.7764
▁deviance	-10.7764
▁Park	-10.7764
▁replied	-10.7764
SPEC	-10.7765
▁![	-10.7765
▁Naturally	-10.7765
KEY	-10.7765
▁objective	-10.7766
▁occurred	-10.7766
▁shout	-10.7767
▁frequently	-10.7767
▁Just	-10.7767
](#	-10.7768
▁beads	-10.7768
▁broad	-10.7768
▁emitted	-10.7769
txt	-10.7769
▁activities	-10.777
▁justified	-10.777
▁amused	-10.777
▁sufficiently	-10.777
▁keen	-10.777
▁suffering	-10.7771
▁2020	-10.7772
▁dangerous	-10.7772
▁maids	-10.7772
Pandas	-10.7773
▁snow	-10.7775
▁reply	-10.7776
▁basic	-10.7776
▁patient	-10.7778
▁production	-10.7778
▁engine	-10.7779
overnment	-10.7779
('--	-10.7779
▁throwing	-10.778
▁Galilei	-10.7781
Generalized	-10.7782
▁joy	-10.7782
▁acceleration	-10.7784
▁demonstration	-10.7784
▁Squares	-10.7785
▁selected	-10.7786
▁filled	-10.7787
▁plumes	-10.7789
▁dinner	-10.779
▁distributed	-10.779
▁market	-10.7791
▁FR	-10.7792
▁closer	-10.7794
▁cooking	-10.7794
▁online	-10.7795
▁rose	-10.7795
▁tribes	-10.7796
▁wheels	-10.7796
▁instructions	-10.7798
▁style	-10.78
▁servants	-10.7803
▁door	-10.7805
rchive	-10.7806
reshape	-10.7807
▁spectrum	-10.781
▁Carl	-10.7814
30	-10.7815
▁rightful	-10.7819
▁Cart	-10.7819
▁external	-10.7819
rang	-10.7823
June	-10.7824
▁82.	-10.7824
▁shadows	-10.7827
▁worn	-10.7828
bert	-10.7831
▁officials	-10.7833
▁remote	-10.7836
▁Walton	-10.7836
▁variance	-10.7837
▁formulation	-10.7838
▁st	-10.784
▁factors	-10.784
▁sim	-10.7842
▁remembered	-10.7842
▁located	-10.7843
▁encoded	-10.7853
▁caused	-10.7856
▁Define	-10.7857
▁increased	-10.7859
▁Del	-10.7859
yhat	-10.7859
▁spectr	-10.786
▁serving	-10.7871
▁characters	-10.7872
▁levels	-10.7875
now	-10.7882
▁attributes	-10.7883
▁handed	-10.7885
▁Gamma	-10.789
▁ma	-10.7891
▁jnp	-10.7892
▁weighted	-10.7893
▁coordinates	-10.7894
▁{'	-10.7895
▁operate	-10.7901
rays	-10.7903
▁validate	-10.7907
▁bed	-10.791
▁books	-10.7923
▁moves	-10.793
▁Baas	-10.793
▁statements	-10.7937
▁variet	-10.7937
▁evil	-10.7939
▁Time	-10.7949
rnn	-10.795
▁PRO	-10.7961
▁}	-10.7962
▁formed	-10.7965
▁effects	-10.7972
▁London	-10.7972
▁complexity	-10.7975
ism	-10.7978
";	-10.798
▁args	-10.7981
▁filter	-10.7984
▁blacks	-10.7995
▁strings	-10.7999
▁worked	-10.8003
▁semi	-10.8007
Nbxd	-10.801
ty	-10.8014
▁xgb	-10.8019
ai	-10.8031
▁scar	-10.8048
▁datetime	-10.8056
head	-10.8067
▁steps	-10.8069
▁directions	-10.807
▁198	-10.8072
▁logical	-10.8073
ised	-10.8084
WE	-10.809
link	-10.8105
▁periods	-10.8109
▁tr	-10.8115
=1,	-10.8117
culptor	-10.8118
▁Rdd	-10.8122
▁gear	-10.8127
▁dropna	-10.8137
um	-10.8142
ior	-10.8143
▁tutorial	-10.8146
Logistic	-10.8152
▁ratio	-10.8171
▁dfg	-10.8182
OUR	-10.8189
▁100	-10.8189
appointed	-10.8191
▁statsmodels	-10.8195
▁lengths	-10.8203
``)	-10.8206
var	-10.8211
▁height	-10.8217
OW	-10.8236
▁computation	-10.8236
(\	-10.8282
▁Va	-10.8293
▁facts	-10.8327
▁speed	-10.8346
▁ON	-10.8356
ified	-10.8372
▁checkpoint	-10.8408
doubted	-10.8435
Ou	-10.8447
nd	-10.8453
idx	-10.8458
cient	-10.8492
ago	-10.8499
ling	-10.8503
low	-10.8511
field	-10.8521
format	-10.8531
▁sc	-10.8537
_1	-10.8541
white	-10.8554
▁bare	-10.857
▁Rhf	-10.857
▁mine	-10.8574
=0	-10.8579
setup	-10.8582
second	-10.8586
)``.	-10.8589
magnetic	-10.8589
three	-10.8595
decoder	-10.86
Index	-10.8603
Galileian	-10.8611
Lorentz	-10.8611
Categorical	-10.8612
negative	-10.8615
pipe	-10.8615
observed	-10.8617
periods	-10.8619
▁doct	-10.862
truth	-10.8627
copy	-10.8629
nodes	-10.8632
squares	-10.8635
board	-10.8643
ndarray	-10.8644
flavors	-10.865
norm	-10.8654
▁base	-10.8656
getting	-10.8673
▁goals	-10.8687
az	-10.8693
▁spirit	-10.8693
▁divide	-10.8703
ility	-10.8719
PLE	-10.8731
stable	-10.8732
mann	-10.8756
_3,	-10.8758
▁0]	-10.876
▁0:	-10.8776
ge	-10.8783
▁correspond	-10.879
keeping	-10.8804
▁suggestion	-10.8807
▁chunk	-10.8814
▁effort	-10.8815
▁benefit	-10.8817
▁proposition	-10.8818
▁Mapor	-10.8819
▁animal	-10.8826
ver	-10.8826
coef	-10.883
▁Rde	-10.8833
▁ghost	-10.8838
▁owner	-10.8843
▁issue	-10.8846
▁accomplish	-10.8848
▁realize	-10.8849
▁evaluate	-10.8856
▁trust	-10.8858
▁degree	-10.8865
▁eBook	-10.8866
▁music	-10.8871
▁incident	-10.8871
utenberg	-10.8873
riedman	-10.8874
FloatType	-10.8874
lbfgs	-10.8874
▁monitor	-10.8874
▁phrase	-10.8874
HuberRegressor	-10.8874
▁Hastie	-10.8874
▁Nevertheless	-10.8874
▁Portuguese	-10.8874
▁Umbandine	-10.8874
▁annoyed	-10.8874
▁appropriate	-10.8874
▁guitar	-10.8874
▁twelve	-10.8874
▁wrong	-10.8874
Grouper	-10.8874
▁eclipse	-10.8874
▁sanctification	-10.8874
▁Edward	-10.8874
▁hungry	-10.8874
▁responsible	-10.8874
▁teeth	-10.8874
▁gunner	-10.8874
▁Majesty	-10.8874
▁ashore	-10.8874
▁wrestl	-10.8874
xgboost	-10.8874
▁UCLA	-10.8874
▁presence	-10.8875
▁YOU	-10.8875
▁exile	-10.8875
▁generic	-10.8875
▁applies	-10.8875
▁Army	-10.8875
▁striking	-10.8875
▁modification	-10.8875
▁duty	-10.8875
▁thirty	-10.8875
▁company	-10.8875
▁approximation	-10.8875
▁study	-10.8875
yaml	-10.8875
▁driving	-10.8875
▁medical	-10.8875
▁military	-10.8875
▁movement	-10.8876
▁European	-10.8876
▁surrounding	-10.8876
▁queer	-10.8876
▁highway	-10.8877
▁Setting	-10.8877
▁favour	-10.8877
▁erect	-10.8878
liblinear	-10.8878
▁smoking	-10.8878
▁alongside	-10.8878
▁Part	-10.8879
▁extend	-10.8879
▁ellipse	-10.8879
▁cried	-10.8879
▁mechanical	-10.8879
▁Space	-10.8879
▁Irish	-10.8881
▁Boosting	-10.8881
▁supper	-10.8881
▁electrodynamics	-10.8882
▁1960	-10.8883
Text	-10.8884
iloc	-10.8884
_2_	-10.8884
▁pulled	-10.8885
▁double	-10.8885
boxplot	-10.8885
▁jumped	-10.8885
▁properly	-10.8887
▁cup	-10.8888
▁limitation	-10.889
▁alcohol	-10.8892
▁Sport	-10.8892
▁clay	-10.8892
▁longest	-10.8894
▁famous	-10.8894
▁More	-10.8895
▁NumPy	-10.8896
▁Maleuw	-10.8896
▁Maxwell	-10.8896
▁Vilakazi	-10.8896
▁generator	-10.8897
▁Spark	-10.8897
▁Robert	-10.8897
▁masses	-10.8897
▁Sen	-10.8898
▁roadway	-10.8899
▁blue	-10.8902
▁BOER	-10.8902
▁smiled	-10.8904
qui	-10.8905
▁marched	-10.8905
▁badly	-10.8906
▁equally	-10.891
▁bearing	-10.8911
▁bass	-10.8911
rotating	-10.8912
▁wished	-10.8915
▁formula	-10.8915
▁engineer	-10.8916
▁con	-10.8918
▁ranks	-10.8919
▁climbed	-10.8921
▁attended	-10.8921
▁attacked	-10.8921
▁oob	-10.8921
▁feared	-10.8923
▁Runs	-10.8925
▁LARS	-10.8925
▁ONNX	-10.8925
▁license	-10.8925
▁SEBUZA	-10.8926
▁denominator	-10.8926
▁multinomial	-10.8926
▁eating	-10.8929
▁comply	-10.893
▁compare	-10.8933
▁opening	-10.8934
▁speeds	-10.8935
▁options	-10.894
▁processing	-10.894
ECT	-10.8942
▁Suppos	-10.8944
▁girls	-10.8945
▁simultaneous	-10.8947
▁Pel	-10.8951
▁box	-10.8955
▁sentence	-10.8958
▁defines	-10.8965
▁escaped	-10.8965
▁sequence	-10.897
▁appreciate	-10.897
▁older	-10.8971
▁rough	-10.8974
▁Series	-10.8979
▁hence	-10.8979
ir	-10.8981
ned	-10.8982
▁indicate	-10.8982
ley	-10.8983
▁beat	-10.8986
▁pan	-10.8988
(0)	-10.8993
lines	-10.8995
▁rolling	-10.8995
▁multiclass	-10.8995
▁speaking	-10.8999
▁elements	-10.9002
lo	-10.9004
▁helped	-10.9006
▁2],	-10.9007
▁solvers	-10.9009
▁stored	-10.9013
▁volume	-10.9014
sacred	-10.902
▁region	-10.9024
▁observations	-10.9029
▁Khan	-10.9037
▁interface	-10.9041
▁grid	-10.905
▁median	-10.9055
▁cell	-10.9058
▁requirements	-10.9059
stern	-10.9062
▁shame	-10.9064
▁User	-10.9066
▁dare	-10.9067
▁interpret	-10.9067
▁claim	-10.9079
▁leap	-10.9091
▁probabl	-10.9092
face	-10.9097
masked	-10.9098
▁/>.	-10.9107
▁angle	-10.9108
▁saluted	-10.911
stic	-10.9118
▁Additional	-10.9125
Create	-10.913
bout	-10.914
▁harm	-10.9144
▁rum	-10.9145
hand	-10.9166
Rhf	-10.9175
▁Ver	-10.9181
nn	-10.9189
▁lift	-10.9189
▁ex	-10.9191
▁fun	-10.9202
▁asking	-10.9202
▁Nkosikaas	-10.9203
▁analogous	-10.9212
▁gas	-10.9213
▁ox	-10.9217
▁statue	-10.9225
Nce	-10.9226
de	-10.9233
▁velocit	-10.9237
fore	-10.9251
▁Decision	-10.9267
▁Ho	-10.9268
ds	-10.927
▁combine	-10.9289
▁ensemble	-10.9291
xe	-10.9311
▁bet	-10.9316
ON	-10.932
▁imp	-10.9324
▁squared	-10.9328
Regression	-10.9337
ro	-10.9344
▁project	-10.935
▁OR	-10.9359
ST	-10.9361
▁hesitate	-10.9361
ily	-10.9377
▁Rec	-10.9379
▁env	-10.938
remier	-10.9383
▁Index	-10.9387
▁Rdc	-10.9409
▁seize	-10.9418
gged	-10.9424
ake	-10.9424
hrew	-10.943
"].	-10.9442
▁decrease	-10.9451
▁depth	-10.946
eq	-10.946
dressed	-10.9463
▁Und	-10.9466
▁``2*	-10.9497
)``	-10.9514
▁examine	-10.9527
you	-10.9546
▁Ndf	-10.955
▁nth	-10.9611
cli	-10.9616
au	-10.9619
ef	-10.9631
3.	-10.9656
tutorials	-10.9662
_0	-10.9664
▁electric	-10.9665
ches	-10.9668
▁"193	-10.9688
IAL	-10.9692
we	-10.9706
ls	-10.972
more	-10.9721
US	-10.9745
▁convince	-10.9754
dict	-10.9758
▁Nbc	-10.976
▁plot	-10.9765
▁motions	-10.9768
▁Run	-10.9776
am	-10.978
normal	-10.9783
artifact	-10.9803
deployment	-10.9804
store	-10.9805
return	-10.9806
▁embed	-10.9807
pip	-10.9811
▁zeros	-10.9814
cat	-10.9817
pytorch	-10.9817
▁arc	-10.9826
div	-10.9826
Queen	-10.9833
MultiIndex	-10.9838
irfft	-10.9852
PythonModel	-10.9855
Lasso	-10.986
transformers	-10.986
regions	-10.986
describe	-10.9861
BUNO	-10.9861
complexity	-10.9865
London	-10.9866
▁div	-10.9867
That	-10.987
▁La	-10.987
▁pour	-10.9874
hich	-10.9884
rfftn	-10.9894
args	-10.9905
pred	-10.9907
▁sea	-10.9913
equality	-10.9926
tz	-10.9926
▁fee	-10.9933
▁tea	-10.9946
▁slow	-10.9955
ate	-10.996
▁muti	-10.9961
▁Com	-10.9975
ory	-10.9979
played	-10.9991
▁estimate	-11.0025
off	-11.0035
mod	-11.0044
▁concept	-11.005
▁suit	-11.0052
▁pattern	-11.0054
▁settlement	-11.0054
▁strike	-11.0055
▁neighbor	-11.0056
quality	-11.0057
▁***	-11.0058
([0	-11.0062
▁novel	-11.0064
▁district	-11.0069
Identif	-11.0071
TH	-11.0072
▁past	-11.0074
03	-11.0079
▁residual	-11.0089
▁optimizer	-11.0092
▁prepare	-11.0093
▁pair	-11.0095
▁electro	-11.0101
▁Sri	-11.0103
▁assist	-11.0104
▁surrender	-11.0105
istic	-11.0112
▁danger	-11.0117
▁essential	-11.0117
▁firm	-11.012
▁foolish	-11.0124
▁barren	-11.0124
▁enemies	-11.0124
LICENSE	-11.0124
uhamba	-11.0124
▁Immediately	-11.0124
▁Perhaps	-11.0124
▁Richard	-11.0124
▁Swiney	-11.0124
▁Tibshirani	-11.0124
▁antelope	-11.0124
▁citrus	-11.0124
▁commenced	-11.0124
▁conservation	-11.0124
▁episode	-11.0124
▁percussion	-11.0124
▁pyramid	-11.0124
▁succeed	-11.0124
▁stabbing	-11.0124
Chinese	-11.0124
▁Biddy	-11.0124
▁Further	-11.0124
▁contrary	-11.0124
▁swung	-11.0124
NEIL	-11.0124
▁drunk	-11.0124
[0],	-11.0124
▁Shape	-11.0124
▁swift	-11.0124
▁knowledge	-11.0124
▁cordial	-11.0124
▁President	-11.0125
▁plateau	-11.0125
LassoLars	-11.0125
numerator	-11.0125
▁sugar	-11.0125
▁transmitted	-11.0125
▁daily	-11.0125
▁earnest	-11.0125
▁refund	-11.0125
▁Honey	-11.0125
▁gourd	-11.0125
▁fair	-11.0125
▁Regiment	-11.0125
▁prize	-11.0125
▁sharp	-11.0125
▁remind	-11.0125
▁Albert	-11.0125
▁providing	-11.0125
▁steam	-11.0125
▁National	-11.0125
▁dagga	-11.0125
▁programming	-11.0126
▁pride	-11.0126
▁Appendix	-11.0126
infty	-11.0126
▁XII	-11.0126
▁tension	-11.0126
▁private	-11.0126
▁Average	-11.0126
▁swallow	-11.0126
▁confirmed	-11.0126
▁supplied	-11.0126
▁winner	-11.0127
▁mysterious	-11.0127
▁taught	-11.0127
Interval	-11.0127
▁thoroughly	-11.0127
▁Return	-11.0128
delta	-11.0129
TweedieRegressor	-11.0129
▁explicitly	-11.0129
▁boxes	-11.013
▁nearest	-11.013
▁outlying	-11.013
▁France	-11.013
▁optimized	-11.013
▁strictly	-11.0131
▁forgotten	-11.0132
▁exhausted	-11.0132
▁roughly	-11.0132
▁carefully	-11.0133
")]	-11.0133
AGE	-11.0134
▁Germany	-11.0134
▁suffered	-11.0134
▁script	-11.0136
▁integration	-11.0136
/~	-11.0136
▁anywhere	-11.0136
▁gestures	-11.0136
▁weapons	-11.0136
▁lady	-11.0137
▁Hall	-11.0138
▁sufficient	-11.0138
▁worry	-11.0138
▁gap	-11.014
▁196	-11.014
▁variations	-11.014
▁assigned	-11.0141
▁fought	-11.0143
▁BY	-11.0143
▁deductions	-11.0144
▁feast	-11.0145
▁terrible	-11.0146
▁freely	-11.0146
▁shouting	-11.0146
▁Matt	-11.0147
▁width	-11.0148
▁hessian	-11.0148
▁Korea	-11.0149
▁Brazil	-11.0149
▁Dunphy	-11.0149
▁female	-11.0149
▁Spanish	-11.0149
▁California	-11.0149
waiting	-11.0149
▁ValueError	-11.0149
▁specifying	-11.0149
▁released	-11.015
▁motor	-11.0151
▁dependent	-11.0152
▁proportional	-11.0152
▁centered	-11.0153
▁Support	-11.0154
▁virtue	-11.0154
▁sports	-11.0156
▁enjoyed	-11.0157
▁grave	-11.0157
pyplot	-11.0158
▁Trees	-11.0158
▁cities	-11.0159
▁mis	-11.0159
▁anyone	-11.0159
▁Grouping	-11.016
▁crowned	-11.0162
quickstart	-11.0162
▁eaten	-11.0164
▁bound	-11.0165
▁closely	-11.0166
▁driven	-11.0166
▁sail	-11.0168
▁friendly	-11.0169
NS	-11.0171
▁mess	-11.0172
▁remarked	-11.0174
▁demands	-11.0176
▁copie	-11.0177
▁...:	-11.0179
▁reduced	-11.0179
▁empty	-11.0182
▁districts	-11.0182
▁August	-11.0183
▁boolean	-11.0183
▁subsequent	-11.0184
▁perfect	-11.0184
▁inspect	-11.0185
▁195	-11.0185
▁chemical	-11.0185
▁container	-11.0187
▁shake	-11.0189
▁pleased	-11.0189
▁tail	-11.019
▁prisoners	-11.0192
▁remove	-11.0192
▁possibilit	-11.0192
▁sacrificed	-11.0193
▁acted	-11.0194
resize	-11.0198
▁playing	-11.0199
RY	-11.02
▁protected	-11.0201
▁saving	-11.0205
ewton	-11.0208
▁XI	-11.0209
▁paying	-11.0211
▁Examples	-11.0214
▁threshold	-11.0218
▁exclusive	-11.0218
▁calm	-11.0223
▁1958	-11.0227
([[1	-11.0229
▁stax	-11.0231
▁oils	-11.0234
>`,	-11.0235
▁tax	-11.0236
▁bull	-11.0237
▁hike	-11.024
▁testing	-11.024
▁lack	-11.0242
▁assegais	-11.0244
▁predicting	-11.0244
▁Creat	-11.0246
▁relations	-11.0247
era	-11.025
▁Princess	-11.0251
▁gain	-11.0252
▁Bernoulli	-11.0252
▁master	-11.0259
▁messengers	-11.026
▁fitted	-11.0263
ndhra	-11.0265
▁completed	-11.0268
▁applications	-11.0286
▁-1	-11.0286
▁visiting	-11.0286
▁tags	-11.0289
▁ha	-11.0293
age	-11.0293
▁Guide	-11.0295
tmp	-11.0301
angle	-11.0308
0_	-11.0312
▁graphviz	-11.0322
▁List	-11.0327
▁suitabl	-11.0328
AIC	-11.0332
▁metre	-11.0335
Ndf	-11.0341
▁12	-11.035
pa	-11.0354
▁Joe	-11.0355
rm	-11.0358
▁writing	-11.0361
▁chances	-11.0361
▁touch	-11.037
▁port	-11.0374
led	-11.0395
▁lambda	-11.0399
▁differences	-11.0405
▁transforms	-11.0407
▁kinds	-11.0418
▁AS	-11.0419
▁asks	-11.0429
▁Start	-11.0431
19	-11.0436
▁hfft	-11.0445
▁splits	-11.0456
▁:::	-11.0463
▁forces	-11.0463
]],	-11.0474
▁197	-11.0474
▁dropout	-11.0475
>.	-11.0489
end	-11.0492
▁weed	-11.0507
ma	-11.0512
ay	-11.0517
▁circu	-11.0519
gun	-11.0523
▁constitute	-11.0527
▁thre	-11.0528
▁1],	-11.0529
▁State	-11.0534
contained	-11.0535
▁spend	-11.0535
▁Kn	-11.055
▁WIT	-11.0557
▁PA	-11.056
▁(1	-11.057
▁0.1	-11.0574
▁net	-11.0574
ten	-11.0574
si	-11.0581
▁lean	-11.0594
=1	-11.0605
ship	-11.0606
elif	-11.0649
▁improvement	-11.0651
▁transformations	-11.0663
▁DR	-11.0674
▁sampled	-11.0675
earned	-11.0676
▁Ree	-11.068
reaching	-11.0712
▁rfft	-11.0716
▁exp	-11.0718
upper	-11.0748
▁alternative	-11.0755
▁obey	-11.0758
}{\	-11.0767
ich	-11.0774
▁Mo	-11.0776
▁trick	-11.078
▁areas	-11.0782
▁acknowledge	-11.0785
▁ifft	-11.0788
▁Su	-11.0791
here	-11.0826
_``	-11.0829
▁advance	-11.0831
▁cry	-11.0841
▁meat	-11.0848
Rag	-11.0878
▁mask	-11.0888
▁`"	-11.0903
▁sell	-11.0904
▁Net	-11.0907
Nfd	-11.0925
▁soft	-11.0927
ngroup	-11.0934
round	-11.0964
▁distinguish	-11.0975
▁seeing	-11.0979
>:	-11.0981
ist	-11.0986
ter	-11.0991
east	-11.0992
essen	-11.0997
some	-11.102
ever	-11.1025
_12	-11.105
▁Nec	-11.1054
▁wi	-11.1067
},	-11.1078
▁doctors	-11.1083
▁Lor	-11.1094
AN	-11.1095
▁mission	-11.1105
▁movie	-11.1106
uv	-11.1119
system	-11.1129
cross	-11.1137
▁hi	-11.1137
ingly	-11.1138
estimator	-11.1141
Classif	-11.1151
tail	-11.1161
real	-11.1164
ut	-11.1166
MENT	-11.1177
▁com	-11.1178
▁cl	-11.1183
Labotsibeni	-11.1189
.\"	-11.1189
ization	-11.1199
([[0	-11.1202
▁El	-11.1203
▁press	-11.1219
metric	-11.122
parameter	-11.1222
volume	-11.1226
Lomwazi	-11.1227
your	-11.1235
wo	-11.1237
warm	-11.1239
PageCard	-11.1242
code	-11.1246
export	-11.1252
support	-11.1258
▁minute	-11.126
▁tight	-11.1261
question	-11.1262
Swazi	-11.1271
papers	-11.1272
ental	-11.1275
▁week	-11.1276
▁(200	-11.1277
forward	-11.1279
experiment	-11.1284
▁gen	-11.1285
▁Ma	-11.1285
Linear	-11.1286
indices	-11.1287
Column	-11.1287
From	-11.1288
writing	-11.1292
signal	-11.1292
dependencies	-11.1293
libraries	-11.1294
optional	-11.1294
outliers	-11.1297
boosting	-11.1298
interval	-11.1298
▁dec	-11.1302
elbo	-11.1302
ground	-11.1302
deep	-11.1303
▁1``	-11.1309
ninp	-11.132
▁favor	-11.1321
trans	-11.1322
kind	-11.1322
started	-11.1333
4.	-11.1335
▁nodd	-11.1342
cases	-11.1345
▁``(	-11.1351
▁civil	-11.1364
As	-11.1364
datasets	-11.1374
currently	-11.1374
▁whites	-11.1386
tiny	-11.1394
▁ab	-11.1396
best	-11.1397
ze	-11.1412
▁XX	-11.1438
▁produc	-11.1438
ny	-11.1441
war	-11.1449
gross	-11.145
keys	-11.1451
▁demand	-11.1451
AB	-11.1453
▁damage	-11.1454
Our	-11.1461
▁adj	-11.1462
||_2^2	-11.1462
▁members	-11.1473
lu	-11.1473
▁Thre	-11.1474
▁color	-11.1478
▁San	-11.1479
▁entrance	-11.1482
▁Peter	-11.1483
▁habit	-11.1486
▁revolver	-11.1489
▁Experiment	-11.1492
▁vegetable	-11.1493
▁widow	-11.1494
▁physicist	-11.1495
▁component	-11.1495
▁servant	-11.1496
▁particle	-11.1497
▁measurement	-11.1498
▁Award	-11.15
>`__	-11.15
▁associate	-11.151
▁electron	-11.1513
▁curve	-11.1515
em	-11.1517
▁trial	-11.1519
▁variant	-11.1522
▁Australia	-11.1526
---------------	-11.1526
dec	-11.1528
▁ID	-11.1528
scape	-11.1535
▁finish	-11.1536
▁dimension	-11.1537
▁prim	-11.1538
long	-11.1539
▁halt	-11.154
▁assign	-11.154
ElasticNet	-11.1541
▁perpendicular	-11.1543
▁Us	-11.1543
▁solemn	-11.1544
▁careful	-11.1547
▁headdress	-11.1548
▁education	-11.1549
=1}^	-11.155
▁XVII	-11.1551
Predict	-11.1551
▁Elastic	-11.1553
▁Flavors	-11.1553
Quantity	-11.1553
prophet	-11.1553
Original	-11.1553
Relevance	-11.1553
exponential	-11.1553
▁David	-11.1553
▁Kruger	-11.1553
▁Lucia	-11.1553
▁Quickstart	-11.1553
▁Suddenly	-11.1553
▁beauty	-11.1553
▁caravan	-11.1553
▁diagram	-11.1553
▁dignity	-11.1553
▁frequencies	-11.1553
▁instrument	-11.1553
▁procedure	-11.1553
▁regressor	-11.1553
▁sjambok	-11.1553
▁violent	-11.1553
▁immense	-11.1553
▁powder	-11.1553
diabetes	-11.1553
parquet	-11.1553
▁bundle	-11.1553
arxiv	-11.1553
▁conjugate	-11.1553
▁miserable	-11.1553
▁marriage	-11.1553
▁summary	-11.1553
▁burial	-11.1553
▁duration	-11.1553
▁clutch	-11.1553
▁physician	-11.1553
||_{\	-11.1553
▁shilling	-11.1553
elasticnet	-11.1553
▁hesitation	-11.1553
drift	-11.1553
▁stabbed	-11.1553
ul	-11.1553
utils	-11.1553
▁mapping	-11.1553
▁forehead	-11.1553
▁whistle	-11.1553
▁Society	-11.1553
▁approval	-11.1553
▁favorite	-11.1553
▁readily	-11.1554
▁Center	-11.1554
▁beggar	-11.1554
▁invented	-11.1554
▁rival	-11.1554
Gunga	-11.1554
▁estimation	-11.1554
▁yards	-11.1554
creative	-11.1554
▁browser	-11.1554
▁Jeep	-11.1554
▁enterprise	-11.1554
▁armies	-11.1554
▁pitched	-11.1554
▁sneak	-11.1554
▁plotting	-11.1555
▁heavily	-11.1555
▁disappointed	-11.1555
▁curiosity	-11.1555
▁shrill	-11.1555
▁Crown	-11.1555
▁sergeant	-11.1555
▁East	-11.1555
▁PRINCE	-11.1555
▁safety	-11.1555
▁wealth	-11.1555
▁recognise	-11.1555
▁correlated	-11.1555
▁Therefore	-11.1555
LinearRegression	-11.1555
▁Tuis	-11.1555
▁singer	-11.1556
▁tensor	-11.1556
▁summon	-11.1556
▁restricted	-11.1557
▁national	-11.1557
▁permit	-11.1557
▁High	-11.1557
▁ignored	-11.1558
▁social	-11.1558
▁duality	-11.1558
▁asleep	-11.1558
▁belief	-11.1558
▁Code	-11.1558
▁brandy	-11.1558
▁bluff	-11.1558
▁promotion	-11.1559
▁intensely	-11.1559
▁failed	-11.1559
▁Labs	-11.1559
▁VII	-11.1559
▁recently	-11.156
▁URI	-11.1561
▁likewise	-11.1561
▁dense	-11.1561
ments	-11.1561
▁Four	-11.1562
▁essentially	-11.1563
▁cheered	-11.1563
▁Indian	-11.1564
▁appeal	-11.1564
▁warlike	-11.1565
▁remarkable	-11.1565
▁Mean	-11.1566
▁Jose	-11.1568
▁recovered	-11.157
▁soul	-11.157
▁career	-11.157
▁evidently	-11.1571
▁executed	-11.1572
doi	-11.1572
={"	-11.1573
▁gained	-11.1573
▁utter	-11.1573
▁forecasting	-11.1573
▁ra	-11.1574
▁strokes	-11.1574
▁concluded	-11.1579
▁distributing	-11.158
▁rotation	-11.158
▁Java	-11.158
▁craft	-11.158
▁April	-11.1581
▁VISIT	-11.1581
▁Arthur	-11.1581
▁XGBoost	-11.1581
▁Horowitz	-11.1581
▁curvature	-11.1581
▁independently	-11.1581
▁baking	-11.1581
▁butter	-11.1582
▁distinct	-11.1583
▁chant	-11.1584
▁status	-11.1584
▁lowered	-11.1585
▁stacked	-11.1585
▁climbing	-11.1585
▁clothes	-11.1586
▁complicat	-11.1586
▁growth	-11.1587
▁fever	-11.1587
▁locally	-11.1588
▁God	-11.1589
▁root	-11.159
▁satisfactory	-11.1592
▁Carr	-11.1594
▁trusted	-11.1595
fitting	-11.1595
▁pole	-11.1596
theil	-11.1596
One	-11.1599
▁competitions	-11.1603
▁Britishers	-11.1604
▁rank	-11.1605
▁flashed	-11.1606
~~~~~~~~~~~~~~~	-11.1606
▁Press	-11.1606
▁physicists	-11.1612
▁acting	-11.1612
▁catching	-11.1612
▁calculate	-11.1614
▁ascent	-11.1614
▁generalis	-11.1614
neighbouring	-11.1614
▁maintained	-11.1617
arg	-11.1617
▁Other	-11.1617
ower	-11.1617
▁Awards	-11.1617
▁TZANEEN	-11.162
▁dependence	-11.1623
▁Mark	-11.1624
▁observe	-11.1624
▁skins	-11.1625
▁month	-11.1628
▁wrappe	-11.1628
rophy	-11.1629
▁eBooks	-11.163
▁govern	-11.163
▁ghosts	-11.1632
▁location	-11.1636
▁forecast	-11.1637
▁arrangements	-11.1639
▁rise	-11.1639
▁spread	-11.164
nrow	-11.1643
Axes	-11.1644
▁political	-11.1644
▁[5]	-11.1647
▁humans	-11.1647
▁sending	-11.1648
▁bear	-11.165
▁Reference	-11.165
▁printed	-11.165
▁implements	-11.1652
▁rocks	-11.1652
▁oration	-11.1653
lt	-11.1661
▁padded	-11.1665
▁loses	-11.1666
▁buildings	-11.1666
▁classifiers	-11.1666
▁83.	-11.1667
▁partly	-11.1671
▁achieve	-11.1675
▁</	-11.1678
▁interaction	-11.1683
▁loading	-11.1683
kerries	-11.1684
▁lap	-11.1685
▁namely	-11.1686
▁Kxa	-11.1694
▁chain	-11.1694
▁faithful	-11.1696
{1}{2	-11.17
▁client	-11.1702
▁iterations	-11.1703
▁"192	-11.1705
▁par	-11.1708
▁adding	-11.1709
▁increases	-11.1709
▁seasons	-11.1712
Bu	-11.1715
▁drops	-11.1725
▁Li	-11.1727
▁Trek	-11.1727
cy	-11.1729
▁shots	-11.1731
▁faint	-11.1734
▁freq	-11.1737
▁comprehensi	-11.174
▁happy	-11.1741
▁mid	-11.1742
▁attacks	-11.175
▁components	-11.1761
▁served	-11.1761
▁African	-11.1761
▁products	-11.1766
▁gross	-11.1769
▁influences	-11.1776
▁nhid	-11.1777
▁`[	-11.179
▁measures	-11.1792
▁`(	-11.1793
▁finding	-11.1794
IN	-11.1796
▁venture	-11.1799
2)	-11.1799
▁29	-11.1801
▁Don	-11.1807
▁greet	-11.1809
▁battles	-11.181
▁counts	-11.1815
▁bag	-11.1817
▁faces	-11.1835
ors	-11.1835
▁CO	-11.1843
▁irfft	-11.1844
▁Ama	-11.1844
\".	-11.1849
▁1.0	-11.1852
▁voices	-11.1856
▁insert	-11.186
▁minimize	-11.1863
Get	-11.1864
▁changes	-11.1865
]``	-11.1865
ev	-11.1867
▁engage	-11.1872
▁traditional	-11.1876
▁prefer	-11.1877
▁Logg	-11.1879
,)	-11.188
_")	-11.1892
▁"191	-11.1896
glm	-11.1897
▁quantit	-11.19
▁centr	-11.1905
▁Categorical	-11.1907
▁groupby	-11.1912
Rhg	-11.1912
▁device	-11.1914
ha	-11.1916
▁cruel	-11.1919
▁Log	-11.1925
▁0),	-11.1949
▁fed	-11.1957
▁shoulder	-11.1962
▁brown	-11.1962
▁meta	-11.1978
▁hang	-11.1978
['	-11.198
Lo	-11.1992
▁pile	-11.1993
▁AT	-11.1998
▁today	-11.2004
}",	-11.2008
▁+=	-11.2024
(2)	-11.2043
▁hall	-11.2054
▁IS	-11.2058
possibly	-11.2064
▁hell	-11.207
``:	-11.208
▁needs	-11.2083
▁stretch	-11.2089
ability	-11.209
pos	-11.2091
▁conda	-11.2096
An	-11.2105
▁lined	-11.2111
▁Sun	-11.2118
▁Du	-11.2147
AT	-11.215
vin	-11.2155
▁(199	-11.2156
▁inf	-11.2167
Rec	-11.2173
ite	-11.2177
▁burn	-11.2183
aving	-11.2187
▁Raa	-11.2211
▁boat	-11.2221
ilk	-11.2223
ove	-11.2232
cause	-11.2235
▁pmdarima	-11.2238
▁sky	-11.2239
IES	-11.2243
▁statistic	-11.2244
▁Writ	-11.2246
[["	-11.2263
)\	-11.2266
▁cap	-11.2267
-0	-11.2268
ctually	-11.2271
▁stages	-11.2273
▁50	-11.2312
▁demonstrate	-11.2319
▁dimensional	-11.2325
▁opposit	-11.2332
ery	-11.2333
▁grip	-11.2336
hal	-11.2351
▁write	-11.2352
bbed	-11.2355
"))	-11.2388
**.	-11.2391
~	-11.2392
pressed	-11.2398
ither	-11.2399
▁la	-11.2425
sh	-11.2426
▁Jan	-11.2443
(-2	-11.2445
which	-11.2463
cv	-11.2481
▁Rce	-11.25
▁tol	-11.2507
▁3)	-11.251
ill	-11.2515
▁ends	-11.2523
worthy	-11.2543
▁Is	-11.2549
ked	-11.2558
▁transfer	-11.2563
rolled	-11.2564
▁Custom	-11.2582
takes	-11.2593
▁premiere	-11.2597
Raf	-11.2603
▁Look	-11.2618
/)	-11.2629
ong	-11.2635
advanced	-11.2635
▁qua	-11.2636
itting	-11.2652
▁1:	-11.2657
place	-11.2661
▁sta	-11.2664
num	-11.2664
▁stretche	-11.2678
▁compos	-11.2712
ular	-11.2714
wards	-11.2714
star	-11.2723
▁2009	-11.2734
▁ME	-11.2736
uring	-11.2754
Rff	-11.2758
▁.	-11.2758
▁occur	-11.2759
▁delight	-11.2764
ron	-11.2774
fall	-11.2785
stack	-11.2803
▁cease	-11.2818
Sebuza	-11.2826
▁LA	-11.2844
▁instant	-11.2847
complete	-11.2857
file	-11.2861
use	-11.2861
window	-11.2865
lin	-11.2873
accel	-11.2874
item	-11.2888
last	-11.2889
logging	-11.2897
label	-11.29
constraints	-11.2903
hen	-11.2906
registry	-11.2906
▁```	-11.2927
▁chase	-11.293
▁advis	-11.2931
databricks	-11.2932
backward	-11.2932
Umzulek	-11.2934
scip	-11.2938
traditional	-11.2938
▁Z	-11.2941
local	-11.2946
▁awake	-11.2949
sphere	-11.2949
pruning	-11.2953
Error	-11.2953
begin	-11.2956
▁est	-11.2956
graphviz	-11.2958
requirements	-11.2958
Bayesian	-11.2959
terminal	-11.296
module	-11.2961
nhid	-11.2962
accuracy	-11.2962
robust	-11.2963
logged	-11.2963
median	-11.2963
grid	-11.2964
Let	-11.2966
speed	-11.2968
▁Gu	-11.2978
upon	-11.298
city	-11.2981
volumes	-11.2983
bag	-11.2983
variables	-11.2985
four	-11.2992
▁mount	-11.2994
Fro	-11.2999
▁guns	-11.3009
▁aero	-11.3014
stores	-11.3036
▁pain	-11.3039
omp	-11.3047
epochs	-11.3051
go	-11.3052
[1]	-11.3054
tochastic	-11.3056
▁1])	-11.3056
▁10)	-11.3061
abs	-11.3064
lung	-11.3079
hi	-11.3093
igger	-11.3094
cost	-11.3097
EN	-11.3099
hfft	-11.3109
▁Out	-11.3109
▁valu	-11.3112
▁inertia	-11.3112
▁milk	-11.3113
▁attain	-11.3115
Bo	-11.3124
Th	-11.3137
▁profession	-11.3148
▁threaten	-11.3148
▁German	-11.3154
▁keyword	-11.3155
▁investigation	-11.3155
tags	-11.3156
▁quarter	-11.3156
▁occasion	-11.3158
▁competition	-11.3161
▁prisoner	-11.3162
▁thorn	-11.3163
▁tribe	-11.3165
▁spear	-11.3165
trim	-11.3168
▁greeting	-11.317
▁arise	-11.317
dog	-11.3172
▁smile	-11.3175
▁Hu	-11.3177
▁camera	-11.3178
▁distribute	-11.3178
arrays	-11.318
patience	-11.3181
▁affair	-11.3189
▁dataframe	-11.3191
▁financ	-11.3192
named	-11.3193
▁wheel	-11.3197
▁suspect	-11.32
▁recover	-11.3202
▁stick	-11.3205
Extract	-11.3207
▁rapid	-11.3211
▁Al	-11.3211
▁consiste	-11.3212
▁recent	-11.3215
▁threat	-11.3216
▁PRINC	-11.3217
▁loyal	-11.3219
DoubleType	-11.3219
IntegerType	-11.3219
LongType	-11.3219
environ	-11.3219
ArrayType	-11.3219
StringType	-11.3219
▁Spring	-11.3219
LOSSES	-11.322
squeeze	-11.322
Comparison	-11.322
Jennie	-11.322
LightGBM	-11.322
TabItem	-11.322
Welcome	-11.322
poisson	-11.322
▁Casuals	-11.322
▁December	-11.322
▁Environment	-11.322
▁Fizeau	-11.322
▁GUTENBERG	-11.322
▁Language	-11.322
▁Masuto	-11.322
▁Pradesh	-11.322
▁accident	-11.322
▁association	-11.322
▁earlier	-11.322
▁encourage	-11.322
▁equipped	-11.322
▁exclaimed	-11.322
▁gamblers	-11.322
▁headquarters	-11.322
▁neutral	-11.322
▁opportunity	-11.322
▁reception	-11.322
▁sequencing	-11.322
▁whatsoever	-11.322
Product	-11.322
▁Campaign	-11.322
▁Canada	-11.322
▁KRAAL	-11.322
▁Pythian	-11.322
▁Several	-11.322
▁astonished	-11.322
▁families	-11.322
▁innocent	-11.322
▁magistrate	-11.322
▁springbok	-11.322
▁whiskey	-11.322
▁Colony	-11.322
▁relevant	-11.322
▁streak	-11.322
Hello	-11.322
NamedAgg	-11.322
▁Second	-11.322
▁global	-11.322
StrOptions	-11.322
▁Lanka	-11.322
▁unusual	-11.322
▁exceedingly	-11.322
▁scalar	-11.322
▁jerk	-11.322
▁representative	-11.322
▁vizier	-11.322
▁exciting	-11.322
▁Lilli	-11.322
▁bidding	-11.322
▁funeral	-11.322
mantzi	-11.322
▁Francisco	-11.322
▁Output	-11.322
▁superior	-11.322
Paper	-11.322
▁drove	-11.322
▁slope	-11.322
▁arrival	-11.322
▁interruption	-11.322
Paris	-11.322
▁reign	-11.322
savefig	-11.322
▁theorem	-11.322
▁tube	-11.322
▁pedal	-11.322
▁exhibition	-11.322
▁summit	-11.322
▁contraction	-11.322
▁university	-11.322
▁nervous	-11.322
▁compliance	-11.322
▁artist	-11.3221
▁thankful	-11.3221
▁glory	-11.3221
▁Carew	-11.3221
▁stolen	-11.3221
▁improve	-11.3221
▁planning	-11.3221
▁journey	-11.3221
▁trekked	-11.3221
▁Again	-11.3221
▁victory	-11.3221
▁species	-11.3221
▁mention	-11.3221
▁communication	-11.3221
fmt	-11.3221
={	-11.3221
▁underlying	-11.3221
▁protested	-11.3222
▁slipped	-11.3222
}{2}	-11.3222
sag	-11.3222
cholesky	-11.3222
▁admitted	-11.3222
▁NEW	-11.3222
▁XXIII	-11.3222
▁sister	-11.3222
▁followers	-11.3222
▁Instant	-11.3223
▁impatient	-11.3223
▁ignorant	-11.3223
▁handling	-11.3223
▁clearness	-11.3223
▁inherit	-11.3223
Length	-11.3223
▁pyre	-11.3223
Quantile	-11.3223
▁classified	-11.3223
completion	-11.3223
▁policy	-11.3223
▁baby	-11.3224
")[["	-11.3224
JSON	-11.3224
▁credit	-11.3224
06	-11.3224
▁guess	-11.3224
▁pathetic	-11.3225
▁procession	-11.3225
▁Englishmen	-11.3225
▁seemingly	-11.3226
diff	-11.3226
▁opponents	-11.3226
▁XVIII	-11.3226
▁rusks	-11.3226
▁slices	-11.3226
▁severely	-11.3226
▁Arts	-11.3227
▁wounded	-11.3227
▁sunset	-11.3227
▁crash	-11.3228
▁indeed	-11.3228
▁stamp	-11.3228
▁gasped	-11.3228
▁indicating	-11.3228
▁rapidly	-11.3228
Rdd	-11.3228
▁pursuit	-11.3229
▁weigh	-11.323
▁obvious	-11.3232
▁spared	-11.3232
▁connected	-11.3232
▁discussed	-11.3233
▁doll	-11.3233
▁seats	-11.3233
▁adhere	-11.3234
hierarchical	-11.3234
▁green	-11.3234
▁grapes	-11.3236
▁burned	-11.3236
▁traders	-11.3236
angular	-11.3236
▁wishes	-11.3237
▁hardships	-11.3238
▁burghers	-11.3238
▁bearded	-11.3238
▁whenever	-11.3239
▁nice	-11.324
▁chanting	-11.3241
▁apparent	-11.3241
▁prominent	-11.3241
▁replacement	-11.3242
▁strict	-11.3243
▁nerve	-11.3244
▁impressive	-11.3245
▁lesser	-11.3245
▁processes	-11.3245
▁ncol	-11.3246
▁adult	-11.3249
▁posted	-11.3249
well	-11.3249
▁appearance	-11.3249
▁ruins	-11.325
▁theories	-11.325
▁Inter	-11.325
▁1948	-11.325
▁gaol	-11.3251
▁breathing	-11.3251
MSE	-11.3252
▁People	-11.3252
▁impress	-11.3252
▁Vector	-11.3252
▁previously	-11.3252
▁smooth	-11.3252
▁Alexander	-11.3252
▁broadcast	-11.3252
▁Recognition	-11.3252
▁circumference	-11.3252
▁Classification	-11.3252
▁hints	-11.3254
▁considerable	-11.3254
▁grim	-11.3255
▁Information	-11.3256
ac	-11.3256
▁translation	-11.3256
▁audience	-11.3257
▁joke	-11.3258
▁breed	-11.3258
▁soldiers	-11.3258
▁Mother	-11.3258
▁Mexico	-11.3258
▁deployed	-11.3258
ones	-11.3259
▁concerned	-11.326
▁growing	-11.3262
▁deeply	-11.3263
▁picking	-11.3264
▁increas	-11.3264
▁incline	-11.3265
▁murdered	-11.3266
▁sporting	-11.3268
▁assistants	-11.3268
▁flying	-11.327
▁correctly	-11.327
▁sway	-11.327
▁yarn	-11.3271
▁parents	-11.3272
▁abstract	-11.3273
▁colon	-11.3275
▁curved	-11.3276
▁involved	-11.3277
▁representation	-11.3278
Shanno	-11.3278
▁inliers	-11.3279
▁2011	-11.3279
▁peaceful	-11.3279
▁belonged	-11.328
join	-11.328
▁pains	-11.3281
▁2010	-11.3283
▁calculated	-11.3283
▁walls	-11.3288
▁earning	-11.3288
▁widows	-11.3289
=0.1,	-11.3291
▁hide	-11.3291
▁TH	-11.3295
▁copying	-11.3295
▁barbecue	-11.3296
▁forever	-11.3297
▁randomly	-11.3298
▁SPACE	-11.3299
▁sigmasq	-11.3299
▁padding	-11.3299
▁Perceptron	-11.33
▁Dingaanzulu	-11.33
▁Dense	-11.33
▁gathering	-11.3301
▁residuals	-11.3301
▁inspection	-11.3301
▁evaluation	-11.3301
▁roar	-11.3301
▁warning	-11.3304
▁Day	-11.3305
▁propose	-11.3306
▁skin	-11.3306
▁lesson	-11.3308
▁cells	-11.331
▁efforts	-11.3311
▁3],	-11.3311
▁tab	-11.3311
▁organize	-11.3313
▁atom	-11.3317
▁optimal	-11.3318
▁employee	-11.3318
▁Up	-11.3319
penalized	-11.332
▁ho	-11.3321
▁assumptions	-11.3322
▁medicines	-11.3322
▁1995	-11.3323
▁commando	-11.3325
▁2017	-11.3326
▁[1]	-11.333
▁pull	-11.3331
▁optimizers	-11.3332
▁chickens	-11.3333
ARE	-11.3334
▁concepts	-11.3337
▁meals	-11.3339
▁genetic	-11.3339
//2	-11.3341
▁bar	-11.3342
▁severe	-11.3345
▁ou	-11.3346
▁snapshot	-11.3347
xc	-11.3349
▁hollow	-11.3349
▁Through	-11.3349
▁database	-11.335
▁generated	-11.3352
ri	-11.3353
▁purposes	-11.3354
▁yields	-11.3355
▁updated	-11.3357
▁supplement	-11.3363
▁85.	-11.3371
gb	-11.3373
▁extreme	-11.3376
▁BL	-11.3377
▁86.	-11.3382
▁assumed	-11.3383
▁84.	-11.3384
Nde	-11.3385
▁manager	-11.3391
ropped	-11.3395
▁strategy	-11.3396
▁Test	-11.3406
Net	-11.3407
▁role	-11.3408
▁extract	-11.3412
▁integrate	-11.3413
▁utilize	-11.3421
nternational	-11.3424
▁BE	-11.3427
▁objected	-11.3427
▁Local	-11.3431
▁materials	-11.3441
▁Slim	-11.3444
▁cluster	-11.3444
▁polynomial	-11.3445
▁expeditions	-11.3452
▁rivers	-11.3452
▁covered	-11.3454
ight	-11.3455
▁advise	-11.3456
lynomialFeatures	-11.3458
trend	-11.3461
▁DecisionTree	-11.3466
▁0)	-11.347
▁interval	-11.3471
▁Store	-11.3472
▁gate	-11.3472
▁bottles	-11.3474
tention	-11.3474
▁[0.	-11.3475
▁games	-11.3477
▁streams	-11.3481
▁advantages	-11.3484
▁Present	-11.3485
▁aggregations	-11.3485
▁guides	-11.3491
▁pruning	-11.3494
▁recall	-11.3495
▁errors	-11.3496
▁lying	-11.3498
▁arm	-11.3498
▁IV	-11.3503
▁awaken	-11.3505
▁Americans	-11.3505
▁ninp	-11.3506
▁1975	-11.3519
antic	-11.3523
▁Ball	-11.3524
non	-11.3525
tic	-11.3526
▁1955	-11.3537
▁gentlem	-11.3538
▁tend	-11.3539
wing	-11.354
close	-11.3542
▁dict	-11.3542
▁Linear	-11.3543
▁indices	-11.3544
ug	-11.3544
▁Column	-11.355
▁roads	-11.3551
▁compar	-11.3555
approximately	-11.3555
▁grace	-11.3557
nly	-11.3571
▁sizes	-11.3573
▁joins	-11.3573
▁Logistic	-11.3573
Rdc	-11.3579
izing	-11.3579
du	-11.3584
▁compete	-11.3587
▁BUNO	-11.3589
29	-11.3593
▁versions	-11.3605
▁ears	-11.3606
ID	-11.3618
▁Barr	-11.3619
▁drinks	-11.362
▁transformers	-11.3626
▁brick	-11.3628
▁1.0,	-11.3633
▁persist	-11.3636
▁devot	-11.3637
▁assert	-11.364
ating	-11.3644
▁**'	-11.3648
vich	-11.3649
▁wand	-11.365
▁capab	-11.3653
inner	-11.3657
uel	-11.3664
▁regions	-11.3665
▁figures	-11.3672
▁hid	-11.3674
=0,	-11.3684
2212	-11.3684
▁convict	-11.3685
sertion	-11.3687
(8)	-11.3692
▁90	-11.3694
rk	-11.3701
"})	-11.3702
qu	-11.3715
pt	-11.3719
▁0.0	-11.3719
drew	-11.3727
March	-11.3727
▁ver	-11.3728
▁universes	-11.3729
▁Book	-11.3733
ik	-11.3736
ancy	-11.3747
Rhc	-11.3762
▁(2)	-11.3763
▁cloth	-11.3768
▁"185	-11.3781
▁surfaces	-11.3782
cell	-11.3782
ipping	-11.3786
▁ruin	-11.3787
▁involve	-11.3788
▁context	-11.3791
mar	-11.3793
seed	-11.3797
50	-11.3802
unstack	-11.3831
8.	-11.3831
▁va	-11.3837
zy	-11.3843
------------+	-11.3847
▁principles	-11.3849
=-1	-11.3857
ines	-11.3863
▁island	-11.3873
dy	-11.3875
]).	-11.3881
▁starts	-11.3884
weights	-11.3901
ward	-11.3913
-0.	-11.3913
▁Group	-11.3916
▁gr	-11.3919
Nbc	-11.3922
===============	-11.3934
▁2023	-11.3935
Com	-11.3935
med	-11.395
▁forms	-11.3953
tting	-11.3968
▁deck	-11.3976
▁title	-11.3986
`).	-11.3991
tter	-11.3991
▁pursue	-11.3996
rous	-11.3999
ub	-11.4003
gar	-11.4017
▁west	-11.4018
ding	-11.4026
▁inter	-11.4027
05	-11.4029
records	-11.4036
=0.0	-11.4036
▁Rao	-11.404
▁Consider	-11.4063
▁hero	-11.4067
▁-1.	-11.4069
▁dates	-11.408
500	-11.4081
▁normal	-11.4107
▁__	-11.4118
▁distances	-11.412
▁dashe	-11.4131
vs	-11.4132
▁en	-11.4159
▁Archi	-11.4179
▁fourt	-11.4179
▁Ny	-11.4186
▁dress	-11.4202
▁Robust	-11.4208
▁Lo	-11.4225
▁ro	-11.4245
very	-11.4248
▁Similar	-11.4264
xd	-11.4265
▁dog	-11.4265
▁^	-11.4279
▁Andr	-11.4279
let	-11.4287
cycle	-11.4289
!'	-11.4294
tical	-11.4304
▁fur	-11.4305
▁Why	-11.4311
▁Le	-11.4325
▁hum	-11.4327
ilomet	-11.4334
0.+	-11.4335
▁fraction	-11.4338
ot	-11.4356
▁5	-11.436
▁Di	-11.4361
ratio	-11.4366
ound	-11.4368
▁Rbd	-11.4388
struct	-11.4402
▁invite	-11.4405
▁jump	-11.4422
▁Asia	-11.4423
▁Gravitation	-11.4423
)</	-11.4433
▁Stat	-11.4436
oke	-11.4437
rank	-11.4438
ES	-11.4441
gen	-11.4445
▁res	-11.4477
▁funn	-11.4485
ired	-11.4495
▁~~~~~~~~~~~~~~	-11.4495
▁sculpt	-11.4512
▁0-	-11.4522
0:	-11.4523
▁numer	-11.4529
▁heat	-11.4537
cal	-11.4539
aking	-11.4562
male	-11.4572
will	-11.4579
▁interfere	-11.4579
ually	-11.4588
Po	-11.4589
NG	-11.459
▁Christ	-11.4591
▁pur	-11.4595
[0])	-11.4611
▁Hi	-11.4618
uzzle	-11.4619
Some	-11.4638
how	-11.4642
▁fi	-11.4645
▁le	-11.4657
-1,	-11.4658
']	-11.4665
ess	-11.4676
valid	-11.4691
col	-11.4714
oys	-11.473
▁minimiz	-11.4732
take	-11.4744
append	-11.4748
rest	-11.4767
pe	-11.4775
also	-11.4775
dry	-11.4778
▁\{	-11.4783
affei	-11.4797
ols	-11.4809
ties	-11.4809
ped	-11.4824
▁Pi	-11.4825
▁argue	-11.4839
▁os	-11.4842
special	-11.4843
▁stir	-11.4845
xb	-11.4855
novich	-11.4858
Z	-11.4867
yer	-11.487
ach	-11.4873
GroupBy	-11.4874
So	-11.4876
ager	-11.4889
Project	-11.4899
▁knit	-11.4901
excel	-11.4909
▁becom	-11.4909
den	-11.491
▁25	-11.491
next	-11.4913
content	-11.4913
country	-11.4918
environment	-11.4925
Store	-11.4928
hose	-11.4931
pipeline	-11.4931
symmetric	-11.4932
decision	-11.4934
torch	-11.4936
making	-11.4936
▁False	-11.4936
Learn	-11.4937
▁probab	-11.494
rigid	-11.494
frame	-11.4945
criterion	-11.4948
polynomial	-11.4951
partial	-11.4951
cluster	-11.4952
generate	-11.4953
Slim	-11.4953
backend	-11.4953
nlayers	-11.4953
total	-11.4954
manager	-11.4956
categorical	-11.4956
▁sand	-11.4957
Gamma	-11.4957
happy	-11.4958
freq	-11.4959
ugh	-11.4959
ihfftn	-11.496
▁kin	-11.4962
align	-11.4967
ENT	-11.4967
▁propagate	-11.497
tial	-11.4973
▁branch	-11.4973
▁reduce	-11.4975
dim	-11.4978
([[	-11.4981
hfftn	-11.4997
All	-11.5
jnp	-11.5017
▁plume	-11.5017
show	-11.5018
cooked	-11.5019
OOM	-11.5022
positions	-11.5024
▁references	-11.5026
labels	-11.5029
▁beer	-11.503
back	-11.5042
operat	-11.5044
St	-11.5049
▁dared	-11.5049
Xw	-11.5052
▁crop	-11.5059
ware	-11.5063
fields	-11.5071
410	-11.5076
ru	-11.5085
▁receiv	-11.5092
▁politic	-11.5093
▁leg	-11.5093
▁combin	-11.5121
crate	-11.5126
steps	-11.5126
▁aggregat	-11.5131
▁al	-11.5131
▁encounter	-11.5138
▁Ar	-11.5143
▁invalid	-11.5144
each	-11.5147
▁pi	-11.5148
▁William	-11.5149
▁voyage	-11.5149
▁Word	-11.5151
And	-11.5153
▁network	-11.5155
▁deviation	-11.5155
▁economic	-11.5157
▁regiment	-11.5158
▁street	-11.5159
▁possession	-11.5159
▁assistant	-11.5162
▁objection	-11.5164
▁warn	-11.5164
▁faith	-11.5167
▁purchase	-11.517
▁rail	-11.5174
▁settle	-11.5174
▁photograph	-11.5175
staged	-11.5193
▁capture	-11.5195
▁dynamic	-11.5195
▁source	-11.5195
▁sport	-11.5196
▁ascend	-11.5199
▁destroy	-11.5199
▁arrest	-11.52
▁introduc	-11.5203
▁finger	-11.5204
▁arrange	-11.5206
▁explicit	-11.5211
▁suffer	-11.5211
vidently	-11.5211
▁frequent	-11.5212
▁immediate	-11.5212
IGHT	-11.5212
▁secure	-11.5215
▁freight	-11.5216
▁quart	-11.5216
▁Will	-11.5217
▁Decimal	-11.522
exposure	-11.522
▁Documenta	-11.522
bernoulli	-11.522
mnist	-11.522
▁SWAZI	-11.522
DEATH	-11.522
Philadelphia	-11.522
▁CONTINUUM	-11.522
▁CROWN	-11.522
▁Carolina	-11.522
▁Continuum	-11.522
▁Hindu	-11.522
▁Orleans	-11.522
▁PRINCESSES	-11.522
▁Records	-11.522
▁September	-11.522
▁Statistics	-11.522
▁YAML	-11.522
▁disposal	-11.522
▁investigate	-11.522
▁jurisprudence	-11.522
▁monotony	-11.522
▁ornaments	-11.522
▁pretty	-11.522
▁rectilinear	-11.522
▁steerage	-11.522
▁uncomfortable	-11.522
cumcount	-11.522
elastic	-11.522
umbanda	-11.522
▁APPENDI	-11.522
▁Azure	-11.522
▁Descent	-11.522
▁Kuroda	-11.522
▁SGD	-11.522
▁START	-11.522
▁Wrangler	-11.522
▁blankets	-11.522
▁crazy	-11.522
▁cuisine	-11.522
▁published	-11.522
▁victorious	-11.522
▁volley	-11.522
HalfBinomialLoss	-11.522
SGDClassifier	-11.522
reshaping	-11.522
▁AFRICA	-11.522
▁DummyRegressor	-11.522
▁absence	-11.522
▁entitled	-11.522
▁Field	-11.522
▁Gonz	-11.522
▁courage	-11.522
SGDRegressor	-11.522
▁Philip	-11.522
▁hoarse	-11.522
MNIST	-11.522
▁Frederic	-11.522
▁Jacob	-11.522
▁Stegea	-11.522
▁candidate	-11.522
▁shriek	-11.522
▁abroad	-11.522
▁conju	-11.522
▁punishment	-11.522
▁sullen	-11.522
▁Scotch	-11.522
▁fierce	-11.522
MlflowClient	-11.522
▁Martin	-11.522
CAPS	-11.522
▁cliff	-11.522
▁grandson	-11.522
fillna	-11.522
▁Ernst	-11.522
▁Deployment	-11.522
▁glorious	-11.522
▁capabilities	-11.522
▁gradually	-11.522
▁starvation	-11.522
▁utilities	-11.522
ECTION	-11.522
▁Venus	-11.522
▁gravity	-11.522
▁homestead	-11.522
▁Sometimes	-11.522
▁steep	-11.522
Bishop	-11.522
▁pioneer	-11.522
▁resembl	-11.522
▁freedom	-11.522
theilsen	-11.522
▁midnight	-11.522
▁blind	-11.522
▁unpleasant	-11.522
▁END	-11.522
▁Prize	-11.522
horizon	-11.522
:/<	-11.522
▁Slowly	-11.522
▁student	-11.522
▁examination	-11.522
▁inspiration	-11.522
▁unlimited	-11.522
AWS	-11.522
▁distant	-11.522
▁Coast	-11.522
▁hurry	-11.5221
▁risk	-11.5221
▁Harry	-11.5221
▁garden	-11.5221
RNN	-11.5221
▁promptly	-11.5221
▁puff	-11.5221
▁Handler	-11.5221
▁basket	-11.5221
▁resolve	-11.5221
▁Einstein	-11.5221
▁Earth	-11.5221
▁ceremonial	-11.5221
▁cruelty	-11.5221
▁skipper	-11.5221
▁delicacy	-11.5221
▁rites	-11.5221
▁justification	-11.5221
organization	-11.5221
▁deflection	-11.5221
▁Siri	-11.5221
▁astronomy	-11.5221
▁pony	-11.5221
▁preceding	-11.5221
▁robustness	-11.5222
▁alteration	-11.5222
▁midst	-11.5222
▁festival	-11.5222
▁transport	-11.5222
multioutput	-11.5222
▁curry	-11.5222
ATES	-11.5222
▁constrained	-11.5222
▁truly	-11.5222
▁Following	-11.5222
▁Union	-11.5222
DOCTORS	-11.5223
▁dislike	-11.5223
▁(2001)	-11.5223
▁amusing	-11.5223
▁adjust	-11.5223
▁disturb	-11.5223
▁syntax	-11.5223
uburb	-11.5224
▁heavenly	-11.5224
▁respectively	-11.5224
▁intelligent	-11.5224
=1}^{	-11.5224
▁scheme	-11.5224
▁1980	-11.5224
▁Mathematically	-11.5225
▁regardless	-11.5225
▁hostile	-11.5225
▁suspicion	-11.5225
▁excellent	-11.5226
▁coast	-11.5226
▁truncated	-11.5226
dispersion	-11.5226
▁fulfilled	-11.5226
▁forgot	-11.5226
▁1921	-11.5226
▁hurriedly	-11.5226
▁overcome	-11.5227
keras	-11.5227
▁reveal	-11.5227
TIME	-11.5227
▁cartridges	-11.5227
▁musical	-11.5227
▁birds	-11.5228
uine	-11.5228
▁VIII	-11.5228
▁XIII	-11.5229
▁shaved	-11.5229
▁Marine	-11.5229
▁graph	-11.5229
▁comfortable	-11.5229
▁cheerful	-11.523
▁losing	-11.523
▁authority	-11.523
▁XV	-11.523
▁youngest	-11.5231
revolution	-11.5231
▁mound	-11.5231
cultural	-11.5231
▁overboard	-11.5231
▁worst	-11.5232
▁monthly	-11.5233
▁wors	-11.5233
▁flies	-11.5233
▁Way	-11.5233
▁firmly	-11.5233
▁royalty	-11.5234
▁contribution	-11.5234
▁polite	-11.5236
▁delighted	-11.5236
▁lips	-11.5236
▁outwards	-11.5236
▁waked	-11.5236
▁intense	-11.5237
▁defect	-11.5237
▁Rings	-11.5237
▁hunted	-11.5238
▁expansi	-11.5238
▁wounds	-11.5239
▁anyway	-11.524
▁formality	-11.524
▁tuples	-11.524
▁Tree	-11.524
▁astronomers	-11.524
▁flames	-11.524
▁sensibl	-11.5241
▁Bridge	-11.5241
▁mistaken	-11.5241
▁portion	-11.5242
▁officially	-11.5242
^{-1}	-11.5243
▁whil	-11.5243
▁loser	-11.5245
▁conditional	-11.5246
iterating	-11.5246
orname	-11.5247
▁Coffe	-11.5248
▁jun	-11.5249
▁consumed	-11.525
▁ANY	-11.5251
▁discuss	-11.5252
▁videos	-11.5253
▁traverses	-11.5253
rain	-11.5253
||_2	-11.5253
▁preparations	-11.5253
▁coincides	-11.5254
▁cream	-11.5254
▁damn	-11.5254
▁formulated	-11.5255
oton	-11.5255
▁discovery	-11.5255
▁claimed	-11.5255
▁XXX	-11.5256
▁efficiently	-11.5256
▁focus	-11.5257
▁younger	-11.5257
▁enthusiastic	-11.5257
expanding	-11.5257
▁WAR	-11.5258
▁taunt	-11.5259
▁beasts	-11.5259
▁monkey	-11.5259
▁Doctor	-11.5259
▁aggfunc	-11.5259
▁Samuel	-11.5259
▁Screen	-11.5259
▁misery	-11.5259
virtual	-11.5259
▁feathers	-11.5259
▁Message	-11.5259
▁MOTHER	-11.5259
▁unexpected	-11.5259
17	-11.5259
▁midday	-11.5259
▁Hot	-11.526
▁gift	-11.526
▁alive	-11.5261
▁compound	-11.5261
▁hunting	-11.5261
▁research	-11.5264
▁Stone	-11.5264
▁choked	-11.5265
▁aspect	-11.5265
▁hidden	-11.5265
▁combats	-11.5266
▁playmates	-11.5267
▁illustration	-11.5267
▁refrain	-11.5267
dtc	-11.5268
▁loin	-11.5268
nction	-11.5269
▁gallon	-11.527
▁1991	-11.527
=0.9	-11.527
▁players	-11.5272
▁announce	-11.5273
▁4	-11.5274
▁crew	-11.5274
asking	-11.5274
▁1]])	-11.5275
▁wall	-11.5278
tes	-11.5278
saga	-11.5278
▁derive	-11.5279
▁chanted	-11.528
▁infinitely	-11.5281
▁photographs	-11.5281
▁retain	-11.5281
▁characterise	-11.5283
▁rails	-11.5283
brush	-11.5285
▁colored	-11.5285
▁----------	-11.5286
Real	-11.5291
▁spears	-11.5292
▁belly	-11.5292
▁arises	-11.5292
▁windows	-11.5294
▁sweep	-11.5295
5.	-11.5298
▁Scott	-11.53
▁bucket	-11.5301
▁rich	-11.5302
2000	-11.5303
▁smell	-11.5305
▁indefinitely	-11.5306
▁vegetables	-11.5307
etic	-11.5308
▁hats	-11.5308
▁rumor	-11.5308
▁Karl	-11.5313
▁km	-11.5315
▁Lion	-11.5315
▁Never	-11.5316
▁+-------------	-11.5317
▁Default	-11.5318
▁minimal	-11.5318
▁SQL	-11.5319
▁ARIMA	-11.532
▁Data	-11.5322
▁proceeding	-11.5323
▁toy	-11.5324
▁presently	-11.5325
sin	-11.5325
(-	-11.5325
▁counted	-11.5325
▁bridge	-11.5326
▁fled	-11.5327
▁thunder	-11.5327
▁Play	-11.5328
IDEA	-11.5329
▁items	-11.5331
▁warnings	-11.5331
▁benefits	-11.5333
▁chunks	-11.5334
▁degrees	-11.5334
"``	-11.5336
▁Multi	-11.5336
▁profit	-11.5339
▁rice	-11.5339
▁consistent	-11.5339
▁logits	-11.5339
▁joint	-11.534
▁payments	-11.5349
▁Moon	-11.535
▁blows	-11.535
▁odds	-11.5351
▁spring	-11.5354
▁Oscar	-11.5355
▁dramatic	-11.5356
▁waste	-11.5357
▁sold	-11.5358
▁pages	-11.5359
sperate	-11.5361
([0.	-11.5363
▁evident	-11.5364
▁holder	-11.5365
"]]	-11.5366
▁subsets	-11.5367
▁4],	-11.5368
▁emb	-11.5369
▁[4]	-11.537
▁integers	-11.5374
▁limited	-11.5375
▁floating	-11.5383
▁dealing	-11.5385
▁jam	-11.5387
▁MY	-11.5387
sitionalEncoding	-11.5391
▁rides	-11.5394
▁fees	-11.5394
▁nose	-11.5401
fig	-11.5404
▁murders	-11.5404
▁cries	-11.5405
▁Late	-11.541
▁printing	-11.5412
.,	-11.5412
pool	-11.5416
▁ihfft	-11.5417
▁tested	-11.5423
▁dusk	-11.5423
▁tip	-11.5423
▁mental	-11.5425
▁1962	-11.5428
housands	-11.5429
▁spoken	-11.5433
▁meeting	-11.5433
▁bool	-11.5434
▁ntoken	-11.5435
▁fftshift	-11.5435
ition	-11.5437
ven	-11.5441
ok	-11.5441
acc	-11.5442
▁iron	-11.5443
▁planets	-11.5445
▁wins	-11.5447
▁pace	-11.5451
rla	-11.5452
attered	-11.5465
▁Set	-11.5467
▁Je	-11.5469
▁Learn	-11.5471
doctoring	-11.5471
ming	-11.5471
eral	-11.5474
rn	-11.5479
▁legal	-11.5489
▁partial	-11.5495
▁nlayers	-11.5497
▁multit	-11.5499
▁thoughtful	-11.5501
▁align	-11.5501
born	-11.5502
09	-11.5502
▁domains	-11.5507
▁corrupt	-11.5512
▁backend	-11.5518
Training	-11.552
adder	-11.552
▁calculat	-11.5527
overview	-11.5527
▁authorit	-11.5527
▁links	-11.5528
▁Barba	-11.553
▁east	-11.5531
▁Comm	-11.5534
▁warehouse	-11.5542
ster	-11.5545
▁costs	-11.5545
▁Reb	-11.5546
▁meow	-11.5549
▁6	-11.555
▁2]]	-11.5554
▁farms	-11.5555
▁owned	-11.5564
▁author	-11.5576
then	-11.5582
astern	-11.5583
▁planes	-11.5583
▁Rff	-11.5583
Nhf	-11.5589
▁wine	-11.5593
▁remains	-11.5599
▁rare	-11.5611
▁===	-11.5617
▁-0.	-11.5624
▁sorting	-11.5625
▁CatBoost	-11.5631
▁listen	-11.5646
▁pro	-11.5646
▁races	-11.5652
▁crate	-11.5655
▁Bass	-11.5667
Rcc	-11.5677
▁PythonModel	-11.5689
foot	-11.5703
SOU	-11.5703
▁equality	-11.5709
inate	-11.5716
▁Ta	-11.5722
▁resident	-11.5722
--------------	-11.5723
unning	-11.5746
▁sit	-11.5753
ification	-11.5755
▁(:	-11.5758
▁beard	-11.5769
▁hat	-11.5771
▁art	-11.5773
▁instruct	-11.5775
utomatic	-11.5792
---	-11.5803
▁0.9	-11.5811
▁customs	-11.5816
▁aside	-11.5819
▁lo	-11.5831
▁effective	-11.5831
ensity	-11.5834
deck	-11.5835
▁execut	-11.5836
site	-11.584
ious	-11.5843
ations	-11.5852
clear	-11.5856
▁troubles	-11.5857
▁corp	-11.586
ries	-11.587
▁append	-11.5878
ier	-11.5883
▁pos	-11.5887
▁Minist	-11.589
ine	-11.5894
ca	-11.5897
/>`_	-11.5898
▁stores	-11.5904
▁1]]	-11.5906
▁calls	-11.5922
▁wind	-11.5927
vised	-11.5928
▁overlook	-11.5932
_\	-11.5937
passengers	-11.595
ils	-11.5952
▁curves	-11.5963
▁matters	-11.5975
▁AN	-11.599
▁Chris	-11.5993
▁johnsnowlabs	-11.5996
▁blam	-11.6001
▁lawn	-11.6009
}^2}	-11.6009
``).	-11.6015
▁invit	-11.6015
▁^^^^^^^^^^^^^^	-11.6017
▁brains	-11.6019
ez	-11.6033
▁intermedia	-11.6034
mp	-11.604
▁Fe	-11.6072
▁Get	-11.608
▁(1)	-11.61
>`_,	-11.6104
▁Link	-11.6107
ntry	-11.6108
form	-11.6112
▁Kar	-11.6112
At	-11.6114
LE	-11.6116
▁12,	-11.6136
▁di	-11.6143
▁(5)	-11.6155
Mi	-11.616
▁homes	-11.6161
hub	-11.6162
▁relie	-11.6184
▁Who	-11.6189
▁encoder	-11.619
does	-11.6219
Mor	-11.6228
1_	-11.6233
mer	-11.6233
93	-11.6235
impr	-11.624
build	-11.6241
act	-11.6249
▁crack	-11.6252
▁~~~~~~~~~~~~~	-11.6256
▁11	-11.6257
().	-11.6264
▁cheer	-11.6271
ral	-11.6273
'``	-11.6276
▁2]	-11.6287
con	-11.6289
▁bigge	-11.6298
▁onnx	-11.63
▁heir	-11.6315
Tr	-11.6324
▁fish	-11.6338
▁Rcc	-11.6364
▁invariabl	-11.6373
([[[	-11.6376
Base	-11.6377
ferred	-11.6378
▁(2	-11.639
▁subsample	-11.6392
)),	-11.6404
▁Hit	-11.6425
}`.	-11.6436
▁attach	-11.6442
tile	-11.6449
▁aim	-11.6449
▁Or	-11.6454
ning	-11.6459
▁Half	-11.646
ceased	-11.6479
gisticRegression	-11.65
motion	-11.6509
five	-11.6524
▁dff	-11.6541
Las	-11.6549
▁incre	-11.6561
tly	-11.6562
▁Vi	-11.6562
▁se	-11.6573
▁screens	-11.6579
04	-11.6579
ck	-11.658
49	-11.6588
town	-11.6596
▁station	-11.6607
"{	-11.6617
ave	-11.662
▁article	-11.6624
==	-11.6632
▁Are	-11.6632
3,	-11.6633
early	-11.6638
▁muster	-11.6652
▁pet	-11.6656
rry	-11.6681
nverse	-11.671
een	-11.6722
Rfxf	-11.673
▁ste	-11.6736
▁wire	-11.674
ps	-11.6751
Ndb	-11.6774
6.	-11.6791
▁rang	-11.6792
▁fr	-11.6804
▁],	-11.6805
▁involv	-11.6813
▁Lu	-11.6814
▁constan	-11.6832
ado	-11.6834
▁sing	-11.6841
▁---------------	-11.6842
▁brew	-11.6847
ded	-11.6853
(201	-11.6854
▁Rgf	-11.6857
▁strip	-11.6875
ner	-11.6887
des	-11.6895
▁retir	-11.6902
llowing	-11.6906
ME	-11.6911
ali	-11.6927
1|	-11.6928
▁awe	-11.6933
▁hint	-11.6933
itter	-11.6949
Tuys	-11.695
ids	-11.6955
▁goods	-11.697
-16	-11.6972
ton	-11.698
▁continu	-11.698
called	-11.7006
kh	-11.7023
points	-11.703
▁gu	-11.7039
oes	-11.7039
▁ret	-11.7056
IC	-11.7066
nHe	-11.7071
▁Gra	-11.7071
▁grad	-11.7072
lly	-11.7075
ARD	-11.7076
▁merge	-11.7082
BLE	-11.7101
IPL	-11.7123
gue	-11.7127
▁RE	-11.7129
▁Sal	-11.7131
ION	-11.7132
▁blu	-11.7136
ph	-11.7148
her	-11.7153
serving	-11.7153
▁mg	-11.7157
carrier	-11.717
Table	-11.7171
ui	-11.7175
]]	-11.7178
▁wrap	-11.719
(10)	-11.7191
ons	-11.721
▁Ru	-11.7224
▁Rea	-11.7225
Whi	-11.7227
number	-11.7231
ates	-11.7233
▁app	-11.7246
ould	-11.7254
fold	-11.7263
uple	-11.7272
▁bitte	-11.7272
nalogously	-11.7273
▁thud	-11.7285
59	-11.7292
\}`	-11.7296
COR	-11.7298
▁memor	-11.731
phy	-11.7321
extra	-11.7325
Result	-11.7325
=0.5	-11.7327
warn	-11.7335
flavor	-11.7336
iling	-11.7336
▁describ	-11.7338
ruin	-11.734
7.	-11.7344
cloth	-11.7344
▁Car	-11.7347
case	-11.7348
importance	-11.7352
elling	-11.7357
tar	-11.7359
create	-11.7359
validate	-11.736
merge	-11.7366
▁194	-11.7374
ER	-11.7375
gravitational	-11.7378
such	-11.7379
large	-11.7387
encode	-11.7389
However	-11.7389
length	-11.739
Line	-11.7391
"]),	-11.7392
Where	-11.7401
UMZULEK	-11.7404
▁Pr	-11.7404
lon	-11.7405
rolling	-11.7405
compute	-11.7407
Python	-11.7412
find	-11.7413
Loss	-11.7415
USA	-11.7418
▁pr	-11.7422
under	-11.7425
Time	-11.7426
ihfft	-11.7427
party	-11.7427
ascending	-11.7429
complex	-11.743
check	-11.743
Valley	-11.743
CA	-11.7433
including	-11.7434
MLmodel	-11.7436
▁Combin	-11.7439
mollusc	-11.7441
LOMWAZI	-11.7441
List	-11.7442
arms	-11.7443
aught	-11.7443
safe	-11.7443
gamma	-11.7444
John	-11.7445
categories	-11.7447
figure	-11.7447
workers	-11.7447
absolute	-11.7448
remaining	-11.7448
choice	-11.7449
master	-11.7449
penalty	-11.745
probability	-11.745
specific	-11.745
defined	-11.745
strategy	-11.745
ntoken	-11.745
Newton	-11.7451
grad	-11.7452
letter	-11.7452
Micha	-11.7452
Bernoulli	-11.7452
stopping	-11.7453
Poisson	-11.7453
wood	-11.7453
components	-11.7454
OLS	-11.7454
history	-11.7454
creasing	-11.7455
break	-11.7455
TUYS	-11.7455
drop	-11.7456
Owen	-11.7456
Least	-11.7456
style	-11.7458
rename	-11.7458
client	-11.746
location	-11.746
bool	-11.746
Great	-11.7465
planet	-11.7467
multiclass	-11.7469
May	-11.7472
advantages	-11.7474
numeric	-11.7475
fitted	-11.7476
role	-11.7476
emb	-11.7479
Here	-11.7482
▁determin	-11.7486
month	-11.7487
Name	-11.7489
▁easi	-11.7491
TED	-11.7493
▁['	-11.7494
▁REST	-11.7502
results	-11.7505
ISH	-11.7506
irfftn	-11.7507
stop	-11.7509
▁prove	-11.7514
ore	-11.7516
opt	-11.7522
document	-11.7524
Hi	-11.7529
▁dot	-11.7532
series	-11.7534
chemical	-11.7536
▁priori	-11.7536
▁protection	-11.7537
fftshift	-11.7541
▁statu	-11.7546
kl	-11.7546
Sta	-11.7549
saving	-11.7553
iat	-11.7554
▁applicab	-11.7556
even	-11.7561
iness	-11.7571
unted	-11.7579
Rbc	-11.758
▁tradition	-11.7583
Ree	-11.7589
▁XXVI	-11.759
OK	-11.7591
▁Ex	-11.7592
va	-11.7593
▁Square	-11.7601
LS	-11.7602
▁assembl	-11.7602
thmi	-11.7608
rdinary	-11.761
dv	-11.7611
▁mistake	-11.7619
Mon	-11.7622
hemical	-11.7624
signatures	-11.7625
ONATION	-11.7627
▁Stream	-11.7629
▁stru	-11.7636
optim	-11.7641
▁Algorithm	-11.7649
itable	-11.7653
ropout	-11.7657
▁filtration	-11.7658
▁circumstance	-11.7658
▁workflow	-11.7659
▁bullet	-11.7659
▁playmate	-11.766
▁combat	-11.766
▁endpoint	-11.7669
▁propos	-11.767
▁defin	-11.7672
▁ease	-11.7673
▁surprise	-11.7677
▁designate	-11.768
▁locate	-11.768
etermination	-11.7681
▁chang	-11.7681
▁balance	-11.7683
▁preserve	-11.7684
▁media	-11.7685
▁judge	-11.7686
rabic	-11.7692
poor	-11.7697
serial	-11.7698
▁player	-11.7698
▁accompany	-11.7698
▁adventure	-11.7699
Define	-11.7701
▁formulate	-11.7702
▁comment	-11.7703
▁1000	-11.7706
▁trajector	-11.7706
▁De	-11.7709
rugged	-11.7709
▁Piet	-11.7711
dtype	-11.7711
=(	-11.7713
indexing	-11.7714
▁IMPI	-11.7716
DOCTOR	-11.7716
IVE	-11.7716
▁Europe	-11.7716
conv	-11.7716
▁hurried	-11.7716
▁billi	-11.7717
config	-11.7718
▁exhibit	-11.7719
▁magnet	-11.7719
▁potent	-11.7719
▁hypothe	-11.772
ography	-11.772
accelerator	-11.772
▁accommodat	-11.772
Hastings	-11.772
▁Argentina	-11.772
▁Caribbean	-11.772
Buenos	-11.772
Hawaii	-11.772
PyTorch	-11.772
preprocessing	-11.772
songwriter	-11.772
▁ADVENTURES	-11.772
▁Actress	-11.772
▁Association	-11.772
▁Championship	-11.772
▁DAMAGE	-11.772
▁Dependencies	-11.772
▁Eenui	-11.772
▁Grobler	-11.772
▁Harvard	-11.772
▁Jagannath	-11.772
▁Molesey	-11.772
▁Potchefstroom	-11.772
▁RPM	-11.772
▁SAVAGE	-11.772
▁Secretary	-11.772
▁Vladimir	-11.772
▁Warriors	-11.772
▁appetite	-11.772
▁biltong	-11.772
▁cemetery	-11.772
▁convenience	-11.772
▁convenient	-11.772
▁despair	-11.772
▁divination	-11.772
▁earliest	-11.772
▁efficiency	-11.772
▁exercise	-11.772
▁flinching	-11.772
▁mathematics	-11.772
▁neighbourhood	-11.772
▁obstacle	-11.772
▁orientation	-11.772
▁preposterous	-11.772
▁reckless	-11.772
▁retrieve	-11.772
▁slaughter	-11.772
▁sovereigns	-11.772
▁stomach	-11.772
▁surprising	-11.772
▁terrestrial	-11.772
▁terrific	-11.772
▁terrified	-11.772
▁vessel	-11.772
GSDP	-11.772
Revenue	-11.772
orthogonal	-11.772
▁AGAIN	-11.772
▁ASCII	-11.772
▁EXECUTION	-11.772
▁Mandhata	-11.772
▁Rothfuss	-11.772
▁compliment	-11.772
▁infinity	-11.772
▁perceive	-11.772
▁pleasure	-11.772
▁religion	-11.772
▁vivid	-11.772
▁whisper	-11.772
tmpdir	-11.772
▁AttributeError	-11.772
▁School	-11.772
▁Volley	-11.772
▁cadence	-11.772
▁derivative	-11.772
▁improvised	-11.772
▁jockey	-11.772
▁slept	-11.772
▁swept	-11.772
▁Petersburg	-11.772
▁courtesy	-11.772
▁saloon	-11.772
miscellaneous	-11.772
visualization	-11.772
▁HuberLoss	-11.772
▁MEET	-11.772
▁recognition	-11.772
▁Club	-11.772
▁pigment	-11.772
▁twice	-11.772
▁Summer	-11.772
▁emetic	-11.772
▁failure	-11.772
▁snapped	-11.772
▁whetted	-11.772
Panama	-11.772
isolated	-11.772
▁Strike	-11.772
▁website	-11.772
Havana	-11.772
▁Martinez	-11.772
▁sharks	-11.772
▁spectac	-11.772
▁FIFA	-11.772
▁emphatically	-11.772
▁SACR	-11.772
▁Theodor	-11.772
▁advent	-11.772
▁boyhood	-11.772
▁cheese	-11.772
▁unarmed	-11.772
▁ponies	-11.772
▁proximity	-11.772
▁canvas	-11.772
▁nonsense	-11.772
▁Boris	-11.772
▁Credit	-11.772
▁abandon	-11.772
▁singular	-11.772
▁secretary	-11.772
▁University	-11.772
▁cheek	-11.772
Victor	-11.772
▁Hawk	-11.772
▁Henry	-11.772
▁resolution	-11.772
▁Corps	-11.772
pinball	-11.772
▁CART	-11.772
▁vague	-11.772
▁APL	-11.772
▁probabili	-11.772
▁Pitch	-11.772
▁disregard	-11.772
▁torture	-11.772
▁picturesque	-11.772
virtualenv	-11.772
carbon	-11.772
▁connect	-11.772
▁woven	-11.772
▁jail	-11.772
▁neck	-11.772
cloudpickle	-11.772
▁dropping	-11.772
▁chaff	-11.772
override	-11.772
▁Slide	-11.772
▁gorgeous	-11.772
▁soaked	-11.772
▁worldwide	-11.772
nonzero	-11.772
▁Picture	-11.772
▁manhood	-11.772
▁bolt	-11.772
▁transaction	-11.772
▁acquaintance	-11.7721
▁Spain	-11.7721
▁substance	-11.7721
▁gorge	-11.7721
▁perihelion	-11.7721
▁sunrise	-11.7721
▁fascinated	-11.7721
▁worship	-11.7721
▁respectfully	-11.7721
▁civilization	-11.7721
▁steel	-11.7721
introductory	-11.7721
▁expert	-11.7721
▁commerc	-11.7721
keeper	-11.7721
▁foolishness	-11.7721
▁Green	-11.7721
RidgeClassifier	-11.7721
▁[-12.5	-11.7721
PyFuncModel	-11.7721
▁agony	-11.7721
▁Statistical	-11.7721
▁conclude	-11.7721
▁Remember	-11.7721
▁gazing	-11.7721
▁distress	-11.7722
▁Herman	-11.7722
▁bargain	-11.7722
UCL	-11.7722
▁Camp	-11.7722
▁permitted	-11.7722
▁illness	-11.7722
FATHER	-11.7722
▁princesses	-11.7722
▁XXXII	-11.7722
▁flap	-11.7722
▁impact	-11.7722
▁countless	-11.7722
▁Aires	-11.7722
▁Indies	-11.7722
▁stiff	-11.7722
▁identify	-11.7723
▁guest	-11.7723
▁bloodshed	-11.7723
▁improving	-11.7723
▁OLD	-11.7723
▁hopeless	-11.7723
Yesterday	-11.7723
▁ordeal	-11.7723
▁intently	-11.7723
▁XVI	-11.7723
▁chair	-11.7723
▁extensive	-11.7723
▁intimate	-11.7723
▁Angeles	-11.7723
▁waist	-11.7723
▁IMPIS	-11.7724
"])[["	-11.7724
▁crawl	-11.7724
▁Gap	-11.7724
▁Englishman	-11.7725
▁afterward	-11.7725
▁solid	-11.7725
▁fiction	-11.7725
▁Shall	-11.7725
▁aliases	-11.7726
▁bsz	-11.7726
▁nickname	-11.7726
nCat	-11.7726
▁Query	-11.7726
▁removing	-11.7726
▁Satur	-11.7726
▁acres	-11.7726
▁Format	-11.7727
▁XIX	-11.7727
zier	-11.7727
▁Docs	-11.7727
▁ferment	-11.7727
▁contract	-11.7727
offsets	-11.7727
▁MIN	-11.7727
▁Jack	-11.7727
▁ensued	-11.7727
▁Roy	-11.7727
▁Connel	-11.7727
▁contest	-11.7728
▁Add	-11.7728
▁sixty	-11.7729
▁debut	-11.7729
▁Roger	-11.7729
▁partition	-11.7729
Regularization	-11.7729
▁longlist	-11.7729
▁headdresses	-11.7729
▁bikes	-11.7729
▁Rice	-11.7729
▁pockets	-11.773
▁hyperparameters	-11.773
▁stout	-11.773
instein	-11.7731
▁grasp	-11.7731
▁massacre	-11.7731
▁merry	-11.7732
▁departed	-11.7732
▁seated	-11.7732
numba	-11.7733
▁yelling	-11.7733
▁cleaner	-11.7733
▁jointly	-11.7733
▁gallop	-11.7734
▁visitors	-11.7734
▁interpreter	-11.7734
▁communicate	-11.7734
▁dried	-11.7734
▁unlike	-11.7734
legend	-11.7734
▁displaying	-11.7734
▁[8]	-11.7734
)^2}{	-11.7735
▁heroes	-11.7735
▁spies	-11.7736
_2|	-11.7736
▁shone	-11.7736
▁innovat	-11.7736
▁exposed	-11.7736
▁learners	-11.7737
▁Alan	-11.7738
▁hyenas	-11.7738
Warning	-11.7739
▁relieve	-11.7739
▁dirt	-11.7739
▁audi	-11.7739
▁conquer	-11.7739
▁XIV	-11.774
▁beaches	-11.774
aussian	-11.7741
(1000	-11.7743
▁desert	-11.7743
▁stability	-11.7743
▁Jup	-11.7744
sed	-11.7745
▁encountered	-11.7745
▁Beau	-11.7745
▁1939	-11.7746
▁decid	-11.7746
▁rituals	-11.7746
▁mirrors	-11.7747
▁ancestors	-11.7747
▁techniques	-11.7747
▁reasonable	-11.7747
▁trucks	-11.7748
201318	-11.7749
=0.1)	-11.7749
softmax	-11.7749
▁throat	-11.7749
▁identically	-11.7749
▁suspected	-11.775
distribution	-11.775
▁insight	-11.7751
▁trio	-11.7751
▁briefly	-11.7752
▁commander	-11.7752
▁release	-11.7753
▁bitter	-11.7753
▁token	-11.7753
URING	-11.7754
[1:	-11.7754
▁envy	-11.7754
▁nine	-11.7756
CHOO	-11.7756
▁guaranteed	-11.7757
▁trade	-11.7757
▁swing	-11.7758
▁ranked	-11.7758
burst	-11.7759
▁1970	-11.776
▁editions	-11.7761
▁withdrew	-11.7761
▁varies	-11.7761
▁stoop	-11.7761
▁challenges	-11.7761
▁surrendered	-11.7761
▁0.],	-11.7762
▁denote	-11.7763
▁careless	-11.7763
▁complain	-11.7763
Don	-11.7764
▁personally	-11.7764
▁characteristics	-11.7764
▁Signatures	-11.7764
▁Basuto	-11.7765
▁guarantees	-11.7765
▁solicit	-11.7765
▁duplicate	-11.7766
Always	-11.7766
▁flatter	-11.7766
▁assertion	-11.7766
▁safely	-11.7768
▁correctness	-11.7768
▁assisted	-11.7768
▁chumm	-11.7769
▁Japan	-11.7769
▁sailing	-11.7769
▁smart	-11.7769
▁certainty	-11.777
▁disable	-11.777
▁axioms	-11.777
▁roof	-11.777
▁scaling	-11.777
▁leopard	-11.777
▁Shoot	-11.777
▁Pattern	-11.777
▁ZOMBODE	-11.777
▁Absolute	-11.777
▁elliptical	-11.777
▁NOT	-11.777
▁Winter	-11.777
▁gauge	-11.7771
▁summer	-11.7771
▁sentiment	-11.7771
▁leverag	-11.7771
▁ladder	-11.7771
▁multiplication	-11.7771
▁Everything	-11.7771
▁tokenizer	-11.7772
▁inspir	-11.7772
▁Despite	-11.7772
▁~~~~~~~~~~~~	-11.7772
▁balanced	-11.7773
▁respond	-11.7773
▁Fish	-11.7773
▁Ruth	-11.7773
▁preserved	-11.7774
Tabs	-11.7774
▁detect	-11.7774
EBO	-11.7774
▁glass	-11.7775
_).	-11.7775
▁historical	-11.7776
▁filtering	-11.7776
ome	-11.7776
▁BIC	-11.7778
AS	-11.778
▁Transformation	-11.7781
|\	-11.7781
▁filtrations	-11.7782
▁bullets	-11.7782
▁Game	-11.7782
▁purchased	-11.7784
▁falling	-11.7784
).__	-11.7785
▁agent	-11.7785
▁cabinet	-11.7785
▁2*	-11.7785
▁poorly	-11.7786
▁heating	-11.7788
laborat	-11.7789
="">	-11.7789
▁GET	-11.779
GIN	-11.7791
▁orange	-11.7791
▁1924	-11.7793
=100,	-11.7796
▁Artifacts	-11.7797
▁17	-11.7798
▁installation	-11.7798
▁streets	-11.7799
Religion	-11.78
▁encounters	-11.78
▁programs	-11.7801
▁Over	-11.7802
▁prey	-11.7802
▁copied	-11.7802
▁stri	-11.7803
▁Back	-11.7804
bic	-11.7804
▁multiply	-11.7805
▁graz	-11.7806
▁drawing	-11.7807
2018	-11.7807
▁Fig	-11.7807
▁REFUSE	-11.7809
urrito	-11.7812
▁cents	-11.7812
▁statistics	-11.7812
▁kindly	-11.7817
▁cameras	-11.7817
▁occasions	-11.7817
▁affairs	-11.7817
▁dolls	-11.7817
our	-11.7818
▁nlp	-11.7819
▁poly	-11.7822
▁seeming	-11.7823
zip	-11.7824
▁director	-11.7825
▁colors	-11.7831
ost	-11.7831
▁variants	-11.7832
▁circumstances	-11.7832
▁minimizes	-11.7834
▁Experiments	-11.7834
▁Won	-11.7835
▁locations	-11.7835
▁devices	-11.7837
▁lake	-11.784
Ho	-11.784
▁factory	-11.7841
ilitary	-11.7847
:`.	-11.7847
▁Death	-11.7847
▁Good	-11.7847
▁jewelry	-11.7848
▁Thriller	-11.7848
▁Complexity	-11.7848
▁Portsmouth	-11.7848
▁proxy	-11.7849
▁mug	-11.785
▁employ	-11.785
▁Returns	-11.7851
▁phone	-11.7851
▁novels	-11.7851
▁knock	-11.7851
▁Selection	-11.7853
▁donate	-11.7854
▁periodic	-11.7855
nforcement	-11.7856
▁bury	-11.7856
▁CLI	-11.7856
ssip	-11.7859
▁XXVII	-11.786
}|	-11.786
▁gay	-11.7862
▁fewer	-11.7862
OOB	-11.7863
▁issues	-11.7864
▁streaming	-11.7864
▁Show	-11.7864
▁2007	-11.7868
delete	-11.787
da	-11.787
▁unsee	-11.7871
▁adopt	-11.7873
▁rect	-11.7874
("0.	-11.7874
▁Previous	-11.7875
bad	-11.7876
▁routes	-11.7877
▁tha	-11.7878
dtypes	-11.7879
NE	-11.788
▁owners	-11.7884
▁Pol	-11.7887
▁styles	-11.7888
▁handled	-11.789
alone	-11.7893
IMI	-11.7893
minor	-11.7896
dumps	-11.7896
DY	-11.7897
Applying	-11.7898
offs	-11.7899
etary	-11.7901
▁arts	-11.7901
-1)``,	-11.7903
ure	-11.7903
▁happening	-11.7905
▁vectors	-11.7906
▁drum	-11.7906
▁outdoor	-11.7906
les	-11.7906
ESE	-11.7909
ubric	-11.791
▁taste	-11.7912
Cze	-11.7915
▁walks	-11.7915
▁mines	-11.7915
mall	-11.792
▁cool	-11.792
▁illustrate	-11.7921
▁Exp	-11.7921
▁Tweedie	-11.7922
▁combinations	-11.7924
▁Thomas	-11.7926
▁limits	-11.7927
▁Search	-11.7927
▁entropy	-11.7929
▁desires	-11.7929
ttle	-11.7932
▁initrange	-11.7932
▁letter	-11.7933
▁splitter	-11.7934
▁Fi	-11.7936
▁fools	-11.7937
▁Functions	-11.794
^2	-11.794
aring	-11.7944
▁quantiles	-11.7945
▁Card	-11.7945
▁encode	-11.7952
▁Jul	-11.7954
▁decides	-11.7956
▁bul	-11.7958
▁(10	-11.7962
ber	-11.7967
▁beef	-11.7968
_),	-11.7968
mented	-11.797
lled	-11.7974
0),	-11.7977
▁rulers	-11.7979
▁1))	-11.798
▁refine	-11.798
▁tasks	-11.7983
2,	-11.7987
▁hated	-11.799
uen	-11.7992
▁paragraphs	-11.7995
▁cookie	-11.7996
TORY	-11.7997
▁brand	-11.8005
▁gamma	-11.8006
▁LOMWAZI	-11.8007
▁mollusc	-11.8007
Nfxd	-11.8008
▁1919	-11.8009
ATION	-11.8011
reaking	-11.8011
▁modifi	-11.8013
▁curse	-11.8013
▁ILL	-11.8017
▁Off	-11.8019
▁fund	-11.802
▁1.],	-11.8023
15.	-11.8024
▁pieces	-11.8026
▁ARD	-11.8027
ogen	-11.8028
CD	-11.8033
▁dear	-11.8034
changed	-11.8034
▁1982	-11.8048
▁feed	-11.8049
review	-11.805
▁{}	-11.8051
-1])	-11.8053
lit	-11.8053
-01	-11.8053
getattr	-11.8055
▁admir	-11.8058
II	-11.806
▁87.	-11.8062
envs	-11.807
▁consume	-11.8077
▁kne	-11.8078
do	-11.8085
▁performances	-11.8085
▁civiliz	-11.8087
Ndxc	-11.8089
▁shipp	-11.809
ol	-11.8091
▁2018	-11.8095
▁substitut	-11.8096
mo	-11.8097
▁End	-11.8097
▁Loss	-11.8098
▁cures	-11.81
▁struct	-11.81
VAR	-11.8105
Flo	-11.8105
none	-11.8105
▁explore	-11.8106
used	-11.8107
inimal	-11.8111
▁languages	-11.812
▁"19	-11.8121
(8),	-11.8126
TS	-11.8128
cumulat	-11.8128
▁deals	-11.8131
▁hopes	-11.8135
▁honors	-11.8136
▁brutal	-11.8141
ey	-11.8144
▁excel	-11.8159
▁Error	-11.8161
▁raced	-11.8164
▁popul	-11.8174
▁bow	-11.8175
flexib	-11.8176
▁du	-11.8179
>14	-11.8183
▁patch	-11.8184
▁commands	-11.8191
citing	-11.8194
▁elbo	-11.8197
utside	-11.8202
==============	-11.8202
▁stirr	-11.8207
▁tie	-11.8208
▁ca	-11.8208
=("	-11.8219
▁humble	-11.8225
▁"186	-11.8236
▁camping	-11.8239
▁waits	-11.8244
▁hfftn	-11.8245
▁rested	-11.8245
▁Rgd	-11.8246
▁-------	-11.8251
▁26	-11.8254
ean	-11.8258
▁turns	-11.8267
===============+	-11.8271
llar	-11.8273
▁rains	-11.8277
▁attract	-11.8281
(2	-11.8286
▁plant	-11.8287
▁Notes	-11.8292
▁flashe	-11.8296
▁card	-11.8297
quantity	-11.8302
reading	-11.8303
pre	-11.8306
▁powers	-11.8311
▁acc	-11.8313
(10),	-11.8316
▁OUR	-11.8318
▁fate	-11.8321
Ngxe	-11.8322
▁cart	-11.8334
vor	-11.8338
idden	-11.8352
ird	-11.8356
▁0`	-11.8367
▁Chil	-11.837
ied	-11.8371
scoring	-11.8372
▁tune	-11.8374
▁mor	-11.8376
▁cr	-11.8381
▁Abra	-11.8384
▁Tak	-11.8387
rose	-11.839
▁aw	-11.8396
▁troubled	-11.8401
▁Missi	-11.8402
▁decoder	-11.8422
▁rfftn	-11.8429
▁stable	-11.8435
033	-11.8435
Neg	-11.8446
}^{	-11.8448
To	-11.8449
▁diminish	-11.8453
▁1992	-11.847
▁(198	-11.8471
ang	-11.8473
▁insult	-11.8477
▁ham	-11.8482
▁staged	-11.8484
▁Si	-11.8484
ives	-11.8491
▁RANSAC	-11.8494
EE	-11.8498
▁Method	-11.8505
▁Ed	-11.8508
Five	-11.851
▁disappear	-11.851
ovich	-11.8513
HO	-11.8515
}"	-11.8516
▁mon	-11.8521
issing	-11.8541
▁setup	-11.8543
ti	-11.8545
na	-11.855
ural	-11.8551
bility	-11.8554
▁ac	-11.8561
▁ifftn	-11.8569
▁Sav	-11.8572
▁talks	-11.8582
'}	-11.8593
▁-2.	-11.8597
edical	-11.8602
▁youth	-11.8607
cade	-11.8608
▁Real	-11.861
▁troop	-11.8636
▁squatt	-11.8648
GB	-11.8653
▁Bel	-11.8653
▁shaped	-11.8667
▁bore	-11.8668
▁environments	-11.8671
▁sm	-11.8689
espite	-11.8698
Fo	-11.8703
(5)	-11.8711
▁ours	-11.8718
reset	-11.8722
▁petr	-11.8729
▁200	-11.8729
nstein	-11.8731
▁Cho	-11.8732
▁2:	-11.8744
▁plac	-11.8744
=5,	-11.8745
----+-----------	-11.8746
▁pray	-11.8748
ranch	-11.8756
specially	-11.8756
▁5)	-11.8763
4.0	-11.877
ration	-11.8771
▁nu	-11.878
Li	-11.8783
za	-11.8806
▁Yes	-11.881
9,	-11.8819
▁intend	-11.8828
running	-11.8829
▁matplotlib	-11.8834
^2`	-11.8834
cial	-11.8848
▁Author	-11.8849
▁=============	-11.8851
ably	-11.8855
zo	-11.886
▁dtypes	-11.8871
▁JO	-11.889
GA	-11.8906
▁{\	-11.8911
▁lock	-11.8911
eam	-11.8912
▁21	-11.8914
▁interact	-11.8915
avar	-11.8923
variable	-11.893
~~~~~~~~~~~~~~	-11.893
iant	-11.8936
▁src	-11.8937
mont	-11.8938
stalled	-11.894
eague	-11.8945
ears	-11.8948
.[1	-11.8954
5.0	-11.8955
▁NA	-11.8971
▁lid	-11.8973
▁configure	-11.8977
ss	-11.8979
Ndxe	-11.8981
▁mothers	-11.8992
▁counter	-11.8997
▁Weis	-11.9003
▁confer	-11.9007
▁[2	-11.9012
its	-11.9024
EW	-11.9027
Release	-11.9028
▁performan	-11.9033
▁amaze	-11.9035
▁contribute	-11.9037
▁kil	-11.9039
▁wander	-11.9043
ath	-11.9048
referred	-11.9055
ecause	-11.9059
▁myster	-11.9072
0000000	-11.9074
▁u	-11.9074
jin	-11.9084
▁importances	-11.9102
gate	-11.9106
39	-11.9112
▁glorie	-11.9114
▁Cha	-11.9115
[-1]	-11.9134
▁examin	-11.9143
▁sole	-11.9151
▁relationship	-11.9154
bula	-11.9162
HIS	-11.9162
}'	-11.9163
ld	-11.9166
▁blaze	-11.9168
RAIN	-11.9173
passes	-11.9177
suming	-11.9186
utologging	-11.9195
ants	-11.92
▁proba	-11.921
sfactor	-11.9211
▁pit	-11.9216
till	-11.9222
▁computational	-11.9224
▁moder	-11.923
▁versa	-11.9231
rich	-11.9237
▁Ou	-11.9245
ined	-11.9247
▁diviner	-11.9255
▁Ko	-11.9256
git	-11.9256
▁Princip	-11.9261
▁serialize	-11.9272
OKE	-11.9273
]))	-11.9277
▁Buil	-11.928
▁}}	-11.9282
▁sad	-11.9284
tering	-11.9289
▁==============	-11.9302
▁regret	-11.9311
▁beast	-11.9314
lowing	-11.9328
TM	-11.9334
▁quadr	-11.9335
Mos	-11.935
Do	-11.9365
DO	-11.9374
▁defaults	-11.9377
autologging	-11.938
}/	-11.9386
ying	-11.939
▁fro	-11.9396
ought	-11.9396
000	-11.9404
shot	-11.9405
▁MAN	-11.9418
sv	-11.9424
▁ch	-11.9443
-1)	-11.9449
▁Ha	-11.945
▁1.0`	-11.9458
▁bl	-11.9459
fal	-11.9466
ilin	-11.947
▁Line	-11.9484
definitely	-11.9496
25.	-11.9501
dding	-11.9514
▁IX	-11.9522
tures	-11.953
Leve	-11.9546
▁valued	-11.9557
erated	-11.9578
mi	-11.9583
ke	-11.9584
tte	-11.9585
sine	-11.9614
▁Light	-11.9616
rows	-11.9619
boats	-11.9619
li	-11.962
this	-11.9621
▁pursu	-11.9629
ometr	-11.9638
▁==========	-11.9639
982	-11.9671
Decision	-11.9673
▁surviv	-11.9674
ining	-11.9681
sp	-11.969
arm	-11.9693
▁mo	-11.9705
xis	-11.9707
fe	-11.9718
07	-11.9719
rinciple	-11.9722
dor	-11.9725
▁Se	-11.9731
▁Ca	-11.9738
ITE	-11.9738
ellow	-11.9746
▁fix	-11.9748
▁Give	-11.9749
Pr	-11.9758
urely	-11.9763
▁ice	-11.9764
TING	-11.977
▁32	-11.9773
200)	-11.9783
▁Bill	-11.9785
mediate	-11.9791
▁Earl	-11.9793
▁host	-11.9795
▁beam	-11.98
})`	-11.9802
▁shi	-11.9805
▁Old	-11.9811
lib	-11.9823
▁8	-11.9827
ice	-11.9838
▁console	-11.9847
▁squat	-11.9849
til	-11.9857
▁Michel	-11.9859
▁wa	-11.987
avy	-11.987
▁Pa	-11.9874
▁===========	-11.9883
▁chi	-11.9885
que	-11.9888
-------------	-11.99
mu	-11.9923
▁trans	-11.9924
rown	-11.9937
}}{	-11.9941
1/	-11.9967
BC	-11.9976
▁Mont	-12.0015
ered	-12.0017
ode	-12.0019
▁fo	-12.004
OUT	-12.0042
▁Mad	-12.0044
0])	-12.0044
ssed	-12.0045
"},	-12.0078
▁Bi	-12.0081
ExtraTree	-12.0084
▁greed	-12.0091
rep	-12.0104
▁Stand	-12.0106
▁60	-12.0111
tive	-12.0118
:]	-12.0128
Provide	-12.0133
ran	-12.0139
ule	-12.0153
775	-12.0158
▁Access	-12.0205
▁Mel	-12.0207
yo	-12.0208
▁1992.	-12.0208
sham	-12.0214
▁Can	-12.0218
lose	-12.0234
rice	-12.0243
▁elect	-12.0244
▁bi	-12.0256
▁Comp	-12.0262
70	-12.0266
12.	-12.0268
▁bla	-12.0271
teen	-12.028
ACK	-12.0281
Link	-12.0283
TAL	-12.0284
xin	-12.029
ad	-12.0299
▁Fer	-12.0301
entity	-12.032
took	-12.0339
ency	-12.0339
covered	-12.0357
▁emit	-12.0357
204	-12.037
ence	-12.0375
▁Sea	-12.0379
▁Practical	-12.038
▁trem	-12.0397
▁Colle	-12.0402
320	-12.0414
bear	-12.0415
▁spec	-12.0423
▁caste	-12.0425
must	-12.0427
▁decreas	-12.0446
eeper	-12.0447
AND	-12.0449
▁1997	-12.045
ger	-12.047
main	-12.047
▁Dis	-12.0472
mith	-12.0475
▁Chi	-12.0483
result	-12.0486
ERT	-12.0486
arrow	-12.0486
On	-12.0502
great	-12.0505
▁Read	-12.051
▁interfac	-12.0514
=============	-12.052
claims	-12.0524
▁possesse	-12.0528
cos	-12.0533
▁tri	-12.0547
method	-12.0547
after	-12.0547
either	-12.0555
▁Tr	-12.056
▁whip	-12.0561
▁):	-12.0564
▁cha	-12.0566
▁doc	-12.0571
Even	-12.0586
0],	-12.0592
shift	-12.0595
intro	-12.0596
Sugden	-12.06
hapter	-12.0617
▁id	-12.0618
▁aggregate	-12.0623
mat	-12.0623
Tzaneen	-12.0624
nA	-12.0625
pped	-12.0627
hole	-12.063
rebuilt	-12.0643
ottle	-12.0644
Sibijaan	-12.065
bin	-12.0655
divide	-12.0658
relative	-12.0663
thro	-12.0667
product	-12.0671
eared	-12.0671
▁37	-12.0672
bank	-12.0672
plane	-12.0674
house	-12.0675
rassi	-12.0676
Look	-12.0683
Tracking	-12.0685
piece	-12.069
loop	-12.0693
efficient	-12.0694
▁pl	-12.0697
ister	-12.0698
Gol	-12.0701
Type	-12.0702
character	-12.0703
paper	-12.0704
Select	-12.0708
serve	-12.0711
Transformer	-12.0712
object	-12.0713
▁Check	-12.0714
▁Br	-12.0714
unique	-12.0719
surface	-12.0721
Section	-12.0721
course	-12.0722
reporter	-12.0725
warning	-12.073
▁Director	-12.073
0]	-12.0732
momentum	-12.0733
▁Near	-12.0734
Berlin	-12.0735
remove	-12.0736
pivot	-12.0737
ila	-12.0737
RACE	-12.0737
TEST	-12.0738
sequence	-12.0738
moving	-12.0738
MyModel	-12.0738
DFT	-12.074
mit	-12.0745
ud	-12.0745
bru	-12.0746
required	-12.0747
▁measur	-12.0748
supplement	-12.0749
straight	-12.0754
original	-12.0758
grouped	-12.0759
Update	-12.0759
▁Normal	-12.0759
▁Web	-12.076
SUGDEN	-12.0761
lay	-12.0762
mathematical	-12.0765
particularly	-12.0765
interaction	-12.0765
Gaussian	-12.0765
replace	-12.0766
Gradient	-12.0766
Tweedie	-12.0768
average	-12.0768
Direct	-12.0768
base	-12.0769
gender	-12.0769
ILL	-12.0769
▁40	-12.077
Search	-12.0771
Indunas	-12.0772
Thomas	-12.0772
▁ensur	-12.0772
World	-12.0774
License	-12.0774
uc	-12.0774
fashion	-12.0775
related	-12.0775
splitter	-12.0777
urs	-12.0777
Through	-12.0778
sometimes	-12.0778
eek	-12.0778
child	-12.0778
Father	-12.078
LABOTSIBENI	-12.078
snapshot	-12.078
Fast	-12.078
radius	-12.0781
Manaan	-12.0781
database	-12.0782
Walton	-12.0783
variance	-12.0783
formulation	-12.0783
threshold	-12.0784
are	-12.0786
simultaneous	-12.0786
evident	-12.0786
entropy	-12.0786
forecast	-12.0787
teams	-12.0789
remote	-12.079
▁sha	-12.079
MY	-12.0791
speaking	-12.0791
sentence	-12.0791
Not	-12.0792
[1	-12.0794
padded	-12.0795
govern	-12.0796
initrange	-12.0797
faithful	-12.0797
engine	-12.0797
directory	-12.0797
user	-12.0799
estricted	-12.08
header	-12.08
om	-12.0801
leaves	-12.0801
Mac	-12.0803
▁Sci	-12.0804
quired	-12.0805
▁refus	-12.0805
mass	-12.0805
LL	-12.0806
▁shak	-12.081
uniformly	-12.0813
▁drama	-12.0814
center	-12.0815
box	-12.0819
-1)``	-12.082
▁overfit	-12.0823
skin	-12.0825
▁Fin	-12.0827
cures	-12.0833
algorithms	-12.0835
stax	-12.0839
notation	-12.0841
▁capa	-12.0842
material	-12.0845
Load	-12.0851
hard	-12.0855
encoded	-12.0857
Run	-12.086
cries	-12.086
1",	-12.0862
rushed	-12.0867
mmed	-12.0873
too	-12.0876
Multi	-12.0877
taking	-12.0879
than	-12.0879
cations	-12.0882
parameters	-12.0882
▁logic	-12.0882
▁tens	-12.0884
▁qu	-12.0888
Set	-12.0889
ize	-12.0889
Kxa	-12.089
▁approximate	-12.0893
dium	-12.0894
perfect	-12.0901
ophi	-12.0902
clf	-12.0902
part	-12.0902
Strange	-12.0903
sub	-12.0906
▁overwhelm	-12.0909
▁cont	-12.0915
▁<10.1	-12.092
dventures	-12.0926
[0	-12.0927
▁Train	-12.093
▁partners	-12.093
paid	-12.0932
static	-12.0934
▁guarantee	-12.0939
-4,	-12.0941
rian	-12.0946
_22	-12.0947
dicate	-12.095
▁Fil	-12.095
▁comfort	-12.0954
Is	-12.0954
▁damag	-12.0961
▁download	-12.0962
tak	-12.0962
AC	-12.0971
▁needles	-12.0973
param	-12.0974
Non	-12.0982
▁burden	-12.0982
▁brake	-12.0983
[3]	-12.0983
▁modeling	-12.0985
▁[2]	-12.0985
▁infant	-12.0986
▁vehicle	-12.0989
▁password	-12.0989
▁Georg	-12.099
▁scenario	-12.099
▁terribl	-12.099
▁coincide	-12.0992
▁characteristic	-12.0992
▁video	-12.0993
▁traverse	-12.0994
▁drug	-12.0994
▁preparation	-12.0994
▁inlier	-12.0994
▁companion	-12.0996
viously	-12.0997
▁decode	-12.0997
▁enc	-12.0998
▁deduction	-12.0998
▁rotate	-12.1001
▁edition	-12.1004
▁outcome	-12.1007
▁declare	-12.1009
burg	-12.1011
▁display	-12.1014
▁Go	-12.1014
BILITY	-12.1017
▁scout	-12.1019
▁Mak	-12.102
ummy	-12.1021
pull	-12.1022
HOST	-12.1022
▁sol	-12.1028
▁variation	-12.1029
_11	-12.103
▁develop	-12.1032
▁nigh	-12.1033
▁disgust	-12.1033
obs	-12.1033
ricket	-12.1035
▁exhaust	-12.1035
▁establish	-12.1035
han	-12.1035
psu	-12.1036
undreds	-12.1037
inking	-12.1038
▁depart	-12.1039
tie	-12.1039
▁crush	-12.104
▁Yu	-12.1041
▁triumph	-12.1041
▁stor	-12.1041
▁transformer	-12.1041
▁XXV	-12.1043
▁cub	-12.1043
utliers	-12.1043
vation	-12.1043
ravel	-12.1044
▁affectionate	-12.1044
▁thorough	-12.1045
Writ	-12.1045
▁Mexic	-12.1045
▁Cost	-12.1045
ORDIN	-12.1047
▁abacus	-12.1047
jury	-12.1048
weedie	-12.1048
sus	-12.1049
esterday	-12.1049
ibrary	-12.1049
▁Angel	-12.105
▁luc	-12.105
TION	-12.105
▁stroke	-12.1051
▁adapt	-12.1052
▁WARRANT	-12.1052
BooleanType	-12.1053
▁guidance	-12.1053
Fletcher	-12.1053
concat	-12.1053
▁PART	-12.1053
Multinomial	-12.1053
TOCInline	-12.1053
▁Province	-12.1053
Barcelona	-12.1053
▁Daniel	-12.1053
▁Jordan	-12.1053
▁Navigator	-12.1053
▁conduct	-12.1053
▁contradict	-12.1053
://127.0.0.1:500	-12.1053
Congress	-12.1053
Container	-12.1053
Embedding	-12.1053
Ezulweni	-12.1053
NESS	-12.1053
SECRET	-12.1053
stipulation	-12.1053
tensorflow	-12.1053
▁Alaska	-12.1053
▁Approximation	-12.1053
▁Balabhadra	-12.1053
▁CLASSICAL	-12.1053
▁COVID	-12.1053
▁CRESPINELL	-12.1053
▁Copyright	-12.1053
▁EINSTEIN	-12.1053
▁ESCAPE	-12.1053
▁Egypt	-12.1053
▁Entertainment	-12.1053
▁Eugene	-12.1053
▁ExponentialLoss	-12.1053
▁GRAVITATION	-12.1053
▁Hermione	-12.1053
▁Jersey	-12.1053
▁Labotisibeni	-12.1053
▁Longstaff	-12.1053
▁MECHANICS	-12.1053
▁Odisha	-12.1053
▁Oregon	-12.1053
▁Pacific	-12.1053
▁Parameters	-12.1053
▁Physicians	-12.1053
▁PinballLoss	-12.1053
▁RIETVLEI	-12.1053
▁SANCTI	-12.1053
▁Structure	-12.1053
▁Suhana	-12.1053
▁Ubieta	-12.1053
▁Volunteer	-12.1053
▁WARRIOR	-12.1053
▁YORK	-12.1053
▁analogy	-12.1053
▁antagonistic	-12.1053
▁arbitrarily	-12.1053
▁camouflage	-12.1053
▁census	-12.1053
▁christen	-12.1053
▁concrete	-12.1053
▁consumption	-12.1053
▁diameter	-12.1053
▁dilemma	-12.1053
▁domestic	-12.1053
▁dunnage	-12.1053
▁dysentery	-12.1053
▁educated	-12.1053
▁flourish	-12.1053
▁holiday	-12.1053
▁inadequate	-12.1053
▁innocence	-12.1053
▁kosher	-12.1053
▁literature	-12.1053
▁manufacture	-12.1053
▁melodious	-12.1053
▁necklace	-12.1053
▁nephew	-12.1053
▁nuisance	-12.1053
▁overjoyed	-12.1053
▁platform	-12.1053
▁prestige	-12.1053
▁profanity	-12.1053
▁rattling	-12.1053
▁reluctan	-12.1053
▁restaurants	-12.1053
▁revenue	-12.1053
▁ruthless	-12.1053
▁scientist	-12.1053
▁scrupulously	-12.1053
▁sermon	-12.1053
▁simplicity	-12.1053
▁suspended	-12.1053
▁telegram	-12.1053
▁tobacco	-12.1053
▁tournament	-12.1053
▁tunnel	-12.1053
▁vacant	-12.1053
▁vacuum	-12.1053
▁veteran	-12.1053
▁violate	-12.1053
▁wilderness	-12.1053
▁womenfolk	-12.1053
RandomForest	-12.1053
insurance	-12.1053
ottingham	-12.1053
▁ATTACK	-12.1053
▁Abacus	-12.1053
▁CELEBRATION	-12.1053
▁GCP	-12.1053
▁LEBOMBO	-12.1053
▁MURDER	-12.1053
▁Potgier	-12.1053
▁Stevie	-12.1053
▁Terrible	-12.1053
▁bloodthirst	-12.1053
▁brillian	-12.1053
▁eccentric	-12.1053
▁foreboding	-12.1053
▁humbug	-12.1053
▁irregular	-12.1053
▁psycholog	-12.1053
▁recuperati	-12.1053
MexicoCity	-12.1053
Toronto	-12.1053
Variant	-12.1053
▁AGREE	-12.1053
▁Channel	-12.1053
▁Dominion	-12.1053
▁Quinlan	-12.1053
▁Scoring	-12.1053
▁charcoal	-12.1053
▁intellectual	-12.1053
▁mistress	-12.1053
▁monarch	-12.1053
▁rebellion	-12.1053
▁reputation	-12.1053
Guilty	-12.1053
▁Dublin	-12.1053
▁Plaza	-12.1053
▁appointment	-12.1053
▁farewell	-12.1053
▁isolation	-12.1053
▁meditation	-12.1053
▁whistling	-12.1053
Double	-12.1053
Histogram	-12.1053
NewYork	-12.1053
gotchas	-12.1053
▁Clocks	-12.1053
▁HasMethods	-12.1053
▁JAX	-12.1053
▁LOCHIEN	-12.1053
▁TRANS	-12.1053
▁extension	-12.1053
▁sterling	-12.1053
▁suprem	-12.1053
||_{2	-12.1053
▁Twain	-12.1053
▁supernatural	-12.1053
▁Iverson	-12.1053
▁Mechanics	-12.1053
▁kidney	-12.1053
▁slicing	-12.1053
Pursuit	-12.1053
▁heapsort	-12.1053
Morris	-12.1053
ekulo	-12.1053
▁Pruning	-12.1053
▁Scotland	-12.1053
▁Sumney	-12.1053
▁cloak	-12.1053
▁occurrence	-12.1053
▁vibrations	-12.1053
▁Niles	-12.1053
▁accumulate	-12.1053
▁berries	-12.1053
▁coffin	-12.1053
▁dominant	-12.1053
▁overseas	-12.1053
Source	-12.1053
▁seventeen	-12.1053
▁thrust	-12.1053
▁afford	-12.1053
▁cigar	-12.1053
hastie	-12.1053
▁Wilson	-12.1053
▁Britain	-12.1053
▁Target	-12.1053
▁Title	-12.1053
▁poison	-12.1053
▁Cambridge	-12.1053
▁expensive	-12.1053
▁spiral	-12.1053
▁ultimatum	-12.1053
▁neural	-12.1053
▁prospect	-12.1053
▁1.0]`	-12.1053
▁FIELD	-12.1053
▁Nepal	-12.1053
Boston	-12.1053
▁gruff	-12.1053
▁pellets	-12.1053
▁Japanese	-12.1053
▁dissatisfied	-12.1053
▁Gorge	-12.1053
▁Bengal	-12.1053
▁Interior	-12.1053
("1/1/20	-12.1053
arima	-12.1053
▁foregoing	-12.1053
▁Palace	-12.1053
▁Consensus	-12.1053
▁optimum	-12.1053
+00+	-12.1053
▁boiling	-12.1053
▁Organization	-12.1053
▁trappings	-12.1053
▁deviltry	-12.1053
▁exploration	-12.1053
▁French	-12.1053
▁Overview	-12.1053
▁betray	-12.1053
▁INFORMATION	-12.1053
TUNGA	-12.1053
▁provision	-12.1053
▁View	-12.1053
▁Middle	-12.1053
▁entries	-12.1054
▁resistance	-12.1054
▁Francis	-12.1054
▁echo	-12.1054
▁Levin	-12.1054
▁southeast	-12.1054
Salmon	-12.1054
▁disease	-12.1054
▁vanish	-12.1054
▁identifier	-12.1054
▁gleam	-12.1054
▁ownership	-12.1054
▁maximiz	-12.1054
▁prayers	-12.1054
▁expectancy	-12.1054
Farr	-12.1054
▁dependency	-12.1054
▁mixture	-12.1054
▁resource	-12.1054
▁salutation	-12.1054
▁Dawid	-12.1054
▁defective	-12.1054
▁spatial	-12.1054
▁Otherwise	-12.1054
▁Skunk	-12.1054
▁caution	-12.1054
▁straightened	-12.1054
▁announcement	-12.1054
HalfSquaredError	-12.1054
▁industry	-12.1054
▁biology	-12.1054
surmount	-12.1054
▁House	-12.1054
▁cousin	-12.1054
▁Chron	-12.1054
▁Lawson	-12.1054
▁absent	-12.1054
▁Ever	-12.1054
▁millenni	-12.1054
▁seasonality	-12.1054
▁transact	-12.1054
▁yelled	-12.1054
▁Hubble	-12.1054
▁Full	-12.1054
colname	-12.1054
▁Jerry	-12.1054
ULE	-12.1054
MLF	-12.1054
▁heartily	-12.1054
▁athlet	-12.1054
▁sanction	-12.1054
▁Bild	-12.1054
▁Christian	-12.1055
▁scoff	-12.1055
▁settlers	-12.1055
▁permitting	-12.1055
▁dismissal	-12.1055
Spiel	-12.1055
▁cargo	-12.1055
▁management	-12.1055
mazon	-12.1055
▁HOME	-12.1055
▁melee	-12.1055
▁analysis	-12.1055
▁impelled	-12.1055
▁barrenness	-12.1055
▁panic	-12.1055
Marshall	-12.1055
rrent	-12.1055
▁imposed	-12.1055
▁skirt	-12.1055
▁continually	-12.1055
▁Kingdom	-12.1055
▁naturalised	-12.1056
mutation	-12.1056
Shark	-12.1056
▁expectant	-12.1056
▁deletion	-12.1056
▁correlation	-12.1056
Holland	-12.1056
▁leather	-12.1056
timeseries	-12.1056
▁evasive	-12.1056
▁Mattel	-12.1056
▁witness	-12.1056
▁Wood	-12.1056
▁unborn	-12.1056
▁chose	-12.1056
▁descendant	-12.1056
▁urged	-12.1056
▁friendship	-12.1056
▁gracious	-12.1056
▁Binary	-12.1056
▁Dari	-12.1057
▁seventy	-12.1057
▁rude	-12.1057
▁session	-12.1057
▁Tropic	-12.1057
▁murderous	-12.1057
▁affection	-12.1057
▁skill	-12.1057
▁electrostatic	-12.1057
▁butcher	-12.1057
▁derivation	-12.1057
▁refusal	-12.1057
cookbook	-12.1057
Mar	-12.1057
Greedy	-12.1057
▁swimming	-12.1057
▁forfeited	-12.1058
burger	-12.1058
▁prevailing	-12.1058
▁outcast	-12.1058
▁administration	-12.1058
▁sank	-12.1058
▁diagonal	-12.1058
Islam	-12.1058
▁acceptance	-12.1058
▁mood	-12.1058
▁repeating	-12.1058
▁2016)	-12.1058
▁ruling	-12.1058
▁Johannesburgers	-12.1058
▁limb	-12.1059
▁accurately	-12.1059
▁personality	-12.1059
▁kingdom	-12.1059
▁appreciabl	-12.1059
▁elegan	-12.1059
▁HER	-12.1059
▁television	-12.1059
▁bewitched	-12.1059
▁promoting	-12.1059
:/{	-12.1059
▁THRO	-12.106
▁Adolf	-12.106
UFF	-12.106
▁Corr	-12.106
▁angered	-12.106
▁EXP	-12.106
▁strangers	-12.1061
gricultur	-12.1061
▁offended	-12.1061
emote	-12.1061
▁freighter	-12.1061
▁guilt	-12.1061
▁Signature	-12.1061
Pois	-12.1061
▁Nikolay	-12.1061
▁elder	-12.1062
▁exceed	-12.1062
▁noticeable	-12.1062
▁shortened	-12.1062
conj	-12.1062
▁Filter	-12.1062
▁Block	-12.1062
▁affectionately	-12.1062
▁mph	-12.1062
▁Port	-12.1062
▁utilizing	-12.1063
▁nick	-12.1063
▁sensation	-12.1063
▁mali	-12.1063
▁1844.	-12.1063
▁heaven	-12.1063
▁incidental	-12.1064
▁provoke	-12.1064
▁knots	-12.1064
permutation	-12.1064
▁lowest	-12.1064
:`0`	-12.1064
▁enjoyable	-12.1064
▁BEC	-12.1064
▁invoke	-12.1064
ffill	-12.1065
▁exclude	-12.1065
▁biased	-12.1065
contact	-12.1065
▁discarded	-12.1066
:`(	-12.1066
▁(9)	-12.1066
▁apples	-12.1066
▁starved	-12.1066
GLM	-12.1066
▁murmuring	-12.1066
▁dividing	-12.1066
▁plantation	-12.1066
▁royalties	-12.1066
multimethod	-12.1066
▁entertaining	-12.1066
▁crystal	-12.1066
▁thrill	-12.1066
▁handsome	-12.1067
▁invasive	-12.1067
▁dual	-12.1067
▁Santos	-12.1067
▁administrati	-12.1067
▁biscuits	-12.1068
▁peacocks	-12.1068
▁diamonds	-12.1068
▁profiles	-12.1068
▁Natal	-12.1068
▁disclaimer	-12.1068
lisk	-12.1068
interpolation	-12.1068
▁translated	-12.107
▁partially	-12.107
▁XXII	-12.107
Vienna	-12.107
▁claws	-12.1071
propri	-12.1071
▁rubbing	-12.1072
▁cricket	-12.1072
▁painted	-12.1072
▁hunter	-12.1072
▁safest	-12.1072
▁cutting	-12.1072
▁trajectory	-12.1072
sw	-12.1072
▁compil	-12.1073
▁deviate	-12.1073
▁referencing	-12.1073
▁bomb	-12.1073
▁impressively	-12.1073
▁laughed	-12.1073
ugal	-12.1073
▁disgusted	-12.1073
▁launched	-12.1073
▁dreaded	-12.1074
SHIP	-12.1074
▁invariant	-12.1074
localize	-12.1074
RidgeCV	-12.1074
▁displayed	-12.1074
BayesianRidge	-12.1075
▁1916	-12.1075
▁ticks	-12.1075
▁internally	-12.1075
▁storms	-12.1076
▁dreadful	-12.1076
▁modify	-12.1077
▁presentation	-12.1077
▁stirred	-12.1077
▁solemnly	-12.1077
▁herbs	-12.1078
▁grp	-12.1078
gram	-12.1078
▁preference	-12.1078
▁[1.	-12.1078
luff	-12.1079
▁surf	-12.1079
▁fans	-12.1079
▁laugh	-12.1079
▁motionless	-12.1079
binomial	-12.108
▁studied	-12.108
uckle	-12.108
▁pill	-12.108
▁00:0	-12.1081
▁differential	-12.1081
▁commented	-12.1081
▁scant	-12.1081
_1^2	-12.1081
▁weaker	-12.1083
yon	-12.1083
rammer	-12.1083
▁accompanying	-12.1083
▁pickle	-12.1084
▁bail	-12.1084
dolf	-12.1084
Finite	-12.1084
▁cheering	-12.1084
▁anticipat	-12.1084
▁achievement	-12.1084
▁pointers	-12.1084
▁binarized	-12.1085
▁induce	-12.1085
STRATION	-12.1085
▁smallness	-12.1085
▁internal	-12.1085
▁connecting	-12.1085
▁Scheme	-12.1086
Tensor	-12.1086
▁33	-12.1087
enhancing	-12.1087
▁runner	-12.1088
aged	-12.1088
▁elev	-12.1089
▁Flat	-12.1089
▁arrested	-12.1089
▁destroyed	-12.109
▁80	-12.109
▁renamed	-12.109
Sieg	-12.109
▁photographed	-12.109
▁influen	-12.1091
NLP	-12.1091
▁manipulation	-12.1091
▁sorr	-12.1091
▁Virg	-12.1092
▁colours	-12.1092
▁disturbing	-12.1092
▁bosons	-12.1092
▁porters	-12.1092
▁niggers	-12.1092
detach	-12.1092
▁comma	-12.1092
arbor	-12.1093
▁assembled	-12.1093
▁arranging	-12.1094
▁emerged	-12.1094
▁creep	-12.1094
▁``1/	-12.1094
Plain	-12.1096
▁reassure	-12.1096
ylor	-12.1096
▁proving	-12.1096
ayesian	-12.1097
▁driver	-12.1097
▁astound	-12.1097
finiteness	-12.1098
▁pound	-12.1098
▁zone	-12.1098
-1}	-12.1098
▁flight	-12.1098
▁cruci	-12.1098
▁liberal	-12.1099
▁crushed	-12.1099
▁silently	-12.1099
▁Multipl	-12.11
cture	-12.11
udience	-12.11
▁stronger	-12.11
▁rolls	-12.11
▁lacking	-12.11
Splitting	-12.11
▁Case	-12.11
Matching	-12.11
▁plent	-12.1101
▁invest	-12.1101
=={	-12.1102
▁occupie	-12.1102
▁concerts	-12.1102
▁launch	-12.1103
▁speedy	-12.1103
ctic	-12.1104
▁relied	-12.1104
IFE	-12.1104
MX	-12.1105
▁span	-12.1105
ahib	-12.1105
eye	-12.1106
▁pickled	-12.1107
cosmological	-12.1107
▁seriously	-12.1107
▁governed	-12.1109
▁dread	-12.1109
▁symbols	-12.1109
▁Mara	-12.111
▁quietly	-12.111
Arabic	-12.1111
▁Past	-12.1111
Jass	-12.1111
▁regulation	-12.1111
▁generalised	-12.1111
▁visible	-12.1112
REACH	-12.1112
▁barr	-12.1114
▁gods	-12.1115
Jeff	-12.1115
")["	-12.1115
▁Mathematical	-12.1115
▁mini	-12.1116
▁wit	-12.1116
▁schedule	-12.1116
bash	-12.1116
▁symmetrical	-12.1116
▁rotates	-12.1116
▁flock	-12.1117
▁drugs	-12.1118
▁scenarios	-12.1118
▁vehicles	-12.1118
▁diagonals	-12.1118
▁passwords	-12.1118
▁outcomes	-12.1119
▁disappears	-12.112
▁(11)	-12.112
▁tuning	-12.1121
▁false	-12.1121
▁illustrated	-12.1122
ergeant	-12.1122
▁prel	-12.1122
▁induction	-12.1123
▁scales	-12.1124
▁1993.	-12.1124
▁89.	-12.1124
▁NATO	-12.1124
▁WOMEN	-12.1124
▁RECORD	-12.1124
▁Until	-12.1125
▁asymptotic	-12.1125
▁Beijing	-12.1125
▁Parquet	-12.1125
▁MBABANE	-12.1125
▁stimulus	-12.1125
▁[13]	-12.1125
▁frighten	-12.1125
▁Paradela	-12.1125
▁Stalingrad	-12.1125
▁harness	-12.1125
▁LGBMClassifier	-12.1125
cow	-12.1126
▁[11]	-12.1126
▁household	-12.1126
▁Aggregation	-12.1126
▁scientific	-12.1126
▁Fair	-12.1127
▁necessity	-12.1127
▁Shah	-12.1127
ja	-12.1128
▁justice	-12.1128
Files	-12.1128
Whole	-12.1128
▁micro	-12.1129
▁Filtration	-12.1129
erms	-12.1129
▁terror	-12.113
▁computers	-12.113
▁restore	-12.113
=1.0,	-12.113
▁[10]	-12.113
▁filtered	-12.1131
▁129	-12.1131
▁tins	-12.1131
Gin	-12.1132
Optionally	-12.1133
▁relax	-12.1133
:>16	-12.1133
prostate	-12.1134
electrodynamical	-12.1134
▁recede	-12.1135
cpu	-12.1135
▁conformabl	-12.1137
▁robotic	-12.1137
▁readable	-12.1138
▁restrictions	-12.1139
▁[9]	-12.114
▁missed	-12.114
▁computer	-12.1141
▁influencer	-12.1141
▁accomplishment	-12.1141
▁phil	-12.1142
▁Ap	-12.1142
▁workflows	-12.1143
▁secured	-12.1144
▁Last	-12.1144
▁evolution	-12.1145
▁proudly	-12.1145
counts	-12.1145
▁approaches	-12.1145
▁offering	-12.1147
▁Young	-12.1147
▁kw	-12.1147
▁1969	-12.1147
▁endpoints	-12.1148
=10,	-12.1148
▁continua	-12.1148
▁cleaning	-12.115
▁Dataset	-12.115
TURE	-12.1151
▁wildly	-12.1151
NAME	-12.1152
▁reaction	-12.1152
▁realised	-12.1152
orry	-12.1153
▁neat	-12.1153
ULL	-12.1153
DIR	-12.1153
ACT	-12.1155
▁improved	-12.1156
▁majest	-12.1156
▁Mars	-12.1157
Shift	-12.1158
▁lax	-12.1158
▁expense	-12.116
▁unity	-12.116
▁[7]	-12.1161
▁requested	-12.1162
▁coats	-12.1163
▁Milk	-12.1163
▁groupers	-12.1163
▁Yank	-12.1163
▁theatrical	-12.1163
▁callable	-12.1165
AU	-12.1165
▁ctx	-12.1165
▁fingers	-12.1166
▁economics	-12.1166
▁plunge	-12.1166
ogue	-12.1167
nitialize	-12.1168
▁query	-12.1168
▁bread	-12.1168
▁deviations	-12.1169
▁networks	-12.1169
▁bulg	-12.117
▁sources	-12.117
▁possessions	-12.1171
ommunity	-12.1171
▁arena	-12.1172
alculate	-12.1172
▁Feature	-12.1172
▁persuasi	-12.1173
//	-12.1173
hastened	-12.1174
▁mats	-12.1175
▁WHI	-12.1175
▁roast	-12.1175
▁flag	-12.1175
ndim	-12.1176
▁decoded	-12.1176
▁concert	-12.1177
1899	-12.1177
omati	-12.1178
▁actor	-12.1181
▁hides	-12.1182
▁sticks	-12.1184
Maro	-12.1187
▁searched	-12.1187
▁thorns	-12.1188
▁UK	-12.1189
▁belt	-12.1191
▁Australian	-12.1193
Are	-12.1195
▁investigations	-12.1195
▁greetings	-12.1195
▁dataframes	-12.1195
▁keywords	-12.1195
▁Translat	-12.1196
▁Germans	-12.1198
▁managers	-12.1199
Bot	-12.1199
▁quarters	-12.1201
▁generalized	-12.1201
-----------+	-12.1201
▁Unit	-12.1203
Rge	-12.1203
▁tag	-12.1203
▁(12)	-12.1204
▁gasp	-12.1206
ques	-12.1208
▁Extra	-12.1209
gnific	-12.121
▁damaged	-12.121
▁cele	-12.1211
▁Whe	-12.1214
▁evaluated	-12.1217
eff	-12.1217
▁Centr	-12.1219
alrus	-12.1219
▁Leon	-12.1219
ortunate	-12.122
▁revolvers	-12.1221
▁Indians	-12.1222
LLS	-12.1222
▁doubled	-12.1226
▁pairs	-12.1226
▁incomplete	-12.1227
▁conscious	-12.1227
▁Mid	-12.1228
>0.15	-12.1228
tor	-12.1236
▁palace	-12.1237
▁Pandora	-12.1238
▁TRI	-12.1238
▁rounded	-12.1239
▁Mode	-12.124
▁rais	-12.124
▁dollar	-12.1242
▁attacking	-12.1244
▁savings	-12.1244
saur	-12.1245
umps	-12.1245
Gr	-12.1245
1996.	-12.1245
▁Rcxc	-12.1247
▁resist	-12.1249
▁threatening	-12.1252
▁slee	-12.1252
▁heated	-12.1252
▁community	-12.1255
rairie	-12.1257
▁boost	-12.1257
creation	-12.1258
▁crowded	-12.126
▁expectation	-12.126
▁loan	-12.126
▁sins	-12.1262
▁bunk	-12.1262
▁international	-12.1262
▁IDs	-12.1264
▁issparse	-12.1265
▁rubb	-12.1269
▁commanded	-12.127
▁Journ	-12.1275
▁eps	-12.1276
▁1.0)`	-12.1276
▁bags	-12.1277
Angle	-12.1277
spect	-12.1278
▁render	-12.1278
OCKS	-12.1278
▁waves	-12.128
devil	-12.128
▁Ell	-12.128
etting	-12.1282
▁potte	-12.1285
ij	-12.1286
▁runtime	-12.1288
▁scaled	-12.1289
▁fer	-12.129
▁subtree	-12.1292
▁Ge	-12.1292
▁grouper	-12.1296
rising	-12.1296
020	-12.1296
Out	-12.1297
▁fruits	-12.1298
traction	-12.13
▁Max	-12.1302
▁bombs	-12.1303
▁Relativ	-12.1305
illy	-12.1307
▁Russia	-12.1307
front	-12.1308
▁electrons	-12.1308
putable	-12.1308
▁"{	-12.1308
▁Make	-12.1312
sharing	-12.1313
▁yourself	-12.1314
▁JM	-12.1315
▁honored	-12.1316
▁designated	-12.1317
▁ensures	-12.1319
located	-12.132
>[	-12.1321
nals	-12.1323
▁generalize	-12.1325
▁costumes	-12.1325
▁packages	-12.1327
▁BATH	-12.1329
▁paint	-12.133
mmer	-12.133
ndemn	-12.133
▁herd	-12.1331
▁yours	-12.1333
▁wise	-12.1333
dom	-12.1333
▁Direct	-12.1336
▁Few	-12.1336
▁--	-12.1337
SM	-12.134
utc	-12.1343
▁moons	-12.1348
▁holes	-12.1353
▁gender	-12.1353
▁SUGDEN	-12.1353
▁Indunas	-12.1357
▁Update	-12.1358
mly	-12.1358
▁funa	-12.1358
▁grows	-12.1363
▁[3]	-12.1365
▁Geometr	-12.1365
0,000	-12.1365
▁viewing	-12.1366
AI	-12.1366
▁stat	-12.1368
ikha	-12.1388
▁diminishe	-12.1388
▁units	-12.139
0`	-12.1395
▁stunn	-12.1397
▁anti	-12.1398
▁[12]	-12.1403
outputs	-12.1404
▁INT	-12.1406
vertical	-12.1411
▁lessen	-12.1412
▁Type	-12.1418
2</	-12.142
ram	-12.1421
mlr	-12.1422
▁reduc	-12.1422
OVER	-12.1425
▁tooth	-12.1428
▁radial	-12.1429
targets	-12.143
▁Cro	-12.1432
siege	-12.1435
▁120	-12.1447
cated	-12.1447
▁priors	-12.1449
▁loop	-12.145
▁explode	-12.1455
▁Daw	-12.1455
▁Disc	-12.1456
ishes	-12.1462
Combining	-12.1462
ryce	-12.1464
▁pal	-12.1464
11	-12.1468
Adam	-12.1468
_))	-12.1469
--+-------------	-12.147
Din	-12.1472
▁(19	-12.1472
dressing	-12.1472
kin	-12.1473
▁borders	-12.1478
▁Plu	-12.1479
▁park	-12.1481
▁observ	-12.1482
▁mos	-12.1483
▁champion	-12.1484
covid	-12.1487
Point	-12.1489
(10	-12.149
▁enhance	-12.1492
▁barb	-12.1495
leftover	-12.1496
▁debate	-12.1497
▁Ro	-12.1497
.</	-12.1498
:`2(	-12.1498
▁2000	-12.15
▁cube	-12.1503
▁devils	-12.1503
determination	-12.1505
▁5]	-12.1508
▁Dicksons	-12.1508
▁structures	-12.1509
▁hostilit	-12.1509
▁ascending	-12.1511
▁covet	-12.1512
aron	-12.1514
===========	-12.1532
IED	-12.1533
▁endure	-12.1535
pplying	-12.1535
▁securit	-12.1539
emons	-12.1542
weighted	-12.1542
▁SEND	-12.1545
▁ear	-12.1547
▁intens	-12.1547
▁uncles	-12.1548
▁sack	-12.1549
▁MLmodel	-12.1549
▁Sort	-12.1551
▁causes	-12.1553
Pain	-12.1554
▁Ob	-12.1555
▁stones	-12.1556
lped	-12.1559
▁Andro	-12.156
▁irfftn	-12.1561
initialized	-12.1561
▁Where	-12.1562
sk	-12.1562
onsequently	-12.1566
▁parent	-12.1566
▁tents	-12.1567
▁reliabl	-12.1568
??	-12.157
+\	-12.1575
▁Basic	-12.1577
▁symmetric	-12.1579
rapped	-12.1579
urning	-12.1582
}}`	-12.1587
▁twinkle	-12.1587
▁Mac	-12.1587
ssary	-12.1589
▁disast	-12.159
transforms	-12.1591
▁awards	-12.1592
▁satisfie	-12.1593
tatsmodels	-12.1598
note	-12.1598
▁Fro	-12.1611
▁1}	-12.1613
▁solutions	-12.1614
▁choices	-12.1614
lassical	-12.1615
requiring	-12.1616
▁mere	-12.1617
▁window	-12.1618
▁embar	-12.162
cker	-12.1621
▁settings	-12.1629
▁Ze	-12.1637
▁anxi	-12.1639
Rdxe	-12.1639
camp	-12.1641
cify	-12.1641
registering	-12.1643
▁Sample	-12.1644
▁Este	-12.1645
▁technic	-12.1649
▁ihfftn	-12.1651
hine	-12.1653
tr	-12.1653
▁pipeline	-12.1653
▁Doll	-12.1657
notebooks	-12.1658
uart	-12.1658
flung	-12.1659
▁gaze	-12.166
▁--------	-12.166
============	-12.1662
▁standardize	-12.1663
▁visual	-12.1663
▁hearts	-12.1668
▁Pand	-12.1676
:**	-12.1684
▁questioning	-12.1696
Can	-12.1697
▁struc	-12.1698
▁dancer	-12.1699
ots	-12.1699
▁enable	-12.1712
▁databricks	-12.1713
may	-12.1715
▁stops	-12.1715
Tex	-12.1717
▁villages	-12.172
Spars	-12.1722
▁metric	-12.1723
▁plans	-12.1723
home	-12.1724
([0.5	-12.1726
▁li	-12.1727
ka	-12.1736
-\	-12.174
▁glanc	-12.174
▁forming	-12.1743
ipped	-12.1744
"])]	-12.1745
ace	-12.1746
dape	-12.1746
▁sla	-12.1748
▁favorabl	-12.1748
▁users	-12.1749
▁oppose	-12.1749
▁Step	-12.1755
nder	-12.1756
▁foundation	-12.1757
▁plead	-12.1774
1929	-12.1775
luck	-12.1776
▁sa	-12.1778
ften	-12.1779
put	-12.1781
ip	-12.1783
PV	-12.1797
▁sin	-12.1798
ehind	-12.1801
▁Well	-12.1802
ucher	-12.1805
▁wor	-12.1805
port	-12.1809
▁Raj	-12.1809
tin	-12.1823
mpelled	-12.1824
▁induct	-12.1826
../	-12.183
▁coat	-12.1837
▁lied	-12.184
ak	-12.1847
MENTA	-12.1848
__	-12.1853
▁7,	-12.1855
=0.5)	-12.1858
▁withdraw	-12.187
▁Xw	-12.1874
(4)	-12.1882
retard	-12.1883
17.	-12.1893
▁deriv	-12.1899
LM	-12.1901
jub	-12.1902
▁feelings	-12.191
▁Distribut	-12.1913
~~~~~~~~~~~~~	-12.1915
▁77	-12.1926
sion	-12.193
911	-12.1939
▁Pen	-12.1946
▁2001.	-12.1949
▁MultiIndex	-12.1953
Content	-12.1955
▁ordering	-12.1956
▁kick	-12.1958
▁captains	-12.1962
▁checks	-12.1965
▁Find	-12.1969
OR	-12.1974
ium	-12.1974
▁pot	-12.1977
▁epochs	-12.1979
"`,	-12.1981
Comm	-12.1989
▁Pass	-12.1989
ff	-12.199
:`[	-12.1992
▁)	-12.1995
arned	-12.1995
lying	-12.1995
*,	-12.1997
stats	-12.1998
ocker	-12.2005
▁considerabl	-12.2006
▁(3)	-12.2008
ited	-12.2015
▁News	-12.2015
▁signatures	-12.2016
AME	-12.2024
▁"190	-12.2024
▁waters	-12.2029
▁Sw	-12.2036
uis	-12.2039
▁Separate	-12.2041
▁praise	-12.2051
▁occupa	-12.2052
▁plum	-12.2052
▁ranged	-12.2062
▁rat	-12.2063
▁reuse	-12.2065
▁challenge	-12.2065
▁bushe	-12.2068
▁100.	-12.2069
▁magnetic	-12.2076
core	-12.2082
"`.	-12.2085
▁kid	-12.2086
ho	-12.2088
▁365	-12.2088
aseline	-12.2094
cite	-12.2096
▁stands	-12.2103
replacer	-12.2105
▁fail	-12.2112
▁indexing	-12.2124
▁pen	-12.2125
▁optim	-12.2132
.25)	-12.2141
▁Non	-12.2145
tropic	-12.2145
▁bac	-12.2152
2`	-12.2153
zing	-12.216
▁referr	-12.2162
▁gun	-12.2163
CK	-12.2164
▁song	-12.2173
:/	-12.2181
▁DE	-12.2182
▁ban	-12.2184
▁DataFrames	-12.2189
▁backward	-12.2194
▁remed	-12.2197
RING	-12.2198
▁regal	-12.2204
▁scale	-12.2207
mato	-12.2208
)``,	-12.2217
".	-12.222
▁Ki	-12.2228
▁scratch	-12.2229
acts	-12.2237
▁bade	-12.226
od	-12.2271
:2]	-12.2279
current	-12.2286
▁Me	-12.2287
ewis	-12.2289
quill	-12.2292
MOS	-12.2296
▁singles	-12.2299
\"\	-12.2302
▁Boy	-12.2307
eep	-12.232
ROS	-12.2325
▁kwargs	-12.2327
▁92	-12.2338
2009)	-12.2347
Go	-12.2355
using	-12.2365
tory	-12.2368
▁14	-12.2368
▁Rdf	-12.237
▁ru	-12.2371
▁formats	-12.2375
(("	-12.2379
▁mix	-12.2381
block	-12.2382
olumes	-12.2383
Nac	-12.2394
▁bas	-12.2397
SU	-12.2398
▁goat	-12.2411
AVES	-12.2412
▁Juli	-12.2412
[{"	-12.2412
32``	-12.2413
▁fights	-12.2417
▁rely	-12.2421
▁consol	-12.2424
▁systematic	-12.2425
▁forwards	-12.2428
cm	-12.2432
iously	-12.2433
▁hook	-12.2438
rowned	-12.244
▁spell	-12.2441
▁predicts	-12.2444
owe	-12.2446
{{	-12.2452
hell	-12.2452
▁assum	-12.2455
mage	-12.2455
:3]	-12.2458
ety	-12.2459
sim	-12.2463
▁prop	-12.2464
▁exc	-12.2465
▁tone	-12.249
olit	-12.2493
"`	-12.2525
▁Current	-12.2526
Named	-12.2527
flow	-12.2535
▁"\"	-12.2537
mail	-12.2544
▁sho	-12.2548
Sic	-12.2551
▁json	-12.2551
▁--------------	-12.2555
tries	-12.2556
▁pil	-12.2561
▁Ji	-12.2566
▁Mono	-12.2569
odule	-12.2582
venge	-12.2586
▁q	-12.2587
dz	-12.2592
);	-12.2596
shi	-12.2613
▁pred	-12.2618
zi	-12.2619
▁obs	-12.2623
jumps	-12.2623
owls	-12.2627
Ver	-12.2633
Mo	-12.2634
MA	-12.2635
▁poo	-12.2646
▁nav	-12.2647
▁survive	-12.265
▁qui	-12.2651
▁cord	-12.2656
ses	-12.2658
▁15,	-12.2666
ailing	-12.2666
▁stem	-12.2684
ander	-12.2687
▁csv	-12.2691
▁(11	-12.2701
loving	-12.2702
esignation	-12.2713
ogged	-12.2714
▁decree	-12.272
art	-12.272
▁0.]]	-12.2722
sampling	-12.2729
she	-12.2731
▁cur	-12.2732
OWL	-12.2751
oz	-12.2757
nL	-12.2758
ese	-12.276
so	-12.276
numer	-12.2761
der	-12.2765
enc	-12.2768
▁realiz	-12.2774
▁Far	-12.2782
ading	-12.2786
▁[[1	-12.2794
▁architecture	-12.2799
▁Neg	-12.2799
BLA	-12.2808
▁deaths	-12.2822
oo	-12.283
tain	-12.2836
▁15	-12.2842
▁blus	-12.2848
}.	-12.2862
ided	-12.2877
▁arous	-12.2886
andy	-12.2895
isin	-12.2911
ping	-12.2913
▁constitut	-12.2913
mic	-12.2917
iking	-12.2924
antry	-12.2932
als	-12.2943
ana	-12.2957
owed	-12.2964
ological	-12.2974
icycl	-12.2975
)]	-12.2994
▁Jo	-12.3018
opped	-12.3026
lock	-12.3032
auf	-12.3032
▁1965	-12.3044
▁rag	-12.3046
SI	-12.3056
ving	-12.3062
pine	-12.3066
grove	-12.3083
enchi	-12.3096
▁fftn	-12.3104
▁POS	-12.3106
409	-12.3113
ves	-12.3121
attle	-12.3127
Se	-12.3127
5,	-12.3131
ved	-12.3133
▁.01	-12.3137
▁sav	-12.3144
rom	-12.3155
▁dull	-12.3157
▁activ	-12.3158
TreeClassifier	-12.3162
aris	-12.3166
▁empire	-12.3166
▁Gr	-12.3175
▁2015.	-12.3177
▁Los	-12.3183
elow	-12.3184
▁trac	-12.3196
▁simplif	-12.3199
▁har	-12.3205
▁assent	-12.3205
ement	-12.3206
iers	-12.321
▁Hal	-12.3216
eading	-12.3219
▁Gau	-12.324
▁wake	-12.3242
mal	-12.3243
>",	-12.3283
▁2021	-12.3296
ere	-12.3305
arried	-12.332
his	-12.3326
MER	-12.3338
Michels	-12.3345
▁acknowledg	-12.3345
▁2021.	-12.3347
"..."	-12.3367
OFF	-12.3381
▁`--	-12.3384
▁Numb	-12.339
mia	-12.3391
relationships	-12.3395
augh	-12.3405
gets	-12.3423
▁(201	-12.3433
60	-12.3435
▁[[	-12.3438
informative	-12.3445
ient	-12.3446
ko	-12.3452
anna	-12.3454
jit	-12.3454
5,000	-12.3458
2]	-12.3465
▁demonstrat	-12.3473
wan	-12.3473
▁speedrun	-12.35
▁suppos	-12.3507
▁gl	-12.3513
cut	-12.352
▁ri	-12.3539
etween	-12.3549
ically	-12.3553
ense	-12.3557
nom	-12.3562
mas	-12.3564
▁fa	-12.3565
Rbf	-12.3567
{}	-12.3573
▁DIE	-12.3575
mental	-12.3583
sangu	-12.3594
RI	-12.3597
▁...>	-12.3606
pid	-12.3607
▁gall	-12.3609
▁189	-12.3615
oci	-12.3617
08	-12.3617
▁Chan	-12.3621
SSI	-12.3625
▁trot	-12.363
▁Kings	-12.3631
▁illuminat	-12.364
▁hydro	-12.3641
▁Mar	-12.3647
ceil	-12.3648
50)	-12.3681
/...	-12.3683
uck	-12.3684
▁awar	-12.3688
▁~~~~~~~	-12.3696
▁cal	-12.3705
ught	-12.3711
top	-12.3714
ifying	-12.3715
▁pla	-12.372
Rdg	-12.3725
ished	-12.3729
stial	-12.3736
answering	-12.3746
(1-	-12.3758
ilan	-12.3758
▁cm	-12.3759
▁95	-12.3763
sci	-12.3763
▁operat	-12.3766
▁inform	-12.3774
LAB	-12.3785
▁hop	-12.3807
▁abid	-12.382
uk	-12.3826
heckpoints	-12.3826
▁2015	-12.3846
Ber	-12.3856
▁commit	-12.3856
tri	-12.3864
▁cake	-12.3886
▁Classifier	-12.3887
▁Nac	-12.3891
▁wh	-12.3892
32.	-12.3901
shed	-12.3905
▁vs	-12.3907
fun	-12.3912
▁Standi	-12.3914
▁[6]	-12.3922
▁hobb	-12.3928
Rce	-12.3941
▁2001	-12.3969
De	-12.3984
▁und	-12.3987
bringing	-12.3989
ast	-12.3989
▁circ	-12.3996
mple	-12.3999
14	-12.4007
ta	-12.4018
anche	-12.4023
▁recurr	-12.4024
▁-----	-12.4024
▁Gre	-12.4027
▁Ncd	-12.4029
==========	-12.4031
▁Tre	-12.4049
ending	-12.4053
▁splitt	-12.4064
ginal	-12.4077
▁je	-12.4084
▁WH	-12.4084
rifying	-12.4085
ade	-12.409
Mori	-12.4095
UIT	-12.4098
ALLE	-12.4105
VAL	-12.4144
▁Probab	-12.4144
fu	-12.415
dded	-12.4152
▁dive	-12.4158
caf	-12.4165
▁AL	-12.4171
UDFs	-12.4174
RSU	-12.4181
▁passenger	-12.4181
tim	-12.4185
2022-	-12.4196
ou	-12.4213
▁Rbb	-12.4227
'])	-12.424
rely	-12.4244
▁Fla	-12.425
ames	-12.4268
▁Choos	-12.4269
pher	-12.4285
▁cala	-12.4294
}}^2	-12.4305
▁val	-12.4305
rying	-12.4311
ras	-12.4311
▁Pri	-12.4317
yan	-12.4323
2.0	-12.4333
▁Sing	-12.4336
10.	-12.4338
stacks	-12.4348
Tenne	-12.4354
▁Safe	-12.436
lands	-12.4362
ncy	-12.4383
thing	-12.439
goa	-12.4393
Sepa	-12.4406
roofread	-12.4409
topper	-12.4409
clubs	-12.4409
ively	-12.4412
nail	-12.4425
FLU	-12.4428
▁pu	-12.443
olden	-12.4446
▁recogniz	-12.446
137	-12.446
▁Ti	-12.4461
quit	-12.4469
▁Sch	-12.4488
RENT	-12.4499
▁challeng	-12.4508
ig	-12.4514
▁convergen	-12.452
distributions	-12.4522
Think	-12.4523
LU	-12.4524
▁Den	-12.4525
erto	-12.4538
ft	-12.4541
tually	-12.4544
esignated	-12.4551
LY	-12.4553
iversity	-12.4553
rad	-12.4555
neous	-12.4559
avenge	-12.4566
amp	-12.4572
VA	-12.4572
▁Savi	-12.4594
ify	-12.4606
▁ti	-12.4625
▁~~~~~~~~	-12.4632
RO	-12.4634
▁char	-12.4636
▁Bach	-12.4637
atic	-12.4649
▁------	-12.465
------------	-12.466
eta	-12.4664
▁Marc	-12.4667
sm	-12.4671
ette	-12.4681
oul	-12.4681
coat	-12.4683
tage	-12.4704
▁cla	-12.4709
CEPT	-12.4714
gory	-12.4725
posed	-12.4737
when	-12.4744
▁Addition	-12.4776
2),	-12.4793
eyed	-12.481
▁engag	-12.4813
▁col	-12.4818
▁attracti	-12.4823
▁analytic	-12.4827
▁fort	-12.4833
▁suck	-12.4834
alled	-12.4842
Wine	-12.4842
Michel	-12.4849
▁await	-12.485
nations	-12.4852
acing	-12.4854
▁------------	-12.4855
rni	-12.4864
ith	-12.4865
efully	-12.4888
MO	-12.4891
Log	-12.4891
allow	-12.4896
▁bath	-12.4904
▁FL	-12.4909
Reg	-12.4912
▁Da	-12.4913
boo	-12.4928
~~~~~~~~~~~~	-12.4935
ise	-12.4944
HT	-12.4945
Anders	-12.4945
300	-12.4959
▁lasso	-12.4971
ooking	-12.4971
▁"/	-12.4971
ert	-12.4975
emporary	-12.4976
extract	-12.4981
stan	-12.4984
ings	-12.4996
eight	-12.5003
earing	-12.5012
gging	-12.5016
Nef	-12.5017
▁oppos	-12.5019
▁alter	-12.5027
band	-12.5052
hing	-12.5053
▁Prin	-12.5057
▁sl	-12.5063
▁Wi	-12.5069
▁ventures	-12.5081
evils	-12.5086
these	-12.5098
▁gre	-12.5101
nian	-12.511
').	-12.5124
ark	-12.5127
▁radi	-12.5127
anda	-12.5129
mend	-12.513
RL	-12.5136
ain	-12.5138
rovs	-12.5145
92	-12.5149
▁symbol	-12.515
ars	-12.5154
_32	-12.5154
▁flu	-12.5163
9)	-12.5199
▁indicat	-12.5202
nal	-12.5203
little	-12.5206
▁plu	-12.521
11.	-12.5214
▁Barb	-12.5214
theme	-12.5216
Tar	-12.5222
ITY	-12.5224
▁register	-12.5241
Cap	-12.5242
gra	-12.5244
ple	-12.5245
ived	-12.5258
▁comput	-12.5259
}]	-12.5259
▁Fit	-12.5262
NTERI	-12.5273
ENCE	-12.528
▁shop	-12.5289
▁Differen	-12.529
rably	-12.5292
image	-12.5292
▁heal	-12.5298
▁Kim	-12.5299
*.	-12.53
variate	-12.5302
ocated	-12.5305
22.	-12.5307
make	-12.5308
ML	-12.5308
mitted	-12.531
▁iter	-12.5311
pack	-12.5313
gs	-12.5314
▁notebook	-12.5318
brid	-12.5321
EM	-12.5327
▁Rah	-12.5329
▁notation	-12.5336
▁web	-12.5341
par	-12.5347
▁wet	-12.5353
▁initialize	-12.5357
)**	-12.536
apo	-12.5363
before	-12.5365
Rah	-12.5369
VC	-12.5373
Ch	-12.5377
ni	-12.5379
being	-12.5381
▁Pu	-12.5389
relativity	-12.539
▁Mi	-12.5391
TO	-12.5391
Gold	-12.5392
▁confi	-12.5392
uff	-12.5401
kel	-12.5406
▁mat	-12.5407
[...]	-12.5418
play	-12.5421
lves	-12.5422
doors	-12.5425
anned	-12.5433
work	-12.5434
found	-12.5435
▁Ye	-12.544
^^^^^^^^^	-12.5441
rd	-12.5441
▁roll	-12.5444
▁cons	-12.5445
po	-12.545
^^^^^^^^^^^^^	-12.5452
RU	-12.5453
gz	-12.5461
▁program	-12.5466
▁Short	-12.547
emorial	-12.5471
VER	-12.5475
.'	-12.5475
kick	-12.5481
vision	-12.5484
chief	-12.5486
inning	-12.5488
▁MA	-12.5488
▁bu	-12.5498
good	-12.5501
iron	-12.5505
▁Comput	-12.5509
DING	-12.5511
▁spe	-12.5511
law	-12.5512
fi	-12.5514
ets	-12.552
nco	-12.5529
pour	-12.553
always	-12.5532
Tra	-12.5532
▁dream	-12.5539
later	-12.554
square	-12.5543
▁UN	-12.5545
clip	-12.5546
IP	-12.5551
marking	-12.5558
istrict	-12.5564
track	-12.5569
OY	-12.5569
IST	-12.5576
IE	-12.5576
▁Tu	-12.5577
full	-12.558
▁steal	-12.5581
DEM	-12.5583
...>	-12.5584
▁marri	-12.5594
algorithm	-12.5596
(0.	-12.5596
Estimator	-12.5601
event	-12.5601
scu	-12.5602
manual	-12.5612
known	-12.5614
America	-12.5617
because	-12.5621
▁hono	-12.5622
Sample	-12.5623
▁gau	-12.5623
rapper	-12.5623
was	-12.5627
arang	-12.5629
once	-12.5631
went	-12.5635
ajd	-12.5636
threads	-12.5642
killed	-12.5643
fortune	-12.5653
THING	-12.5657
oce	-12.5657
nous	-12.5666
acy	-12.5667
Paul	-12.5668
prior	-12.567
slice	-12.5671
public	-12.5672
umn	-12.5673
counter	-12.5674
regard	-12.5677
life	-12.5678
dependence	-12.5682
constant	-12.5683
itsch	-12.5683
UDF	-12.5684
▁Mic	-12.5684
BRE	-12.5686
bird	-12.5686
solver	-12.5687
continuum	-12.5688
▁Pie	-12.5688
Train	-12.5689
provided	-12.5689
▁counsel	-12.5693
mission	-12.5693
instead	-12.5693
direct	-12.5693
experience	-12.5693
almost	-12.5695
decade	-12.5696
Carol	-12.5697
scribe	-12.5698
single	-12.5701
Journ	-12.5701
important	-12.5703
ren	-12.5704
convert	-12.5708
CatBoost	-12.5709
honor	-12.571
While	-12.5712
water	-12.5713
curve	-12.5714
ched	-12.5716
combine	-12.5717
Jafta	-12.572
16.	-12.5723
basic	-12.5724
mathematician	-12.573
friend	-12.573
woman	-12.573
GroupedPmdarima	-12.5731
MultiTaskLasso	-12.5731
Integral	-12.5732
CardGroup	-12.5732
Class	-12.5732
Pipeline	-12.5732
likelihood	-12.5733
Local	-12.5733
claim	-12.5733
Patrick	-12.5733
Note	-12.5733
Planets	-12.5733
archive	-12.5733
itertools	-12.5733
Usage	-12.5734
railway	-12.5735
positive	-12.5737
Feature	-12.5737
available	-12.5737
guide	-12.5739
▁wo	-12.5739
▁Powe	-12.5739
WORK	-12.574
Bird	-12.5741
atively	-12.5741
His	-12.5743
999	-12.5743
pictures	-12.5743
effect	-12.5745
circle	-12.5746
seasonal	-12.5747
Colle	-12.5749
equivalent	-12.575
fast	-12.575
mentioned	-12.5751
▁Star	-12.5751
90	-12.5751
limited	-12.5751
Matrix	-12.5752
Makeza	-12.5753
CLI	-12.5753
external	-12.5754
season	-12.5754
KING	-12.5755
Add	-12.5755
▁announc	-12.5756
SOME	-12.5756
structure	-12.5757
library	-12.5757
boost	-12.5757
inference	-12.5757
paste	-12.5757
Check	-12.5757
First	-12.5757
}))`	-12.5758
Pandora	-12.5758
palace	-12.5759
dollar	-12.576
marked	-12.576
developed	-12.5761
metadata	-12.5761
perhaps	-12.5761
TV	-12.5761
school	-12.5762
wide	-12.5764
OMP	-12.5764
bombs	-12.5764
parallel	-12.5765
machine	-12.5765
ue	-12.5765
Hist	-12.5765
Debeseembie	-12.5765
proxy	-12.5765
smoke	-12.5765
phone	-12.5766
ARIMA	-12.5766
Complexity	-12.5767
Portsmouth	-12.5767
fighting	-12.5768
Thriller	-12.5768
jewelry	-12.5768
probabilities	-12.5769
Selection	-12.5769
QUEEN	-12.577
donate	-12.5771
inkling	-12.5771
Good	-12.5771
established	-12.5771
SQL	-12.5771
evaluation	-12.5773
double	-12.5773
multinomial	-12.5773
George	-12.5773
ips	-12.5773
Default	-12.5773
spectrum	-12.5773
denominator	-12.5773
Dingaanzulu	-12.5773
bull	-12.5774
Perceptron	-12.5774
otherwise	-12.5774
trials	-12.5774
SEBUZA	-12.5775
conscious	-12.5775
inspection	-12.5775
boolean	-12.5775
Tu	-12.5775
Chris	-12.5775
TZANEEN	-12.5775
Large	-12.5775
construction	-12.5775
August	-12.5776
international	-12.5776
sigmasq	-12.5776
padding	-12.5776
SPACE	-12.5776
formula	-12.5777
glasses	-12.5777
Death	-12.5777
license	-12.5777
ONNX	-12.5777
methods	-12.5778
Mark	-12.5778
official	-12.5778
LARS	-12.5779
contin	-12.5779
install	-12.578
degree	-12.578
worth	-12.578
minimal	-12.578
PA	-12.578
human	-12.5781
Custom	-12.5781
ackle	-12.5782
runtime	-12.5782
eBook	-12.5782
did	-12.5783
looking	-12.5783
ccus	-12.5784
Dense	-12.5784
community	-12.5785
Make	-12.5785
arranged	-12.5786
thunder	-12.5786
HAV	-12.5787
meter	-12.5787
empty	-12.5788
spring	-12.5788
holder	-12.5788
walk	-12.5788
Free	-12.5789
subsequent	-12.579
omb	-12.579
Data	-12.5791
Auto	-12.5794
Return	-12.5795
▁Mea	-12.5796
logits	-12.5797
guard	-12.5797
\|_	-12.5799
six	-12.5799
pist	-12.58
ooked	-12.58
miss	-12.5801
Van	-12.5801
Max	-12.5801
automatic	-12.5802
heard	-12.5802
Use	-12.5803
▁barbecu	-12.5803
^2}	-12.5804
applications	-12.5805
Their	-12.5807
ATE	-12.5808
Cart	-12.5808
Card	-12.5809
▁Stan	-12.581
release	-12.5812
Pos	-12.5813
interrupted	-12.5813
Pel	-12.5815
Reb	-12.5816
Learning	-12.5818
pass	-12.5818
away	-12.5822
MAN	-12.5824
hold	-12.5828
▁reache	-12.583
▁Ten	-12.583
obile	-12.583
▁[[0	-12.5831
differences	-12.5835
removed	-12.5836
fight	-12.5841
Mil	-12.5841
nlp	-12.5842
smell	-12.5844
events	-12.5845
▁na	-12.5846
temp	-12.5847
really	-12.5848
Fit	-12.5848
▁alternate	-12.5848
Karl	-12.5849
Tom	-12.5849
▁blo	-12.585
neither	-12.5855
▁mov	-12.5858
▁persua	-12.586
▁brav	-12.5863
supported	-12.5863
=0.1	-12.5863
sberg	-12.5868
therland	-12.587
▁unjust	-12.5871
cc	-12.5872
hall	-12.5876
taly	-12.5878
08)	-12.5882
TAN	-12.5891
▁proportion	-12.5891
▁Trans	-12.5893
FUL	-12.5893
products	-12.5897
▁labor	-12.5899
REST	-12.5899
▁swim	-12.59
stronom	-12.5903
ELO	-12.5904
lav	-12.5908
Rhb	-12.5908
created	-12.5908
▁injur	-12.591
▁0.6	-12.591
light	-12.5913
▁sanct	-12.5914
▁~~~~~~	-12.5915
Gri	-12.5919
Reti	-12.5919
ccuracy	-12.592
Dog	-12.592
▁choos	-12.5923
▁seek	-12.5928
ened	-12.593
TEN	-12.5934
pplications	-12.5937
Los	-12.594
▁exa	-12.594
▁salut	-12.5943
▁ki	-12.5943
legal	-12.5948
▁lunge	-12.5949
DITION	-12.595
ashed	-12.5952
▁polic	-12.5953
lcohol	-12.5957
▁201	-12.5962
▁Refer	-12.5964
▁prepar	-12.5967
Press	-12.5968
exist	-12.5969
TAB	-12.597
believ	-12.5972
▁raid	-12.5973
west	-12.5973
Thu	-12.5974
sutos	-12.5977
lia	-12.5979
ternal	-12.5981
▁univers	-12.5981
▁packag	-12.5981
▁cent	-12.5982
▁essay	-12.5983
▁publisher	-12.5983
▁manifest	-12.5983
ystem	-12.5984
plt	-12.5985
▁province	-12.5985
beings	-12.5986
▁Olympic	-12.5991
▁colour	-12.5991
▁technique	-12.5992
▁mirror	-12.5992
▁boson	-12.5992
▁ritual	-12.5992
▁recei	-12.5993
▁ancestor	-12.5993
▁burgher	-12.5994
▁gesture	-12.5995
End	-12.5995
▁astronomer	-12.5995
▁weapon	-12.5995
▁trouser	-12.5996
typ	-12.5998
9]	-12.5998
▁grape	-12.5998
▁tuple	-12.5999
▁Hav	-12.5999
▁hardship	-12.6
▁nigger	-12.6001
▁binarize	-12.6001
hike	-12.6002
0.93	-12.6002
▁requirement	-12.6004
items	-12.6004
▁intuiti	-12.6006
pop	-12.6007
▁wound	-12.6007
▁captur	-12.6008
▁entertain	-12.6009
▁porter	-12.6009
▁rever	-12.601
chant	-12.6013
pace	-12.6015
bla	-12.6015
▁parabol	-12.6017
▁trader	-12.6018
ela	-12.6018
▁expose	-12.6019
ggressive	-12.602
▁Burg	-12.6021
imag	-12.6022
SIONA	-12.6022
AIN	-12.6023
▁Conca	-12.6024
▁collect	-12.6024
▁lever	-12.6025
Vienn	-12.6027
rystal	-12.6031
▁releas	-12.6031
▁Colum	-12.6031
▁murmur	-12.6032
▁reject	-12.6033
▁spare	-12.6033
yenas	-12.6035
numerate	-12.6036
arbecue	-12.6036
grouping	-12.6037
▁flame	-12.6037
avour	-12.6039
▁Nikola	-12.6039
▁intellig	-12.604
▁maid	-12.6041
▁0.4	-12.6041
ivil	-12.6041
▁energ	-12.6041
▁discard	-12.6042
xists	-12.6042
▁excellen	-12.6042
trained	-12.6043
elevision	-12.6043
lateral	-12.6043
)}{	-12.6044
▁studie	-12.6044
Conv	-12.6044
imately	-12.6045
▁Johann	-12.6045
▁flee	-12.6045
etrics	-12.6046
▁robot	-12.6047
▁synta	-12.6047
7]	-12.6047
▁descend	-12.6048
nces	-12.6049
▁commission	-12.6049
iable	-12.6049
▁Commission	-12.6049
DEL	-12.6049
tal	-12.605
BUT	-12.605
▁percept	-12.605
articularly	-12.605
▁displace	-12.6051
ivot	-12.6051
▁dismiss	-12.6051
▁acquaint	-12.6051
aximum	-12.6051
▁suspens	-12.6052
FORMATION	-12.6052
▁transmit	-12.6052
Organiz	-12.6052
/2009/	-12.6052
▁Deploy	-12.6053
▁secret	-12.6053
Booster	-12.6053
Exponential	-12.6053
Boolean	-12.6053
Harr	-12.6053
Orthogonal	-12.6053
▁argparse	-12.6053
dispatch	-12.6053
▁inhabit	-12.6053
LEAF	-12.6053
RandomState	-12.6053
relevance	-12.6053
▁Faraday	-12.6053
▁GOLD	-12.6053
▁HAIR	-12.6053
▁INDUNAS	-12.6053
Encoder	-12.6053
Habana	-12.6053
Nyatiti	-12.6053
Pegasus	-12.6053
Ramsgate	-12.6053
Vihuela	-12.6053
▁FanOut	-12.6053
▁Santiago	-12.6053
▁Visualiz	-12.6053
▁Yield	-12.6053
▁chemistry	-12.6053
▁cultivat	-12.6053
▁fermions	-12.6053
▁incorporat	-12.6053
▁intellect	-12.6053
▁shudder	-12.6053
▁threadsafe	-12.6053
("2024-01-0	-12.6053
ABCMeta	-12.6053
AMERICA	-12.6053
Alabama	-12.6053
Alligator	-12.6053
Amsterdam	-12.6053
Anzacs	-12.6053
BELFAST	-12.6053
Birmingham	-12.6053
Bradford	-12.6053
BusinessDay	-12.6053
Catholicism	-12.6053
Dispatchable	-12.6053
Dolphin	-12.6053
EZULWENI	-12.6053
Eddington	-12.6053
Fischler	-12.6053
GRAPH	-12.6053
Gotchas	-12.6053
HARDSHIPS	-12.6053
Judaism	-12.6053
KLAAS	-12.6053
Leverrier	-12.6053
Montevideo	-12.6053
PRERELEASE	-12.6053
Penalties	-12.6053
VERSION	-12.6053
Wignall	-12.6053
\|_{1,1}	-12.6053
bacteriophages	-12.6053
cJeep	-12.6053
cumprod	-12.6053
eroDivisionError	-12.6053
lementines	-12.6053
monotonic	-12.6053
ngredien	-12.6053
parametric	-12.6053
percentile	-12.6053
useBaseUrl	-12.6053
volatile	-12.6053
▁ACTUAL	-12.6053
▁AdaBoost	-12.6053
▁Almeida	-12.6053
▁Analysis	-12.6053
▁Arcadia	-12.6053
▁BASIS	-12.6053
▁BURIAL	-12.6053
▁Basutus	-12.6053
▁Brentwood	-12.6053
▁Bridwell	-12.6053
▁COMBAT	-12.6053
▁CONSIDER	-12.6053
▁Cologne	-12.6053
▁Control	-12.6053
▁Crichton	-12.6053
▁DANCING	-12.6053
▁DECIDE	-12.6053
▁DISTRIBUT	-12.6053
▁Depression	-12.6053
▁Dingaan	-12.6053
▁EXILE	-12.6053
▁Establish	-12.6053
▁FOUNDATION	-12.6053
▁FRIEND	-12.6053
▁Fitschen	-12.6053
▁Fowler	-12.6053
▁Handchime	-12.6053
▁Haughey	-12.6053
▁Helmholtz	-12.6053
▁Hirabayashi	-12.6053
▁Hoedowners	-12.6053
▁Hornpipe	-12.6053
▁Huguenot	-12.6053
▁Jupyter	-12.6053
▁Kenneth	-12.6053
▁Lambda	-12.6053
▁Libertadores	-12.6053
▁LogSoftmax	-12.6053
▁Lydenburg	-12.6053
▁Neptune	-12.6053
▁NotFittedError	-12.6053
▁OWNER	-12.6053
▁Onavillu	-12.6053
▁Ondaatje	-12.6053
▁PHYSIC	-12.6053
▁Paramaribo	-12.6053
▁Pavilion	-12.6053
▁Purview	-12.6053
▁REFERENCE	-12.6053
▁Rayalaseema	-12.6053
▁Robbins	-12.6053
▁SETTLE	-12.6053
▁SHOOT	-12.6053
▁SUGGESTION	-12.6053
▁SURRENDER	-12.6053
▁SageMaker	-12.6053
▁Scrap	-12.6053
▁Secrets	-12.6053
▁Seeliger	-12.6053
▁Softplus	-12.6053
▁Softw	-12.6053
▁Solomon	-12.6053
▁SparkSession	-12.6053
▁Spirit	-12.6053
▁Strughold	-12.6053
▁TREK	-12.6053
▁Tageblatt	-12.6053
▁Teetum	-12.6053
▁Tibet	-12.6053
▁Tiburon	-12.6053
▁Trebol	-12.6053
▁UNIVERSE	-12.6053
▁Uttarandhra	-12.6053
▁VELOCITIES	-12.6053
▁WIVES	-12.6053
▁Window	-12.6053
▁`0.05`	-12.6053
▁abscissa	-12.6053
▁agitated	-12.6053
▁altitude	-12.6053
▁apparatus	-12.6053
▁aristocra	-12.6053
▁astonishment	-12.6053
▁batteries	-12.6053
▁binaries	-12.6053
▁blundered	-12.6053
▁brethren	-12.6053
▁bronze	-12.6053
▁cabbage	-12.6053
▁campaigner	-12.6053
▁cannibal	-12.6053
▁cinematograph	-12.6053
▁circumcision	-12.6053
▁companies	-12.6053
▁condescen	-12.6053
▁conscientious	-12.6053
▁consecrated	-12.6053
▁conservative	-12.6053
▁convulsive	-12.6053
▁corporation	-12.6053
▁crescendo	-12.6053
▁criminal	-12.6053
▁croaked	-12.6053
▁curvilinear	-12.6053
▁dehydration	-12.6053
▁descriptive	-12.6053
▁dictionaries	-12.6053
▁discipline	-12.6053
▁disengag	-12.6053
▁duiker	-12.6053
▁economy	-12.6053
▁eliminate	-12.6053
▁encoding	-12.6053
▁equiangular	-12.6053
▁exclamation	-12.6053
▁exodus	-12.6053
▁fakirs	-12.6053
▁fanatic	-12.6053
▁guacamole	-12.6053
▁horror	-12.6053
▁indignity	-12.6053
▁insulation	-12.6053
▁jealous	-12.6053
▁latitudes	-12.6053
▁lettuce	-12.6053
▁literally	-12.6053
▁lunatic	-12.6053
▁lunch	-12.6053
▁luxur	-12.6053
▁maintenance	-12.6053
▁manoeuvers	-12.6053
▁mismatch	-12.6053
▁muscular	-12.6053
▁nebulae	-12.6053
▁pelela	-12.6053
▁penalties	-12.6053
▁permissible	-12.6053
▁phosphorescence	-12.6053
▁privilege	-12.6053
▁prohibition	-12.6053
▁pronounce	-12.6053
▁prostrate	-12.6053
▁prowess	-12.6053
▁recollection	-12.6053
▁reconcil	-12.6053
▁rejoicing	-12.6053
▁retrieval	-12.6053
▁sequel	-12.6053
▁sombrero	-12.6053
▁specimens	-12.6053
▁stitches	-12.6053
▁superstitious	-12.6053
▁swollen	-12.6053
▁telephone	-12.6053
▁ticklish	-12.6053
▁tireless	-12.6053
▁traceability	-12.6053
▁traffic	-12.6053
▁unbiased	-12.6053
▁uneventful	-12.6053
▁unpopular	-12.6053
▁wholesale	-12.6053
▁woodwind	-12.6053
▁LabelEncoder	-12.6053
▁POOL	-12.6053
▁Storage	-12.6053
▁disdain	-12.6053
▁grandmother	-12.6053
▁insuperable	-12.6053
▁trilogy	-12.6053
▁unreleased	-12.6053
0.34545455	-12.6053
0.49999993	-12.6053
Luxembourg	-12.6053
Plotting	-12.6053
SIBIJAAN	-12.6053
elegraph	-12.6053
namedtuple	-12.6053
▁AutoARIMA	-12.6053
▁BUILD	-12.6053
▁Bauman	-12.6053
▁Econometric	-12.6053
▁GROUND	-12.6053
▁Michigan	-12.6053
▁Nevada	-12.6053
▁Oktela	-12.6053
▁Opener	-12.6053
▁PostgreSQL	-12.6053
▁RESULT	-12.6053
▁Umbadine	-12.6053
▁assassination	-12.6053
▁attitude	-12.6053
▁biodiversity	-12.6053
▁captives	-12.6053
▁categoriz	-12.6053
▁currency	-12.6053
▁despatch	-12.6053
▁disapprove	-12.6053
▁festivities	-12.6053
▁protractor	-12.6053
▁reservation	-12.6053
▁scuppers	-12.6053
▁segments	-12.6053
▁shrub	-12.6053
▁squirrel	-12.6053
▁tersely	-12.6053
▁tortilla	-12.6053
▁tragedy	-12.6053
▁tussle	-12.6053
▁wrote	-12.6053
DINGAAN	-12.6053
Epoch	-12.6053
IZE	-12.6053
ZULU	-12.6053
[-1]//2+1``	-12.6053
organisms	-12.6053
▁Bluestein	-12.6053
▁DummyClassifier	-12.6053
▁Guiana	-12.6053
▁PERMISSION	-12.6053
▁RECEIVE	-12.6053
▁RIFLE	-12.6053
▁SMOKE	-12.6053
▁TOWN	-12.6053
▁VerboseReporter	-12.6053
▁astuteness	-12.6053
▁decoration	-12.6053
▁discourag	-12.6053
▁filamentous	-12.6053
▁perpetual	-12.6053
▁rascal	-12.6053
▁rawhide	-12.6053
▁rippl	-12.6053
GroupedProphet	-12.6053
Hindi	-12.6053
spresso	-12.6053
▁Demers	-12.6053
▁MAGI	-12.6053
▁MESS	-12.6053
▁Morgan	-12.6053
▁Mosaic	-12.6053
▁Oliver	-12.6053
▁REPLACE	-12.6053
▁StepLR	-12.6053
▁Tichy	-12.6053
▁depression	-12.6053
▁diverge	-12.6053
▁epitom	-12.6053
▁maroon	-12.6053
▁marvel	-12.6053
▁geographic	-12.6053
▁siesta	-12.6053
▁tempfile	-12.6053
EVIL	-12.6053
antasy	-12.6053
▁Apparent	-12.6053
▁Industr	-12.6053
▁LIQUOR	-12.6053
▁POWER	-12.6053
▁Specific	-12.6053
▁Zhang	-12.6053
▁creativity	-12.6053
▁jackals	-12.6053
▁tactics	-12.6053
▁wrath	-12.6053
Prague	-12.6053
▁Canyon	-12.6053
▁Hessian	-12.6053
▁Process	-12.6053
▁Roundhouse	-12.6053
▁Setups	-12.6053
▁explosion	-12.6053
▁predomina	-12.6053
▁unnerv	-12.6053
▁Dubai	-12.6053
▁INDUCT	-12.6053
▁ambush	-12.6053
▁climate	-12.6053
▁constituents	-12.6053
▁fraterni	-12.6053
▁maidens	-12.6053
▁vicious	-12.6053
▁Court	-12.6053
▁inhabitants	-12.6053
genius	-12.6053
▁EXPERIMENT	-12.6053
▁PAUL	-12.6053
▁TERRI	-12.6053
▁Whitmore	-12.6053
JAFTA	-12.6053
ombinga	-12.6053
▁Altman	-12.6053
▁Connect	-12.6053
▁Efron	-12.6053
▁neighborhood	-12.6053
▁prescription	-12.6053
▁reproducible	-12.6053
▁struggle	-12.6053
Answering	-12.6053
Gusli	-12.6053
▁Editing	-12.6053
▁deliberat	-12.6053
CONFI	-12.6053
Defect	-12.6053
▁boasted	-12.6053
▁muscle	-12.6053
▁tutor	-12.6053
▁utmost	-12.6053
imagevecs	-12.6053
▁Westbay	-12.6053
▁inspan	-12.6053
▁salads	-12.6053
▁subtle	-12.6053
>/<	-12.6053
qualifie	-12.6053
YSTE	-12.6053
▁Aryan	-12.6053
▁millionaire	-12.6053
▁vanilla	-12.6053
▁Brook	-12.6053
▁Graham	-12.6053
▁quadrants	-12.6053
▁salsa	-12.6053
▁uphill	-12.6053
▁verify	-12.6053
Semmering	-12.6053
▁Phish	-12.6053
▁gloom	-12.6053
CHERY	-12.6053
Klein	-12.6053
LOG	-12.6053
LinearEstimator	-12.6053
factorize	-12.6053
hurst	-12.6053
▁Shaver	-12.6053
▁Vega	-12.6053
▁Italian	-12.6053
▁conceivable	-12.6053
▁grooming	-12.6053
▁precipi	-12.6053
Friend	-12.6053
IOUS	-12.6053
▁Operations	-12.6053
▁Velocities	-12.6053
▁compensat	-12.6053
▁comprise	-12.6053
▁frightful	-12.6053
merging	-12.6053
▁Final	-12.6053
▁artwork	-12.6053
Reshaping	-12.6053
^*)`	-12.6053
``[]``	-12.6053
bhadra	-12.6053
microsoft	-12.6053
{1}{2}\|	-12.6053
▁hospitality	-12.6053
▁scrap	-12.6053
Hava	-12.6053
▁Sudan	-12.6053
▁exempt	-12.6053
▁wistful	-12.6053
▁Canoo	-12.6053
▁Wicket	-12.6053
=1.5)	-12.6053
▁Zero	-12.6053
▁heartening	-12.6053
iscretization	-12.6053
▁perforce	-12.6053
▁confused	-12.6053
cummin	-12.6053
▁Passive	-12.6053
▁feedback	-12.6053
▁soldered	-12.6053
cummax	-12.6053
▁undiminished	-12.6053
▁knack	-12.6053
▁Fritz	-12.6053
▁necessities	-12.6053
_10_2	-12.6053
▁Evaluation	-12.6053
▁Phil	-12.6053
▁faggot	-12.6053
ampton	-12.6053
▁childhood	-12.6053
Validation	-12.6053
watts	-12.6053
▁imagination	-12.6053
ntileptons	-12.6053
▁nomination	-12.6053
▁inspanned	-12.6053
▁entertainment	-12.6053
▁Northwest	-12.6054
ntiquarks	-12.6054
▁silver	-12.6054
▁maximal	-12.6054
▁hyper	-12.6054
▁uncommon	-12.6054
▁Weenan	-12.6054
abserr	-12.6054
▁mouthpiece	-12.6054
▁optics	-12.6054
▁aesthetic	-12.6054
ensive	-12.6054
1611.0	-12.6054
▁Transcription	-12.6054
▁Majuba	-12.6054
▁Fender	-12.6054
▁darkened	-12.6054
▁enclosure	-12.6054
▁inflection	-12.6054
▁Titan	-12.6054
▁Geometrical	-12.6054
▁trustworthy	-12.6054
▁chips	-12.6054
▁goalkeeper	-12.6054
▁verdict	-12.6054
▁shrink	-12.6054
hearted	-12.6054
▁crude	-12.6054
▁repel	-12.6054
▁instinct	-12.6054
▁boots	-12.6054
▁toilet	-12.6054
▁destination	-12.6054
▁correspondence	-12.6054
▁impuden	-12.6054
▁suspension	-12.6054
1,092	-12.6054
pocus	-12.6054
▁Merge	-12.6054
Soccer	-12.6054
▁PARTY	-12.6054
▁WARRANTY	-12.6054
▁laughter	-12.6054
2007]	-12.6054
atabricksSession	-12.6054
▁Springfield	-12.6054
▁employment	-12.6054
▁newsletter	-12.6054
FTP	-12.6054
▁speedily	-12.6054
▁apprehension	-12.6054
Speak	-12.6054
▁oftentimes	-12.6054
Hosho	-12.6054
▁breez	-12.6054
hbour	-12.6054
▁sweet	-12.6054
AVOR	-12.6054
▁impending	-12.6054
▁grateful	-12.6054
▁potentate	-12.6054
▁teens	-12.6054
Doppler	-12.6054
polished	-12.6054
▁Portugal	-12.6054
▁investors	-12.6054
▁(2010)	-12.6054
▁Hartl	-12.6054
Rohu	-12.6054
▁feud	-12.6054
▁Chief	-12.6054
_2^2]	-12.6054
witz	-12.6054
▁trading	-12.6054
▁calves	-12.6054
▁worries	-12.6054
▁functionalities	-12.6054
▁opportunities	-12.6054
Additi	-12.6055
Mallat	-12.6055
▁concoct	-12.6055
▁Watch	-12.6055
▁rumbled	-12.6055
▁resampling	-12.6055
▁defiance	-12.6055
IFIC	-12.6055
▁nurse	-12.6055
▁Banner	-12.6055
▁BATTLES	-12.6055
▁developers	-12.6055
▁interven	-12.6055
▁braid	-12.6055
BaseEnsemble	-12.6055
MYSTER	-12.6055
logreg	-12.6055
▁oscillator	-12.6055
▁radiation	-12.6055
pmd	-12.6055
▁honest	-12.6055
CESS	-12.6055
▁adaptation	-12.6055
▁conclusively	-12.6055
▁coerce	-12.6055
▁unbearable	-12.6055
RNNModel	-12.6055
▁lubrica	-12.6055
Delete	-12.6055
oid	-12.6055
gol	-12.6055
▁(2018)	-12.6055
swank	-12.6055
▁Highway	-12.6055
▁potatoes	-12.6055
▁sandwiches	-12.6055
||_1}	-12.6055
▁Fitz	-12.6055
▁indolen	-12.6055
upwards	-12.6055
▁click	-12.6055
ANDER	-12.6055
▁garment	-12.6055
Predictive	-12.6055
▁warrant	-12.6055
ortho	-12.6055
minka	-12.6055
▁overparameteriz	-12.6055
▁compressed	-12.6055
▁fermentation	-12.6056
▁glitter	-12.6056
YTH	-12.6056
Chic	-12.6056
Excitement	-12.6056
▁detection	-12.6056
▁COUN	-12.6056
▁Optional	-12.6056
▁COST	-12.6056
▁mildly	-12.6056
▁draped	-12.6056
▁Merry	-12.6056
▁photographic	-12.6056
▁Hotel	-12.6056
▁Apple	-12.6056
penetra	-12.6056
1,101	-12.6056
▁Pratt	-12.6056
LOW	-12.6056
▁electricity	-12.6056
▁shrinkage	-12.6056
▁insist	-12.6056
▁Actor	-12.6056
▁HUM	-12.6056
▁fascinating	-12.6056
perceptron	-12.6056
▁Publisher	-12.6056
PASS	-12.6056
▁1990	-12.6056
IMEN	-12.6056
▁stowed	-12.6056
mbridge	-12.6056
▁conspi	-12.6056
▁Royalty	-12.6056
▁remainder	-12.6056
▁Strat	-12.6056
▁detectable	-12.6056
▁refried	-12.6056
▁SAG	-12.6056
▁Arsen	-12.6056
▁regularized	-12.6057
▁plausib	-12.6057
▁tacitly	-12.6057
▁decisively	-12.6057
lberg	-12.6057
▁Cohen	-12.6057
mfort	-12.6057
▁successive	-12.6057
▁GIVE	-12.6057
▁tolerance	-12.6057
CTORY	-12.6057
PCA	-12.6057
▁Walk	-12.6057
▁grumbled	-12.6057
▁mutually	-12.6057
▁sportsmen	-12.6057
Validat	-12.6057
▁counsellor	-12.6057
▁Rules	-12.6057
▁tedium	-12.6057
▁unknown	-12.6057
▁dicker	-12.6057
ERM	-12.6058
▁normalization	-12.6058
▁commissione	-12.6058
roblem	-12.6058
▁advancing	-12.6058
▁dimensionality	-12.6058
▁meteor	-12.6058
▁stubb	-12.6058
▁viz	-12.6058
▁Frost	-12.6058
▁treachery	-12.6058
uarter	-12.6058
▁Huber	-12.6058
=5000)	-12.6058
COMPA	-12.6059
gazin	-12.6059
▁Howard	-12.6059
▁[16]_.	-12.6059
▁basically	-12.6059
("20130102"	-12.6059
▁Whereas	-12.6059
▁untold	-12.6059
▁committing	-12.6059
▁mercy	-12.6059
imestamp	-12.6059
Peace	-12.6059
CIA	-12.6059
▁princess	-12.6059
pulsion	-12.606
SVD	-12.606
ocate	-12.606
▁Contin	-12.606
▁attendance	-12.606
▁percent	-12.606
Norman	-12.606
▁cheap	-12.606
▁abode	-12.606
▁borrow	-12.606
▁doorway	-12.606
▁stepwise	-12.606
▁bleeding	-12.606
AILS	-12.606
▁forecastle	-12.606
NET	-12.606
▁generating	-12.606
▁DELA	-12.606
FACTORY	-12.606
▁glue	-12.606
▁Motion	-12.6061
▁PEAC	-12.6061
▁Things	-12.6061
collinearity	-12.6061
▁impertinent	-12.6061
▁nano	-12.6061
▁eggs	-12.6061
▁sentries	-12.6061
▁prevailed	-12.6061
▁deposited	-12.6061
▁manicured	-12.6061
▁vomited	-12.6061
▁pathway	-12.6061
▁darkness	-12.6061
▁moderate	-12.6061
▁punished	-12.6061
priests	-12.6061
bmv	-12.6061
ydra	-12.6061
▁brass	-12.6061
TransformerModel	-12.6061
PDF	-12.6062
▁college	-12.6062
▁Harding	-12.6062
attalion	-12.6062
350,000	-12.6062
▁debt	-12.6062
▁BET	-12.6062
▁discontinue	-12.6062
▁Runtime	-12.6063
▁abacuses	-12.6063
fc	-12.6063
argmin	-12.6063
▁mourning	-12.6063
▁DEDICAT	-12.6063
ehaviour	-12.6063
Dummy	-12.6063
▁Joint	-12.6063
▁consuming	-12.6063
▁sustain	-12.6063
▁shaky	-12.6063
▁realization	-12.6063
▁scarce	-12.6063
▁convincingly	-12.6063
▁XOR	-12.6064
▁ascertain	-12.6064
▁cancer	-12.6064
▁propped	-12.6064
urried	-12.6064
▁digit	-12.6064
▁powerless	-12.6064
▁daylight	-12.6064
▁slain	-12.6065
[21]	-12.6065
▁analyzed	-12.6065
▁upshot	-12.6065
▁elbow	-12.6065
▁SIM	-12.6065
Iterative	-12.6065
▁crime	-12.6065
▁amazing	-12.6066
▁popularity	-12.6066
aggard	-12.6066
|0,	-12.6066
TUR	-12.6066
▁XXXI	-12.6066
▁knees	-12.6066
▁invade	-12.6066
▁massive	-12.6066
neg	-12.6066
{||	-12.6066
▁bothered	-12.6066
▁ultimat	-12.6066
Question	-12.6067
▁(1920)	-12.6067
▁Looker	-12.6067
docu	-12.6067
▁alphabetical	-12.6068
▁outburst	-12.6068
▁radio	-12.6068
[26]	-12.6068
▁beauti	-12.6068
▁Rica	-12.6068
▁clos	-12.6068
▁educational	-12.6068
▁summed	-12.6068
ORS	-12.6068
illus	-12.6069
▁PLAN	-12.6069
▁REM	-12.6069
▁electronically	-12.6069
ringing	-12.6069
umped	-12.6069
▁convincing	-12.6069
▁fleet	-12.6069
nMandarin	-12.607
▁Dick	-12.607
▁Spell	-12.607
▁implied	-12.607
▁enumerate	-12.6071
precomputed	-12.6071
strategies	-12.6071
▁undergoing	-12.6071
▁Lastly	-12.6071
▁push	-12.6071
▁respective	-12.6071
▁auth	-12.6072
▁1989	-12.6072
▁caval	-12.6072
▁THEOR	-12.6072
▁Meth	-12.6072
ference	-12.6072
▁speedup	-12.6072
▁trekking	-12.6072
arb	-12.6072
Lotar	-12.6072
MISSION	-12.6072
▁triumphant	-12.6072
▁Mass	-12.6073
culty	-12.6073
▁feeble	-12.6073
▁pruned	-12.6073
triv	-12.6073
▁teaching	-12.6073
/.../	-12.6074
Test	-12.6074
▁pledged	-12.6074
berry	-12.6074
Born	-12.6074
▁RIGHT	-12.6075
▁fulfill	-12.6075
▁twist	-12.6075
▁rejected	-12.6075
UTC	-12.6075
▁dirty	-12.6076
▁entertained	-12.6076
▁69	-12.6076
▁orgy	-12.6076
▁collected	-12.6076
itercount	-12.6077
▁generations	-12.6077
▁decompos	-12.6077
iterary	-12.6077
AIL	-12.6077
▁additi	-12.6077
▁conditioners	-12.6077
[25]	-12.6077
[27]	-12.6077
ilaka	-12.6078
)=\	-12.6078
idity	-12.6078
[3:	-12.6078
▁handful	-12.6078
Redshift	-12.6078
EDM	-12.6078
^2)	-12.6078
▁phases	-12.6079
▁investigators	-12.6079
▁indirectly	-12.6079
▁pastimes	-12.6079
▁absorbs	-12.6079
▁museums	-12.6079
▁drag	-12.6079
▁NaNs	-12.608
▁callous	-12.608
▁Tutorials	-12.608
▁errand	-12.608
TREA	-12.608
▁Hills	-12.608
[24]	-12.608
▁proportioned	-12.608
▁wrapping	-12.608
▁mentally	-12.608
▁Results	-12.608
▁breast	-12.6081
▁peril	-12.6081
▁idol	-12.6081
▁Eman	-12.6081
▁360	-12.6081
easuring	-12.6082
▁liar	-12.6082
Roman	-12.6082
▁institution	-12.6082
Satellite	-12.6082
▁assets	-12.6082
▁weekend	-12.6083
factorization	-12.6083
>2</	-12.6084
ovi	-12.6084
inbag	-12.6085
▁Universe	-12.6085
▁Jew	-12.6085
ki	-12.6085
▁BREAK	-12.6085
aggressive	-12.6086
▁soothe	-12.6086
▁murderers	-12.6087
Pet	-12.6087
ICA	-12.6087
expit	-12.6087
▁Map	-12.6087
▁snort	-12.6087
▁Prox	-12.6087
nPain	-12.6088
▁Jac	-12.6088
▁1500-	-12.6088
▁obst	-12.6088
▁squad	-12.6089
imfile	-12.6089
▁parabola	-12.6089
relu	-12.6089
▁Carole	-12.6089
▁accessible	-12.6089
histle	-12.6089
nual	-12.6089
:`\|	-12.6089
▁exporter	-12.6089
LINE	-12.6089
▁deducti	-12.609
▁bask	-12.609
▁relying	-12.609
▁pandem	-12.609
▁apparently	-12.609
▁fluent	-12.609
▁QUEENS	-12.609
▁suffic	-12.6091
eadily	-12.6091
▁convey	-12.6091
illenni	-12.6091
▁tailor	-12.6092
▁disappeared	-12.6092
}}{\	-12.6092
arian	-12.6092
▁laughing	-12.6092
>49	-12.6092
▁taller	-12.6092
▁cables	-12.6092
||_1`	-12.6093
raged	-12.6093
▁Koh	-12.6093
▁conform	-12.6094
▁scrambl	-12.6095
▁snatch	-12.6095
▁perpendicularly	-12.6097
▁celebrated	-12.6097
▁precis	-12.6098
▁compatibility	-12.6098
▁everyday	-12.6098
▁writer	-12.6098
prod	-12.6099
▁Gladiator	-12.6099
▁somehow	-12.6099
Glo	-12.6099
topped	-12.61
▁!	-12.61
▁Brit	-12.61
Politic	-12.6101
▁slack	-12.6101
▁Tower	-12.6101
▁downloaded	-12.6101
null	-12.6102
▁tramp	-12.6102
▁APP	-12.6102
▁flattered	-12.6103
▁feeding	-12.6103
▁widest	-12.6103
▁TRO	-12.6103
Binomial	-12.6104
GHOST	-12.6104
▁Brad	-12.6104
▁CONT	-12.6104
▁intuitive	-12.6104
▁Simon	-12.6105
ushman	-12.6105
Rgxg	-12.6105
▁Conve	-12.6105
▁heavi	-12.6105
▁throng	-12.6105
▁BAB	-12.6106
JO	-12.6106
▁sympathiz	-12.6106
▁swarm	-12.6106
▁plugg	-12.6107
ona	-12.6107
▁dimes	-12.6107
▁fighters	-12.6109
IS	-12.6109
err	-12.6109
1793	-12.6109
FIT	-12.6109
arnes	-12.6109
▁marches	-12.611
1100)	-12.611
▁Prediction	-12.611
▁trumpe	-12.611
▁sens	-12.611
orial	-12.611
▁drugged	-12.6111
▁SPORT	-12.6111
Torre	-12.6111
▁attracted	-12.6112
▁Bike	-12.6112
▁impre	-12.6112
pu	-12.6113
▁disobey	-12.6113
▁accurate	-12.6113
▁PZ	-12.6114
▁flown	-12.6114
tlie	-12.6114
maker	-12.6114
mbus	-12.6114
▁mangle	-12.6115
feed	-12.6115
▁Artifact	-12.6115
{:.	-12.6116
(-1)	-12.6116
▁Observe	-12.6116
air	-12.6117
sparsity	-12.6117
▁beans	-12.6118
(128	-12.6118
▁sulk	-12.6118
▁Brig	-12.6118
lements	-12.6119
▁logit	-12.6119
▁analys	-12.612
▁exert	-12.612
nunique	-12.6121
ubble	-12.6121
▁tumbled	-12.6121
pypi	-12.6122
▁Schem	-12.6122
▁provinces	-12.6122
▁breasts	-12.6122
▁publishers	-12.6123
▁essays	-12.6124
▁Simons	-12.6124
▁manifests	-12.6124
▁Olympics	-12.6124
▁successfully	-12.6124
EU	-12.6124
▁couch	-12.6125
▁steed	-12.6125
LESS	-12.6125
▁Hub	-12.6126
▁RNA	-12.6127
Human	-12.6127
Grass	-12.6127
XXXX	-12.6128
▁Par	-12.6128
▁0.24	-12.6129
▁Pud	-12.6129
▁useless	-12.6129
programmatically	-12.613
▁indirect	-12.6131
1.0)`	-12.6132
▁scouts	-12.6132
oncatenat	-12.6133
▁hug	-12.6133
([[[1.	-12.6134
AWAY	-12.6134
▁earthen	-12.6135
▁(2003)	-12.6135
gone	-12.6136
angerous	-12.6136
▁teacher	-12.6136
▁INC	-12.6137
▁licked	-12.6137
▁Val	-12.6137
▁Island	-12.6138
▁flatly	-12.6139
▁justifiable	-12.614
[1:]	-12.614
▁plainly	-12.614
isna	-12.6141
systems	-12.6141
▁smash	-12.6141
▁bait	-12.6141
▁independence	-12.6141
▁Types	-12.6142
▁smf	-12.6142
▁milking	-12.6143
▁thrash	-12.6144
▁beautifully	-12.6144
▁CL	-12.6145
▁execute	-12.6146
().__	-12.6146
▁TAK	-12.6146
▁excluded	-12.6147
rish	-12.6147
anks	-12.6147
TU	-12.6148
▁equivalen	-12.6148
▁freshly	-12.6149
▁kn	-12.6149
▁publication	-12.615
▁profess	-12.6151
robbing	-12.6151
pines	-12.6151
▁perm	-12.6152
icken	-12.6153
▁demo	-12.6153
▁paints	-12.6153
▁subsampl	-12.6155
▁pac	-12.6155
▁Improve	-12.6156
▁Authors	-12.6156
}{||	-12.6156
BAY	-12.6156
▁realis	-12.6156
10000	-12.6157
ITIONS	-12.6157
hugging	-12.6157
▁demanding	-12.6158
▁EQU	-12.616
▁redistribut	-12.6162
='{	-12.6164
▁flowing	-12.6164
▁strangely	-12.6164
▁Long	-12.6164
▁Mary	-12.6165
ebook	-12.6165
Rcxg	-12.6165
▁eligib	-12.6168
▁induced	-12.6168
▁furious	-12.6168
▁sensitive	-12.6168
▁EX	-12.6169
▁brakes	-12.6169
▁infants	-12.6169
▁Aut	-12.6169
▁burdens	-12.617
▁stray	-12.617
▁loyalty	-12.617
▁bias	-12.6171
▁[16]	-12.6171
▁8],	-12.6172
LIG	-12.6173
dges	-12.6173
scaled	-12.6173
▁nhead	-12.6173
IL	-12.6173
▁0.001	-12.6175
ICATION	-12.6175
▁parade	-12.6175
▁sparser	-12.6175
▁1935	-12.6175
▁aims	-12.6175
▁retort	-12.6176
▁SVM	-12.6177
▁VCF	-12.6177
strings	-12.6177
98.	-12.6177
▁CHIEF	-12.6178
▁cumpct	-12.6178
tro	-12.6178
▁stratify	-12.6178
▁Excel	-12.6178
▁insults	-12.6178
▁LITTLE	-12.6179
▁Solvers	-12.6179
▁technolog	-12.6179
▁Riemann	-12.6179
▁FUNERAL	-12.6179
▁DRESS	-12.6179
▁\|	-12.6179
▁THROUGH	-12.6179
▁Women	-12.6179
▁pydantic	-12.6179
▁Shanghai	-12.6179
▁recursion	-12.6179
▁transpose	-12.6179
▁Database	-12.6179
▁prefix	-12.6179
▁Willy	-12.6179
▁nonlinearity	-12.6179
▁dispatchables	-12.6179
▁LangChain	-12.6179
▁Walter	-12.6179
▁fftfreq	-12.6179
▁Caroline	-12.618
worldsphere	-12.618
▁THEIR	-12.618
=(1,	-12.6181
odd	-12.6181
▁coincidence	-12.6182
▁talent	-12.6182
▁skew	-12.6182
▁quicksort	-12.6184
▁Squared	-12.6184
▁pretend	-12.6186
▁acute	-12.6186
▁2.20.0.	-12.6187
▁Tipping	-12.6187
▁delivery	-12.6188
▁Depend	-12.6189
▁sacrific	-12.6189
▁carts	-12.6193
▁scheduler	-12.6194
▁1)`.	-12.6195
▁MEA	-12.6197
logist	-12.6198
▁installment	-12.6198
▁MAKE	-12.62
▁outset	-12.6201
nCar	-12.6203
▁ministers	-12.6203
▁Inference	-12.6203
▁Argument	-12.6203
▁rug	-12.6204
NN	-12.6204
tom	-12.6205
mpi	-12.6205
▁addresses	-12.6207
▁floo	-12.6207
Ned	-12.6207
▁paces	-12.6208
▁designed	-12.6208
▁96.	-12.6209
San	-12.621
▁128	-12.621
▁feroci	-12.6211
▁squats	-12.6211
▁civi	-12.6211
▁thinkable	-12.6211
▁destin	-12.6212
▁harder	-12.6212
ung	-12.6213
▁letters	-12.6215
▁sec	-12.6215
▁Algorithms	-12.6216
intp	-12.6216
▁Britisher	-12.6218
▁stab	-12.6218
fish	-12.6219
▁iterative	-12.6219
▁remount	-12.6219
readings	-12.6221
▁mistakes	-12.6223
▁prosper	-12.6224
01/	-12.6226
▁UC	-12.6226
filesystem	-12.6227
tivity	-12.6228
Lu	-12.6228
▁taxes	-12.6228
▁-15.	-12.623
▁releases	-12.623
bia	-12.6231
ctx	-12.6231
▁rating	-12.6233
mmering	-12.6233
(3)	-12.6233
▁executive	-12.6234
heads	-12.6234
maine	-12.6234
rench	-12.6235
xperience	-12.6235
EAD	-12.6235
▁Gen	-12.6235
▁1905	-12.6236
egative	-12.6236
▁Costa	-12.6237
▁decks	-12.6237
▁Require	-12.6238
rative	-12.6238
▁Ltd	-12.6241
tate	-12.6242
▁stack	-12.6242
icks	-12.6243
ather	-12.6244
▁scorch	-12.6244
▁bins	-12.6246
▁oldest	-12.6246
▁rally	-12.6248
Exception	-12.6249
▁maintaining	-12.6249
Gui	-12.6249
eacher	-12.6249
▁satisfact	-12.625
rval	-12.6251
▁bro	-12.6251
▁2008	-12.6253
rting	-12.6254
▁rive	-12.6255
HEU	-12.6255
▁pure	-12.6255
CS	-12.6256
Mont	-12.6256
vora	-12.6256
=0.2	-12.6257
▁bald	-12.6257
nership	-12.6258
▁guil	-12.6258
▁Words	-12.6259
▁scent	-12.6259
01)	-12.6259
REE	-12.6259
▁originally	-12.626
oline	-12.626
▁Air	-12.6261
22	-12.6262
▁voyages	-12.6263
▁Williams	-12.6263
lli	-12.6265
▁liability	-12.6267
▁hundredth	-12.6267
ASS	-12.6267
Santa	-12.6268
quire	-12.627
distances	-12.6272
classify	-12.6273
▁COMM	-12.6273
▁responses	-12.6274
▁amplif	-12.6275
▁Try	-12.6276
▁objections	-12.6277
((-1,	-12.6277
ASTE	-12.6278
=(0,	-12.6278
alternately	-12.6279
▁Jer	-12.6281
▁1984.	-12.6281
ATIONS	-12.6282
▁wondered	-12.6283
▁hinge	-12.6283
kins	-12.6283
▁<10.11	-12.6286
▁expand	-12.6287
.058	-12.6287
uality	-12.6287
▁NAs	-12.6289
Bill	-12.6291
▁Believ	-12.6292
▁Features	-12.6293
▁overwhelming	-12.6293
news	-12.6294
▁mobil	-12.6294
▁dock	-12.6296
▁Seb	-12.6297
▁invalidate	-12.6297
▁smallest	-12.6298
riot	-12.63
▁AF	-12.6301
▁finance	-12.6302
lined	-12.6302
▁beating	-12.6302
▁interrupted	-12.6303
▁siege	-12.6304
▁Pip	-12.6308
ttering	-12.6309
▁curt	-12.6309
Tv	-12.631
-17+	-12.6312
▁sanctifi	-12.6312
UCH	-12.6313
▁negatively	-12.6315
▁consent	-12.6315
▁Arg	-12.6315
berg	-12.6316
▁Beside	-12.6316
▁chew	-12.6318
inute	-12.632
▁seat	-12.632
▁bucke	-12.632
|_1`	-12.6321
[5]	-12.6321
▁jury	-12.6322
ixture	-12.6322
gated	-12.6324
▁adv	-12.6324
Keras	-12.6326
▁DON	-12.6328
vity	-12.6328
passive	-12.6329
REAT	-12.6329
▁soup	-12.633
ggage	-12.633
▁busi	-12.6331
DP	-12.6331
▁occurs	-12.6335
▁rec	-12.6335
▁Afri	-12.6336
(400	-12.6338
urling	-12.6339
Kids	-12.6341
▁confine	-12.6342
▁Ven	-12.6345
▁simpler	-12.6346
▁bra	-12.6347
▁dynamics	-12.6347
▁differentiate	-12.635
-16+	-12.635
▁{:.	-12.6351
▁habits	-12.6351
▁Peters	-12.6352
▁indexes	-12.6354
barrel	-12.6354
▁97.	-12.6355
▁93.	-12.6355
▁entrances	-12.6356
urkey	-12.6357
▁stag	-12.6359
▁tempt	-12.6359
SES	-12.6361
thi	-12.6362
▁Matrix	-12.6363
normalize	-12.6364
▁Guides	-12.6365
roes	-12.6365
Cor	-12.6365
▁revert	-12.6367
tified	-12.6368
▁Que	-12.637
▁1000)	-12.637
Bla	-12.637
rogrammatically	-12.6371
▁damages	-12.6372
▁weighty	-12.6377
▁Large	-12.6377
▁likes	-12.6377
Ko	-12.6378
▁beach	-12.6378
▁SOME	-12.6379
}))`.	-12.6379
▁regiments	-12.638
roduced	-12.6383
▁itertools	-12.6383
▁Planets	-12.6383
▁Patrick	-12.6383
▁Usage	-12.6384
▁likelihood	-12.6384
▁Pipeline	-12.6384
▁CardGroup	-12.6384
051	-12.6384
▁Integral	-12.6384
▁MultiTaskLasso	-12.6385
▁GroupedPmdarima	-12.6385
▁spank	-12.6386
▁heredit	-12.6386
▁mathematician	-12.6387
▁rage	-12.6387
▁WORK	-12.6387
USER	-12.6388
▁Bird	-12.6388
▁neighbors	-12.6391
▁fault	-12.6395
sgd	-12.6397
▁5**	-12.6398
▁weave	-12.64
cap	-12.64
▁strikes	-12.6401
gered	-12.6401
apabl	-12.6402
sq	-12.6403
▁patterns	-12.6403
▁defeat	-12.6404
▁settlements	-12.6405
▁chemicals	-12.6405
ultan	-12.641
▁vote	-12.6411
Fence	-12.6412
("{	-12.6413
▁seasonal	-12.6414
bit	-12.6414
▁hood	-12.6414
1999	-12.6417
lear	-12.6417
saddle	-12.6419
Cypr	-12.6421
▁counsell	-12.6422
▁unto	-12.6422
1,...,	-12.6422
▁0.5]	-12.6423
KS	-12.6425
Eu	-12.6426
hoff	-12.6428
▁adventures	-12.6428
▁Mount	-12.6429
▁decade	-12.643
Tag	-12.6431
By	-12.6432
▁accessed	-12.6432
pad	-12.6433
▁cups	-12.6435
▁applica	-12.6435
▁OMP	-12.6435
ackend	-12.6441
nted	-12.6442
plex	-12.6442
aws	-12.6442
doo	-12.6444
▁shell	-12.6446
NATION	-12.6446
▁milker	-12.6447
convex	-12.6447
▁98.	-12.6448
||_2^2}	-12.6452
atermelons	-12.6455
iest	-12.6457
▁suggestions	-12.6458
▁TV	-12.646
▁fanc	-12.6461
▁manipulat	-12.6465
▁Lapi	-12.6465
▁quit	-12.6474
arni	-12.6476
RIT	-12.6477
▁cleared	-12.6477
▁Got	-12.6477
msg	-12.6481
COND	-12.6483
▁peri	-12.6492
110	-12.6495
endan	-12.6496
ole	-12.6496
▁[[0.	-12.6497
▁protectionis	-12.6497
▁executions	-12.6499
▁bodyguards	-12.6499
▁whi	-12.65
oud	-12.65
▁fuse	-12.6501
)[0]	-12.6501
▁probable	-12.6501
▁Gil	-12.6502
▁stre	-12.6503
▁enquir	-12.6505
▁graduate	-12.6505
▁Class	-12.6506
eceived	-12.6507
▁computations	-12.6507
cket	-12.6507
Dea	-12.6507
bearable	-12.651
▁implie	-12.6511
▁reports	-12.6511
▁specifie	-12.6514
▁ENG	-12.6514
▁Pieter	-12.6515
Lic	-12.6521
▁lone	-12.6521
▁shade	-12.6523
vitation	-12.6524
oned	-12.6526
▁Commi	-12.6528
GR	-12.653
▁Carlo	-12.6531
▁2006	-12.6532
01.	-12.6533
gotten	-12.6535
▁che	-12.6536
▁cor	-12.6536
▁0.19	-12.6537
mong	-12.6542
lready	-12.6545
▁husbands	-12.6546
▁explanations	-12.6546
▁temperatures	-12.6547
Ste	-12.6547
ASE	-12.6552
arc	-12.6553
▁Trade	-12.6554
▁evenings	-12.6557
▁(\"	-12.6559
stealing	-12.656
▁pans	-12.6563
▁checked	-12.6563
▁IRIS	-12.6564
ormalization	-12.6567
ffe	-12.6569
▁automatic	-12.6575
cu	-12.6579
ULT	-12.658
ajes	-12.6581
962	-12.6586
▁inplace	-12.6588
▁DFT	-12.6588
{{1}-	-12.6589
▁bears	-12.6591
▁TEST	-12.6594
▁RACE	-12.6595
dreaming	-12.6595
▁Berlin	-12.6596
ightened	-12.6596
▁pivot	-12.6596
INE	-12.6597
▁SE	-12.6598
URES	-12.66
▁mob	-12.6603
▁marking	-12.6603
▁ol	-12.6605
▁cuts	-12.6606
09.1	-12.6609
Raa	-12.6611
+1)	-12.6618
_.__	-12.6619
ort	-12.662
▁empti	-12.662
Directory	-12.662
▁momentum	-12.6623
▁MyModel	-12.6624
vice	-12.6628
▁amuse	-12.6631
▁carve	-12.6642
▁calculations	-12.6645
▁fortune	-12.6646
▁reporter	-12.6646
DS	-12.6647
▁haven	-12.6647
▁Ad	-12.6648
▁celebrate	-12.6649
▁Hell	-12.6654
spa	-12.6656
▁Estimator	-12.6659
▁92.	-12.666
>`__)	-12.6663
String	-12.6664
▁OUT	-12.6664
ocieties	-12.6665
charge	-12.6666
elli	-12.6668
orway	-12.6668
▁needless	-12.6668
*:	-12.6671
▁vision	-12.6671
▁95.	-12.6672
▁weaken	-12.6675
▁boards	-12.6675
kop	-12.6678
▁trials	-12.6684
>31	-12.6686
▁shave	-12.6688
▁conferences	-12.6689
^2,	-12.6689
▁Rou	-12.6691
▁alleg	-12.6692
▁towns	-12.6696
▁gene	-12.6697
ddy	-12.6697
tched	-12.6697
▁Operat	-12.6699
▁preserv	-12.6701
0102":"20130104"	-12.6703
▁afore	-12.6704
▁Men	-12.6705
ins	-12.6708
▁Wil	-12.6709
▁approv	-12.6711
▁[1]_	-12.6712
▁spi	-12.6714
ham	-12.6715
oves	-12.6716
sorting	-12.6717
aden	-12.6718
▁sage	-12.672
▁Senat	-12.6723
illion	-12.6723
▁rooms	-12.6724
▁ador	-12.6725
▁[2]_	-12.6727
▁unl	-12.6729
▁hom	-12.6729
(12)	-12.673
▁HE	-12.6731
Too	-12.6738
▁rename	-12.6741
tigate	-12.6745
memorial	-12.6746
▁Compos	-12.6748
Integers	-12.6749
=0`	-12.675
aritz	-12.6751
▁spiritual	-12.6755
▁emotion	-12.6758
lash	-12.6759
▁Charl	-12.6759
isch	-12.6761
:00	-12.6768
▁overload	-12.6769
▁(20,	-12.6769
▁4)	-12.6774
illo	-12.6776
▁dictat	-12.678
▁originate	-12.678
SCO	-12.678
GING	-12.6781
fugitives	-12.6781
013	-12.6783
Got	-12.6784
prices	-12.679
▁promises	-12.6791
▁SA	-12.6794
aaab	-12.6797
▁slid	-12.6797
▁retreat	-12.68
plugins	-12.6801
▁SIN	-12.6802
▁storm	-12.6809
▁UMZULEK	-12.681
hinge	-12.681
▁Chap	-12.6811
slides	-12.6812
▁brute	-12.6813
mate	-12.6814
Story	-12.6817
▁Dona	-12.6822
Mauri	-12.6825
LR	-12.6829
Sacr	-12.6829
▁paste	-12.6831
Cy	-12.6833
▁interviews	-12.6835
▁wonders	-12.6835
(200	-12.6838
▁MAID	-12.6839
▁rev	-12.6846
▁OLS	-12.6846
hten	-12.6847
sland	-12.6848
STRICT	-12.6853
=1000)	-12.6856
fort	-12.6858
REED	-12.6858
▁USA	-12.6859
▁weary	-12.686
ab	-12.6866
▁ramble	-12.6869
stochastic	-12.687
`),	-12.6871
casting	-12.6872
ails	-12.6873
anilla	-12.6874
Sat	-12.6878
uture	-12.6879
▁Certain	-12.6879
▁Ref	-12.6883
▁1994	-12.6889
ocus	-12.689
NFERENCE	-12.689
▁preferabl	-12.689
▁Mer	-12.6893
ases	-12.6896
WOR	-12.6899
▁Glo	-12.6905
_22,	-12.6906
RIME	-12.6913
▁interests	-12.692
▁contin	-12.6921
constitute	-12.6922
ABILITY	-12.6927
training	-12.6931
▁rele	-12.6932
hic	-12.6934
▁(7_	-12.6934
liability	-12.6935
▁eco	-12.6936
chett	-12.6938
▁symboli	-12.6942
▁Rexf	-12.6948
ceded	-12.6948
>17	-12.6948
▁1;	-12.6952
▁WOR	-12.6952
DI	-12.6956
BI	-12.6959
royd	-12.696
▁strutt	-12.6963
-1.	-12.6973
▁Physic	-12.6975
Rbe	-12.6976
02	-12.6987
▁Wat	-12.699
▁pause	-12.6995
arious	-12.7001
▁cute	-12.7001
▁Jos	-12.7005
umb	-12.7012
castle	-12.7014
endors	-12.7014
▁Call	-12.7017
1859	-12.7017
erson	-12.7022
ippi	-12.7023
▁lip	-12.7028
▁shoots	-12.7029
▁signs	-12.7029
▁situations	-12.7032
ods	-12.7033
▁Tra	-12.7039
▁controll	-12.7042
▁downward	-12.7047
▁reckon	-12.705
Knight	-12.7054
udged	-12.7056
wer	-12.7057
▁Cu	-12.7059
rings	-12.7063
quity	-12.7079
▁visitation	-12.7079
▁Yan	-12.7081
weekly	-12.7086
▁inch	-12.709
▁intro	-12.709
▁bands	-12.7095
▁205	-12.7097
omba	-12.7099
▁tre	-12.7117
▁practices	-12.7117
minutely	-12.7118
hik	-12.7126
mbass	-12.713
▁colli	-12.7132
ington	-12.7134
▁Via	-12.7138
▁circles	-12.7139
▁Rene	-12.7145
▁90.	-12.7146
sz	-12.7147
SEL	-12.7148
Start	-12.715
▁persons	-12.7151
▁confess	-12.7156
▁intersect	-12.7161
▁OOM	-12.7163
stacking	-12.7165
ador	-12.7167
_(	-12.7173
▁Sk	-12.7175
▁Cel	-12.7179
▁vi	-12.7181
...])	-12.7182
▁confirm	-12.7184
acos	-12.7186
astly	-12.7193
Ada	-12.72
▁cardi	-12.72
▁35	-12.7208
tainable	-12.7218
MultiTask	-12.722
nching	-12.7226
ndependent	-12.7228
▁reading	-12.7234
)])	-12.7235
▁1]).	-12.7236
028	-12.724
017	-12.7243
▁customiz	-12.7244
pound	-12.7248
Al	-12.725
Nhg	-12.7251
erber	-12.7251
▁registry	-12.7252
[-1])	-12.7252
▁argu	-12.7253
▁headed	-12.7256
▁(28	-12.7258
▁refresh	-12.7264
thin	-12.7264
Temporar	-12.727
OU	-12.727
▁vict	-12.7272
▁27	-12.7273
King	-12.7274
▁tonight	-12.7276
▁compass	-12.7278
▁ElasticNet	-12.7278
creds	-12.7279
▁parameterize	-12.7281
▁lure	-12.7281
aved	-12.7285
chased	-12.7287
▁AD	-12.7289
▁constraints	-12.7291
▁202	-12.7291
Zu	-12.7294
▁hind	-12.7295
llets	-12.7295
=10)	-12.7296
▁~~~~~	-12.7307
▁DI	-12.7316
▁Ned	-12.7323
umin	-12.7325
Rdf	-12.7327
rov	-12.7329
▁somewh	-12.733
▁NB	-12.7331
▁wars	-12.7336
botsibini	-12.734
▁pip	-12.7344
rip	-12.7348
(6)	-12.7349
▁Hist	-12.735
SV	-12.7357
▁tremble	-12.7359
▁PU	-12.7361
▁Ali	-12.7364
▁Concept	-12.7365
▁Bre	-12.737
Extra	-12.7372
▁raining	-12.7387
▁accounts	-12.7387
=2,	-12.7393
Rbd	-12.7393
▁Ga	-12.7394
▁Tw	-12.7402
DE	-12.7403
▁swam	-12.7404
xf	-12.7404
iner	-12.7406
ump	-12.7406
▁(+	-12.7413
Mc	-12.7415
stretche	-12.7416
▁AC	-12.7424
apor	-12.7427
▁benefi	-12.7442
▁item	-12.7447
fr	-12.7454
ban	-12.7455
cipalit	-12.7456
UP	-12.7458
▁carrier	-12.7463
2004)	-12.7464
▁LE	-12.7466
▁sights	-12.7466
designated	-12.7467
▁PageCard	-12.7472
▁uv	-12.7477
▁43	-12.748
-17	-12.748
▁3])	-12.7482
▁infl	-12.7485
=3	-12.7489
▁tackle	-12.7495
row	-12.7496
▁Build	-12.7508
▁const	-12.7508
fare	-12.7515
verse	-12.7516
ek	-12.7519
▁23,	-12.752
||_	-12.7522
map	-12.753
nning	-12.7533
taneous	-12.7533
▁communit	-12.7534
▁occurr	-12.7535
horne	-12.7535
▁slo	-12.754
gon	-12.7541
▁revers	-12.7545
▁dtrain	-12.7547
analytics	-12.7548
▁instan	-12.7561
▁snu	-12.7561
▁ignoran	-12.7563
▁FORM	-12.7568
_20	-12.7576
▁IM	-12.7578
wn	-12.7588
ICK	-12.759
▁(6)	-12.7593
0``	-12.7597
WH	-12.7607
hir	-12.7616
▁Print	-12.7617
▁87	-12.7622
alk	-12.7626
boat	-12.7632
Ref	-12.7639
▁vers	-12.7641
ROBLE	-12.7642
aseball	-12.7644
▁visualize	-12.7649
▁23	-12.7659
AID	-12.766
>"	-12.7663
▁volumes	-12.7664
ust	-12.7666
placement	-12.7673
eries	-12.7674
Resh	-12.7675
hould	-12.7678
lizing	-12.7683
(1	-12.7687
▁Kat	-12.7691
PO	-12.7698
▁pytorch	-12.7698
ints	-12.77
irst	-12.7707
▁principalit	-12.7711
iza	-12.7715
throat	-12.7719
ltered	-12.7719
ENE	-12.7722
umes	-12.7732
technic	-12.7734
▁npr	-12.7743
heu	-12.7749
=["1"	-12.7753
▁emitt	-12.7757
▁shorten	-12.7758
aic	-12.7761
▁Dic	-12.7762
!--	-12.7763
ently	-12.7767
Rexd	-12.777
ogene	-12.778
fulness	-12.7781
▁truck	-12.7781
▁upbr	-12.7788
lebr	-12.7789
▁Wol	-12.7792
32`	-12.7796
▁parting	-12.78
▁Ef	-12.7804
▁embedd	-12.7805
▁REG	-12.782
eaking	-12.7821
urch	-12.7825
▁joll	-12.784
BA	-12.7843
nM	-12.7843
stick	-12.7843
ater	-12.7846
▁shuffle	-12.7849
▁minds	-12.7853
▁lion	-12.786
?'	-12.7862
▁converge	-12.7864
100).	-12.7875
AG	-12.7879
▁Sr	-12.7881
▁dz	-12.789
hered	-12.7897
▁-----------	-12.7898
▁fl	-12.7904
Med	-12.7918
▁topic	-12.7925
28	-12.7936
SE	-12.7947
▁overlap	-12.7948
nvinci	-12.7952
▁10))	-12.7956
hereabouts	-12.7957
ured	-12.7962
[-2.	-12.7963
▁"184	-12.7967
egulation	-12.7967
TP	-12.7977
▁5).	-12.7982
([[0.	-12.7987
-200	-12.799
uded	-12.8001
oils	-12.801
iated	-12.8021
▁equals	-12.8024
_[-1]	-12.8027
uzzl	-12.8034
lient	-12.8036
▁dedicat	-12.8039
▁ft	-12.8041
▁su	-12.8047
▁papers	-12.8049
▁grounds	-12.805
tan	-12.8051
▁territori	-12.8053
lender	-12.8056
zard	-12.8058
▁163	-12.8059
abel	-12.8063
39,	-12.8069
▁toys	-12.8071
Sy	-12.8072
afety	-12.8076
chest	-12.8077
aint	-12.808
▁aff	-12.8083
▁metal	-12.8086
apped	-12.8095
REL	-12.8099
▁Distri	-12.8102
([1.	-12.8102
nline	-12.8102
▁ske	-12.8105
taxed	-12.811
▁353	-12.8114
▁Rcxd	-12.8127
▁-2	-12.8129
▁Sum	-12.813
iation	-12.8134
imple	-12.8134
imsort	-12.8136
▁Inde	-12.8143
easing	-12.8146
▁identi	-12.8149
▁Rais	-12.8149
mid	-12.8152
ollege	-12.8157
hosts	-12.8164
▁Object	-12.8173
ettle	-12.8188
▁[("	-12.8196
▁spin	-12.8198
▁cre	-12.8198
▁Sure	-12.8201
▁68	-12.8207
1919.	-12.8208
▁restrain	-12.821
Choose	-12.8227
ray	-12.8232
▁rem	-12.8255
lic	-12.8258
Us	-12.8258
▁Pro	-12.8262
▁beg	-12.8264
lek	-12.8268
resting	-12.8271
▁(4)	-12.8273
eference	-12.8293
nable	-12.8307
JE	-12.831
nDu	-12.831
-----------	-12.8313
oons	-12.8314
▁Table	-12.8319
lder	-12.8322
▁Bri	-12.8335
imp	-12.8339
Pot	-12.835
▁tests	-12.8352
▁PRE	-12.8352
▁Ben	-12.8354
muni	-12.8354
1)	-12.8357
verage	-12.836
ree	-12.8364
▁"20	-12.8372
▁1985	-12.838
▁188	-12.838
aches	-12.8383
udding	-12.8404
▁sor	-12.841
nches	-12.8414
LORE	-12.8417
cre	-12.842
bee	-12.8439
`_,	-12.8444
▁Van	-12.8447
()``.	-12.8458
aul	-12.8458
zin	-12.8458
▁accus	-12.8463
▁---------	-12.8467
utes	-12.8475
Ri	-12.8484
ouk	-12.8488
patc	-12.8491
▁Wa	-12.8505
nC	-12.8506
038	-12.8508
97.	-12.8527
elect	-12.8539
them	-12.8546
Fin	-12.8547
healthy	-12.8568
merged	-12.8605
fung	-12.8606
bay	-12.8609
192	-12.8609
alth	-12.8619
NY	-12.8625
▁revi	-12.8629
▁Found	-12.8633
▁catboost	-12.864
eceive	-12.8645
▁premier	-12.8649
Schr	-12.8658
ching	-12.8659
di	-12.8659
urn	-12.8668
sophi	-12.8668
iple	-12.8686
inen	-12.8686
nali	-12.8693
rumbling	-12.8698
▁7)	-12.87
lation	-12.8702
lane	-12.8713
xh	-12.8715
Boat	-12.8723
Elli	-12.8734
isk	-12.8738
▁fade	-12.875
Proof	-12.8759
ays	-12.876
Nab	-12.8765
Monte	-12.8765
rowing	-12.8776
▁Tri	-12.8779
arner	-12.8779
▁Fall	-12.8783
wat	-12.8791
Dic	-12.8814
▁0].	-12.8818
hot	-12.8819
other	-12.8825
ances	-12.8836
unat	-12.8847
``:``	-12.8858
▁simpl	-12.8861
ricks	-12.8881
.__	-12.8884
inald	-12.8885
▁``.	-12.8889
comb	-12.8895
18	-12.8905
dot	-12.8908
▁da	-12.8913
Vi	-12.8935
20.	-12.8942
asti	-12.8951
enness	-12.8959
774	-12.896
stics	-12.8961
▁conce	-12.8977
)(	-12.8982
▁resu	-12.8985
ALL	-12.8991
paths	-12.9011
▁unjustifi	-12.9014
nel	-12.9019
▁alike	-12.9023
▁Gan	-12.9025
nF	-12.9033
▁Te	-12.9057
dged	-12.9066
869	-12.9072
ada	-12.9073
▁1.]]	-12.9075
▁ar	-12.9079
▁restrict	-12.908
600	-12.9084
>18	-12.9089
▁manipulate	-12.9091
Logg	-12.9102
96	-12.9104
ongest	-12.9105
▁unw	-12.9106
Wh	-12.9116
Ncd	-12.9121
Mu	-12.9128
▁transferr	-12.9131
4.5	-12.9141
GU	-12.9152
▁FIR	-12.9153
▁Crom	-12.9158
pulse	-12.9159
actic	-12.9183
▁(8	-12.9185
▁des	-12.9187
38	-12.9191
eign	-12.9191
▁electr	-12.9195
Rexa	-12.9198
▁48	-12.9204
Rdh	-12.9206
[...]
