<unk>	0
<s>	0
</s>	0
<reasoning>	0
</reasoning>	0
<tool>	0
<json>	0
<sys>	0
<scratchpad>	0
,	-3.09778
.	-3.42592
▁the	-3.56909
_	-3.85842
▁of	-4.071
▁and	-4.32934
▁to	-4.42389
▁a	-4.60066
▁"	-4.668
4	-4.68909
▁in	-4.70785
5	-4.73115
▁	-4.73161
3	-4.8587
s	-4.89772
6	-4.90977
▁[	-4.93306
:	-5.07627
▁is	-5.12571
(	-5.24084
'	-5.25854
-	-5.25987
▁that	-5.36954
"]	-5.37872
2	-5.45077
▁was	-5.45365
7	-5.45608
▁for	-5.52553
▁=	-5.54198
)	-5.56111
▁he	-5.60092
▁with	-5.61609
▁his	-5.67958
1	-5.70618
▁as	-5.70943
▁be	-5.72089
▁it	-5.72385
▁not	-5.78495
8	-5.80277
;	-5.91104
=	-5.91273
▁by	-5.94217
▁The	-5.94279
▁if	-6.0258
d	-6.02915
▁or	-6.0392
▁`	-6.04043
e	-6.04715
▁I	-6.06002
▁from	-6.07606
▁on	-6.08389
▁which	-6.0896
▁(	-6.10272
▁_	-6.17559
▁at	-6.18196
▁had	-6.19317
▁this	-6.19704
，	-6.20985
▁are	-6.23278
`	-6.29382
O	-6.32255
▁#	-6.37074
▁you	-6.37609
▁have	-6.38316
▁all	-6.41738
a	-6.41917
▁but	-6.44329
▁*	-6.44949
▁de	-6.47272
▁were	-6.48621
▁they	-6.49039
▁him	-6.50646
▁we	-6.55804
▁an	-6.5695
▁their	-6.59924
n	-6.6081
c	-6.62469
t	-6.63035
White	-6.64535
Black	-6.64758
Elo	-6.67012
▁d	-6.67277
▁one	-6.69859
▁:	-6.72456
f	-6.72651
▁will	-6.73688
x	-6.76434
▁them	-6.79386
"	-6.8068
▁so	-6.84069
."	-6.84165
",	-6.84311
▁e	-6.84427
ing	-6.85548
▁1.	-6.85705
▁no	-6.85997
▁return	-6.86299
":	-6.86899
▁c	-6.87304
b	-6.8959
▁None	-6.90731
▁>>>	-6.92987
▁He	-6.92992
):	-6.94622
▁A	-6.94851
▁who	-6.95391
▁has	-6.97357
▁her	-6.9972
▁self	-6.9976
Nf	-7.01092
▁been	-7.03681
▁would	-7.03743
▁when	-7.03976
g	-7.04544
▁b	-7.06411
▁name	-7.07272
▁out	-7.07301
▁f	-7.0731
▁there	-7.08398
▁)	-7.08716
▁input	-7.10464
▁Nf	-7.14092
▁more	-7.14734
▁la	-7.15062
[	-7.15576
C	-7.16603
’	-7.17099
.??	-7.17123
ed	-7.17424
▁It	-7.18203
h	-7.18583
▁dtype	-7.20635
math	-7.21104
▁"""	-7.2126
▁God	-7.21308
▁can	-7.21912
▁2.	-7.22335
▁me	-7.22475
▁any	-7.2334
▁g	-7.23689
。	-7.23765
▁If	-7.24098
▁time	-7.24378
Nc	-7.248
▁do	-7.2539
▁other	-7.25782
▁some	-7.26408
▁into	-7.27542
]	-7.28182
▁4.	-7.28375
▁up	-7.2883
▁3.	-7.28908
input	-7.29577
\	-7.29594
▁5.	-7.29925
▁than	-7.30622
▁its	-7.31504
▁she	-7.31574
▁Be	-7.31915
▁only	-7.32326
▁``	-7.32645
▁6.	-7.32781
▁8.	-7.32784
▁7.	-7.33033
▁9.	-7.33194
▁our	-7.33355
size	-7.3404
y	-7.34103
▁10.	-7.34812
▁x	-7.35103
▁man	-7.35145
▁12.	-7.35222
Round	-7.35509
▁11.	-7.35594
Date	-7.35693
Event	-7.36052
Site	-7.3618
ECO	-7.36406
Result	-7.36462
▁13.	-7.36686
▁14.	-7.37338
▁def	-7.38236
▁15.	-7.38369
▁must	-7.38673
?	-7.38897
▁16.	-7.38907
dtype	-7.39674
▁may	-7.39935
▁Nc	-7.39951
▁17.	-7.41197
▁Re	-7.41695
▁This	-7.41736
▁18.	-7.42359
▁In	-7.42432
▁""]	-7.42616
▁1	-7.42814
▁“	-7.43229
▁O	-7.43579
▁my	-7.43663
int	-7.44436
▁19.	-7.44824
▁said	-7.4537
▁upon	-7.45412
▁20.	-7.459
0"]	-7.46095
name	-7.46291
▁21.	-7.48281
!	-7.48399
▁first	-7.49132
▁model	-7.49179
▁these	-7.49656
▁et	-7.49889
▁'	-7.49892
▁what	-7.50432
▁where	-7.50598
()	-7.50697
▁22.	-7.50969
▁Ne	-7.5151
/	-7.5151
▁un	-7.52341
▁about	-7.52399
Ne	-7.52555
▁@	-7.52747
▁h	-7.53077
▁old	-7.53793
▁23.	-7.54125
float	-7.54681
▁before	-7.54899
Tensor	-7.55086
4+	-7.55257
▁could	-7.55287
▁else	-7.55963
,"	-7.56165
▁made	-7.56566
▁24.	-7.56617
Re	-7.56801
▁same	-7.56828
Bc	-7.56829
▁then	-7.57049
▁But	-7.57128
▁torch	-7.57199
i	-7.57222
▁Gutenberg	-7.57308
▁Mr	-7.57313
▁two	-7.57495
self	-7.57587
▁work	-7.58701
Bd	-7.58793
D	-7.58883
Be	-7.59057
▁such	-7.59063
▁being	-7.59144
▁shape	-7.5963
▁over	-7.60338
▁25.	-7.60822
5+	-7.61411
▁should	-7.61606
▁l	-7.61868
tf	-7.6249
▁Project	-7.63111
--	-7.63112
▁26.	-7.63274
Kf	-7.63854
▁le	-7.64494
torch	-7.64801
▁y	-7.66011
▁after	-7.66235
to	-7.66586
u	-7.67094
▁27.	-7.67817
▁us	-7.68493
),	-7.68558
Qe	-7.68813
▁Nd	-7.69024
▁now	-7.69533
in	-7.69611
▁-	-7.69791
▁output	-7.69913
▁Bg	-7.70454
▁And	-7.71444
▁For	-7.71743
▁your	-7.71754
▁Bd	-7.71776
▁28.	-7.71927
▁each	-7.71961
▁life	-7.74245
▁à	-7.7461
▁men	-7.7493
6+	-7.76315
Nd	-7.7639
▁29.	-7.76588
I	-7.77348
▁Qe	-7.78748
▁Kf	-7.79029
`.	-7.7911
▁tf	-7.79293
("	-7.8069
▁also	-7.80726
▁30.	-7.80892
▁great	-7.81347
▁tensor	-7.814
er	-7.81656
▁many	-7.81678
▁+	-7.81837
▁very	-7.82146
▁use	-7.82356
Qd	-7.82538
r	-7.82752
▁most	-7.83738
▁own	-7.83997
Rf	-7.84111
▁31.	-7.85833
7+	-7.85871
Bb	-7.85922
3+	-7.86388
None	-7.86417
▁{	-7.86562
▁==	-7.86836
▁did	-7.87078
▁like	-7.87289
▁much	-7.87469
")	-7.88019
▁set	-7.88731
▁way	-7.89356
▁2	-7.89598
▁32.	-7.89998
▁little	-7.90562
▁new	-7.90571
``	-7.90702
▁Rd	-7.90729
Rd	-7.90936
ly	-7.91518
▁good	-7.91746
▁que	-7.92142
▁day	-7.92242
?"	-7.92395
▁n	-7.92569
▁Kg	-7.92751
▁Qd	-7.92811
▁number	-7.93222
▁Ke	-7.93719
▁down	-7.93767
▁They	-7.94237
▁without	-7.94363
is	-7.94426
2+	-7.94689
▁Tensor	-7.94725
▁those	-7.94946
▁33.	-7.95262
▁<	-7.95585
}	-7.95748
▁result	-7.95859
▁see	-7.96116
▁size	-7.9631
Ke	-7.9649
™	-7.96612
▁exf	-7.96988
Kg	-7.97016
Bxf	-7.97115
▁under	-7.97367
▁--	-7.98458
▁import	-7.98602
:`	-7.99223
▁34.	-7.99987
▁shall	-8.00341
weight	-8.00514
▁here	-8.00875
A	-8.01032
model	-8.01235
▁came	-8.01682
▁des	-8.01782
m	-8.01872
shape	-8.02767
▁ich	-8.03811
▁35.	-8.03984
▁people	-8.04079
E	-8.0414
▁himself	-8.04293
▁values	-8.04675
nn	-8.04886
tensor	-8.04985
▁against	-8.05217
▁through	-8.05325
▁There	-8.05596
▁Bc	-8.05924
Qf	-8.06041
▁never	-8.0621
▁raise	-8.06616
th	-8.06698
▁Kd	-8.07045
▁\	-8.07137
▁We	-8.07297
▁make	-8.0839
S	-8.08513
▁Christ	-8.08806
：「	-8.09241
1/2-1/2	-8.09549
▁well	-8.09875
▁His	-8.09889
▁36.	-8.10115
Bg	-8.10502
▁get	-8.10964
▁Bb	-8.11174
▁value	-8.11311
Kh	-8.11512
▁Bf	-8.11667
1+	-8.12512
▁last	-8.1292
->	-8.12989
Kd	-8.13009
▁found	-8.13117
▁default	-8.13217
▁state	-8.13498
o	-8.13822
es	-8.13941
▁i	-8.14187
▁array	-8.14982
▁False	-8.15111
▁37.	-8.15233
The	-8.15571
k	-8.15666
▁Rc	-8.15979
▁world	-8.16129
▁used	-8.1615
▁Rf	-8.164
▁long	-8.16803
8+	-8.16871
▁might	-8.16876
▁See	-8.16944
▁type	-8.17156
▁come	-8.17215
▁know	-8.17372
or	-8.17763
▁things	-8.17785
▁part	-8.17897
▁how	-8.18246
▁every	-8.18483
▁Lord	-8.18524
▁les	-8.18633
▁bool	-8.19324
dict	-8.20129
▁int	-8.20299
▁0	-8.21044
ops	-8.21199
▁38.	-8.21353
▁qui	-8.21736
▁1-0	-8.21757
Bf	-8.21999
▁"1-	-8.22646
▁data	-8.22707
▁while	-8.22826
exd	-8.23201
▁both	-8.23249
Rc	-8.23439
▁du	-8.2361
).	-8.2379
▁back	-8.23874
▁place	-8.24747
▁full	-8.25012
▁thought	-8.25197
▁Qc	-8.25356
▁dans	-8.25669
▁called	-8.25718
▁between	-8.25842
▁function	-8.25843
▁np	-8.26209
▁C	-8.26291
▁yet	-8.26373
▁True	-8.26882
▁p	-8.26941
▁39.	-8.27297
en	-8.27367
▁even	-8.27458
False	-8.2752
config	-8.27594
▁Qf	-8.27631
True	-8.27809
v	-8.27916
▁go	-8.28265
attr	-8.283
▁St	-8.28401
▁Ng	-8.28535
keys	-8.28765
dispatch	-8.29104
▁Kh	-8.29839
mask	-8.29931
▁again	-8.30011
re	-8.30046
max	-8.30117
▁40.	-8.30124
▁en	-8.30134
▁une	-8.30461
▁works	-8.30642
▁though	-8.3097
▁hand	-8.31395
Qc	-8.31512
ll	-8.31691
▁another	-8.32129
▁went	-8.3279
▁too	-8.33087
▁...	-8.33957
▁John	-8.34295
▁Rg	-8.34739
▁take	-8.34846
▁given	-8.35399
▁numpy	-8.35782
▁New	-8.35836
▁il	-8.36176
`,	-8.36517
▁r	-8.36933
▁years	-8.37847
▁Returns	-8.37978
▁Nxd	-8.3873
▁Optional	-8.38775
add	-8.38884
▁device	-8.38948
▁axis	-8.3906
class	-8.39274
▁3	-8.39348
the	-8.39632
▁qu	-8.39786
▁You	-8.3985
▁away	-8.39997
▁E	-8.40537
▁Rb	-8.40697
▁When	-8.40851
▁{"	-8.41157
▁reduction	-8.41296
▁41.	-8.41405
▁She	-8.41405
Rg	-8.41629
▁within	-8.42458
▁off	-8.42529
▁because	-8.43041
▁Bxf	-8.43114
function	-8.43299
],	-8.43358
0-1	-8.43365
▁war	-8.43543
il	-8.43597
。」	-8.43762
▁still	-8.44352
▁und	-8.44357
{	-8.44535
Nxd	-8.44781
context	-8.45076
state	-8.45097
Ng	-8.45151
indices	-8.45364
,”	-8.4545
▁king	-8.45459
▁Ra	-8.45461
▁true	-8.45536
▁ever	-8.45602
="	-8.45605
▁group	-8.45643
▁weight	-8.45704
device	-8.45913
▁say	-8.45939
▁Qh	-8.46038
▁float	-8.46286
Rb	-8.46331
▁house	-8.46364
▁0-1	-8.46594
.--	-8.46781
est	-8.47306
▁To	-8.47842
get	-8.47982
▁optional	-8.48058
▁Mary	-8.48139
▁dimensions	-8.48181
"}	-8.48675
▁v	-8.48757
▁42.	-8.48945
▁right	-8.49066
▁loss	-8.49112
Ra	-8.492
▁Nxe	-8.49265
▁always	-8.49278
▁word	-8.49352
Nxe	-8.49787
▁die	-8.49846
▁son	-8.50025
B	-8.50151
▁few	-8.50234
▁three	-8.50471
▁Kc	-8.50646
init	-8.50918
dim	-8.51169
Rxf	-8.51351
kwargs	-8.51376
▁key	-8.51495
▁target	-8.51953
category	-8.52306
▁George	-8.52866
Qg	-8.52875
▁end	-8.52907
as	-8.53107
▁operation	-8.53164
response	-8.53276
▁Harvey	-8.53619
instruction	-8.54122
▁got	-8.54215
▁either	-8.54219
▁side	-8.54371
▁43.	-8.54527
"""	-8.54732
num	-8.54769
▁Qg	-8.54827
▁does	-8.54938
mean	-8.55032
▁cxd	-8.55112
Kc	-8.55207
Bxe	-8.5558
loss	-8.55582
on	-8.55966
▁having	-8.55987
▁country	-8.56228
▁B	-8.56492
▁along	-8.56556
▁reduce	-8.56818
index	-8.5697
▁index	-8.57431
▁case	-8.57564
▁Qxd	-8.57623
▁night	-8.57826
▁nothing	-8.57876
Rxe	-8.57992
Rh	-8.58246
▁give	-8.58598
])	-8.58869
▁Rebecca	-8.59093
▁Arg	-8.59487
▁among	-8.595
▁Qb	-8.59665
constant	-8.59765
▁head	-8.59793
▁just	-8.60843
▁order	-8.60945
▁following	-8.6112
▁whom	-8.61437
▁says	-8.61465
▁need	-8.61491
sum	-8.61561
▁find	-8.61621
▁2,	-8.61685
▁Rxe	-8.61824
▁"?	-8.62084
▁put	-8.62233
▁using	-8.6245
N	-8.62899
▁death	-8.63162
▁until	-8.63324
!"	-8.63544
▁&	-8.63677
▁light	-8.637
▁once	-8.63827
output	-8.63893
args	-8.6398
▁F	-8.64059
▁cannot	-8.64096
▁left	-8.64237
▁weights	-8.64381
▁ValueError	-8.64403
▁44.	-8.64528
bool	-8.64606
type	-8.64984
▁S	-8.65163
only	-8.65424
▁mind	-8.65478
▁others	-8.65515
▁church	-8.65534
▁Peter	-8.6557
▁Nb	-8.6573
groupby	-8.65764
Bxd	-8.65805
▁P	-8.66001
▁..	-8.66267
text	-8.6636
▁days	-8.66636
▁brought	-8.6665
▁England	-8.6667
0	-8.66804
▁itself	-8.66819
▁terms	-8.67008
▁told	-8.67412
▁spirit	-8.67476
Qb	-8.67478
Qh	-8.67498
▁seen	-8.67533
▁power	-8.67629
▁am	-8.67654
▁45.	-8.67658
▁known	-8.67658
▁States	-8.67901
str	-8.6825
▁se	-8.68448
▁non	-8.68522
▁Rh	-8.687
▁words	-8.69052
▁several	-8.69054
▁gave	-8.69127
▁M	-8.69199
▁At	-8.6922
▁sent	-8.69525
▁far	-8.69529
un	-8.69538
▁D	-8.69718
▁electronic	-8.69744
▁taken	-8.70033
▁took	-8.70279
head	-8.70461
▁list	-8.70806
.”	-8.70902
▁1,	-8.70918
▁United	-8.71121
▁range	-8.71543
map	-8.71749
reduce	-8.71866
▁keep	-8.72402
▁k	-8.72457
▁Jackson	-8.72647
▁object	-8.72682
p	-8.72705
no	-8.72797
▁nicht	-8.72821
▁par	-8.72842
and	-8.72956
▁str	-8.73496
▁thing	-8.73579
▁sea	-8.73703
1"]	-8.73958
▁That	-8.74073
Qxf	-8.74141
▁nature	-8.74177
▁As	-8.74319
▁saw	-8.74662
道	-8.74788
embeddings	-8.75134
data	-8.75186
▁year	-8.75365
▁single	-8.75657
▁present	-8.76535
▁moment	-8.76577
▁law	-8.76655
Bxc	-8.76763
▁46.	-8.77049
6"]	-8.77194
qa	-8.77362
▁|	-8.77553
weights	-8.77593
▁means	-8.77669
min	-8.77691
np	-8.78023
▁Kb	-8.78068
4"]	-8.78232
func	-8.78315
▁best	-8.78695
▁think	-8.78702
▁df	-8.78703
ch	-8.78735
▁element	-8.78885
with	-8.79083
▁length	-8.79199
▁Bxd	-8.79239
▁love	-8.79507
▁After	-8.79572
array	-8.79722
▁Bxe	-8.79893
attn	-8.7994
▁eyes	-8.80018
▁going	-8.80124
▁mean	-8.80132
▁Default	-8.80158
▁ne	-8.80503
▁dxe	-8.80567
j	-8.80609
▁Qxe	-8.80652
▁THE	-8.80781
.",	-8.80856
isinstance	-8.81006
▁On	-8.81069
▁body	-8.81149
▁es	-8.81209
▁Foundation	-8.81264
▁Nh	-8.81276
▁point	-8.81482
_.--	-8.81602
optional	-8.81825
▁module	-8.81874
▁ce	-8.81879
al	-8.81996
▁Bxc	-8.8212
▁soul	-8.82156
▁example	-8.8237
Kb	-8.82378
ve	-8.82432
▁**	-8.82504
▁different	-8.82647
32,	-8.82964
▁form	-8.83029
▁je	-8.8307
Qxe	-8.83073
▁47.	-8.83326
▁general	-8.83612
*	-8.8362
▁passed	-8.83975
▁nor	-8.84122
▁o	-8.84149
▁James	-8.84374
▁since	-8.84546
file	-8.84639
▁water	-8.84824
▁max	-8.84864
▁themselves	-8.85208
▁OF	-8.85556
▁high	-8.85638
▁public	-8.85719
▁Rxd	-8.85785
▁free	-8.86047
path	-8.86558
cxd	-8.8696
▁Ich	-8.87173
▁version	-8.87392
F	-8.87452
M	-8.87539
Nb	-8.87945
▁gen	-8.88046
▁soon	-8.88287
Rxd	-8.88512
▁above	-8.88872
▁call	-8.89086
'``	-8.8909
▁len	-8.89302
▁face	-8.89357
▁est	-8.89365
l	-8.89425
▁next	-8.8953
▁support	-8.89566
elif	-8.8957
▁Na	-8.89618
▁done	-8.89722
▁young	-8.89942
▁small	-8.9003
▁au	-8.90068
▁48.	-8.90127
axis	-8.9028
▁method	-8.90379
([	-8.90542
▁whole	-8.90667
▁real	-8.90853
▁rather	-8.91089
▁der	-8.9142
▁re	-8.91444
▁pas	-8.91538
▁Bh	-8.91563
Qxd	-8.91639
▁Nxc	-8.91815
▁pour	-8.9204
::	-8.92442
You	-8.92512
▁mir	-8.92594
▁home	-8.92885
▁second	-8.92962
▁rest	-8.93011
▁knew	-8.93367
▁therefore	-8.93521
▁unto	-8.93714
pool	-8.93748
▁returned	-8.93979
▁half	-8.94503
▁already	-8.94706
▁fxe	-8.94857
▁often	-8.94925
▁pass	-8.94967
▁ops	-8.95082
▁zu	-8.95097
key	-8.95389
▁X	-8.95529
▁heart	-8.95541
▁``'	-8.95544
▁better	-8.95548
▁avec	-8.95642
Nxf	-8.9583
9	-8.95963
▁near	-8.95993
attention	-8.96006
▁--------	-8.96615
▁bxc	-8.96653
lm	-8.96822
▁Then	-8.96856
▁49.	-8.96928
dxe	-8.96983
▁error	-8.97431
▁ist	-8.97854
dxc	-8.97953
▁became	-8.98095
▁padding	-8.98115
▁whose	-8.98245
▁attention	-8.98393
K	-8.98472
▁town	-8.9856
▁copy	-8.98697
T	-8.98699
▁keepdims	-8.9873
▁lui	-8.98731
▁large	-8.98775
obj	-8.98803
L	-8.98903
▁sur	-8.99102
Ba	-8.99135
▁No	-8.99253
org	-8.99404
▁So	-8.99476
▁looked	-8.99815
▁tuple	-8.99815
))	-8.99911
▁Series	-8.99954
▁By	-9.00018
▁land	-9.00182
▁father	-9.00233
▁details	-9.00254
▁dimension	-9.00419
▁thus	-9.00505
▁L	-9.00535
▁Rxf	-9.00559
▁DataFrame	-9.00851
▁truth	-9.00953
▁class	-9.01101
complex	-9.01136
():	-9.01196
▁hands	-9.0159
▁min	-9.01645
▁Qa	-9.01744
▁across	-9.01818
z	-9.0183
▁50.	-9.02047
▁together	-9.02311
average	-9.02457
▁seemed	-9.0252
.]	-9.02528
▁Haley	-9.02563
▁times	-9.02591
ids	-9.0265
▁however	-9.02682
▁don	-9.02688
▁enough	-9.02692
▁m	-9.02745
▁reduced	-9.02869
▁less	-9.02924
▁cause	-9.02983
▁help	-9.03008
▁attn	-9.03196
▁points	-9.03393
▁instead	-9.034
▁later	-9.03417
.\	-9.03571
▁received	-9.04085
samples	-9.04305
▁course	-9.04393
▁want	-9.04515
▁Nxf	-9.04558
▁forth	-9.0458
▁asked	-9.04757
▁heard	-9.05366
▁sure	-9.05432
—	-9.05463
...	-9.05548
▁rank	-9.05555
Illustration	-9.05606
▁almost	-9.0571
▁English	-9.05753
▁training	-9.05756
gxf	-9.05851
▁num	-9.05859
▁indices	-9.059
▁check	-9.05906
▁let	-9.05924
▁look	-9.05935
▁something	-9.05959
▁0,	-9.06024
▁laws	-9.0613
▁sparse	-9.06145
▁cast	-9.06168
bxc	-9.0645
8"]	-9.06488
▁till	-9.06536
▁subject	-9.06561
▁sa	-9.06804
▁tell	-9.07158
▁mich	-9.07328
padding	-9.07649
▁four	-9.07706
▁T	-9.07846
▁agreement	-9.07984
▁param	-9.07996
▁mode	-9.08081
us	-9.08092
▁manner	-9.08111
▁mother	-9.08136
▁except	-9.08195
2"]	-9.08369
▁sample	-9.08525
▁shore	-9.08552
▁ser	-9.0881
▁What	-9.08975
What	-9.0912
▁51.	-9.09189
▁early	-9.09238
▁config	-9.09348
▁_(	-9.094
features	-9.09425
▁Qxf	-9.09692
▁These	-9.09892
▁during	-9.09991
▁elements	-9.10145
▁N	-9.1027
來	-9.10275
log	-9.10476
é	-9.11019
hxg	-9.11194
out	-9.11236
▁exd	-9.1129
see	-9.11479
▁original	-9.11576
▁copyright	-9.11595
mode	-9.11596
.__	-9.11605
)`	-9.11865
▁turned	-9.11964
▁history	-9.12047
▁began	-9.1208
▁s	-9.12677
▁matrix	-9.12765
api	-9.12788
▁W	-9.13648
▁kernel	-9.13713
tokens	-9.13735
▁hundred	-9.1387
▁batch	-9.1415
了	-9.14359
▁per	-9.14408
R	-9.14685
▁reason	-9.14882
▁Island	-9.14944
▁er	-9.15342
▁1)	-9.15436
unary	-9.15454
▁Edwards	-9.1566
▁R	-9.15671
fxe	-9.15793
://	-9.16261
▁spiritual	-9.16424
▁ii	-9.1644
dims	-9.16639
st	-9.16646
like	-9.1665
▁handle	-9.16653
▁All	-9.17004
▁human	-9.1722
▁whether	-9.17463
▁William	-9.17465
Bh	-9.1773
▁short	-9.17959
len	-9.17972
▁args	-9.1815
:`~	-9.1824
from	-9.18288
export	-9.18307
!=	-9.18463
▁gxf	-9.18476
▁stride	-9.18518
00	-9.18562
register	-9.18572
▁52.	-9.18858
▁U	-9.19052
▁knowledge	-9.19105
▁person	-9.19115
▁Christian	-9.19374
▁/	-9.19388
Qa	-9.19411
▁least	-9.19475
▁white	-9.19774
sample	-9.19959
▁di	-9.20018
▁matter	-9.20153
Nh	-9.20162
▁friends	-9.20343
▁party	-9.2045
▁Ryanne	-9.20602
▁----------	-9.20913
▁certain	-9.21065
reduction	-9.21143
▁Tuys	-9.21216
module	-9.21414
▁minister	-9.21455
▁added	-9.21475
▁tout	-9.21544
▁An	-9.21621
ant	-9.21736
▁able	-9.21843
▁(`	-9.22264
▁river	-9.22299
▁H	-9.22347
▁One	-9.22502
Na	-9.22641
>	-9.22828
▁possible	-9.23183
▁ein	-9.23382
▁feet	-9.23454
▁>	-9.23455
▁Ba	-9.23774
▁provided	-9.23841
▁account	-9.23903
▁sense	-9.23954
:`(	-9.24002
▁Robert	-9.24183
▁op	-9.24244
segment	-9.2428
sparse	-9.24282
▁held	-9.24692
▁j	-9.24723
的	-9.24809
wise	-9.25143
▁fire	-9.25161
os	-9.25359
te	-9.25391
▁York	-9.25553
▁53.	-9.25583
Nxc	-9.25593
▁das	-9.25598
▁Examples	-9.25719
modules	-9.25841
▁force	-9.26045
▁numeric	-9.26173
▁forward	-9.26708
com	-9.26758
▁os	-9.27008
gradient	-9.27091
▁ye	-9.27218
▁become	-9.27266
▁«	-9.27485
▁kind	-9.27553
▁read	-9.27568
▁Rxc	-9.27841
▁Parameters	-9.28015
▁faith	-9.28126
elementwise	-9.28132
▁live	-9.28416
▁keys	-9.2875
▁met	-9.28965
support	-9.28976
▁hope	-9.29333
``.	-9.29464
▁hxg	-9.29577
▁fact	-9.2983
▁court	-9.30115
▁lay	-9.30343
”	-9.30508
▁3,	-9.30519
of	-9.30625
▁Note	-9.30696
▁coming	-9.30745
une	-9.30811
▁bias	-9.31078
▁dict	-9.31134
▁54.	-9.31151
▁Adams	-9.31514
▁money	-9.31907
▁iii	-9.32049
rank	-9.32067
axb	-9.32152
▁engine	-9.32346
grouper	-9.32347
▁ground	-9.32482
▁stood	-9.32598
▁open	-9.3278
▁Scotland	-9.32876
Rxc	-9.32896
▁morning	-9.33141
▁miles	-9.33297
▁Tom	-9.33691
▁checkpoint	-9.33744
ness	-9.33832
▁glory	-9.33859
▁kwargs	-9.34141
▁try	-9.34241
▁school	-9.34326
base	-9.34366
▁common	-9.34377
implementation	-9.34493
▁plus	-9.34529
▁note	-9.34575
use	-9.34582
quantizer	-9.34587
▁quite	-9.35163
it	-9.35251
▁ready	-9.35267
▁t	-9.35341
▁Mrs	-9.35421
▁NaN	-9.35522
▁religion	-9.35621
gen	-9.35631
▁question	-9.35655
▁[1,	-9.35671
values	-9.35789
▁zero	-9.35936
▁run	-9.35981
▁kept	-9.36015
Footnote	-9.36034
':	-9.36108
▁axb	-9.36371
▁natural	-9.36401
▁scale	-9.36707
▁Here	-9.36717
estimators	-9.36752
▁fait	-9.36782
▁charge	-9.36912
▁-------	-9.36983
▁che	-9.37057
le	-9.37085
bias	-9.37124
▁close	-9.37258
▁fell	-9.37305
He	-9.37321
set	-9.37325
▁greater	-9.37462
一	-9.37513
▁dtypes	-9.37694
an	-9.3772
▁License	-9.37997
▁future	-9.38027
▁particular	-9.38247
▁Henry	-9.38616
It	-9.38839
▁island	-9.38845
plan	-9.38977
▁print	-9.39018
▁Some	-9.39084
count	-9.39226
▁Granny	-9.39243
▁iv	-9.39261
▁Nbd	-9.39335
▁including	-9.39347
list	-9.3938
▁below	-9.39415
▁line	-9.39447
▁hath	-9.39682
▁city	-9.39714
Qxc	-9.39793
▁où	-9.39826
python	-9.40079
▁55.	-9.40276
▁Archive	-9.40479
▁hard	-9.40597
▁Vitellius	-9.40749
▁children	-9.4094
▁carried	-9.40947
▁main	-9.40987
▁making	-9.41094
▁otherwise	-9.41232
▁army	-9.41344
▁show	-9.4151
Bxg	-9.41812
▁further	-9.42164
[0]	-9.42204
▁five	-9.42522
▁died	-9.42704
▁mask	-9.42716
='	-9.4276
▁gone	-9.42804
}"	-9.42901
▁assert	-9.43012
▁leave	-9.43072
▁argument	-9.43301
convert	-9.43305
?”	-9.43542
▁Qxc	-9.43571
▁child	-9.43597
▁character	-9.43633
▁interest	-9.43684
▁Jesus	-9.43701
▁access	-9.43736
▁speak	-9.43758
▁family	-9.43813
nan	-9.43877
▁Joan	-9.4402
▁sum	-9.44118
▁Literary	-9.44217
▁answered	-9.4424
▁polynomial	-9.44399
▁hold	-9.44458
▁Paul	-9.44598
▁log	-9.44861
▁enemy	-9.44902
▁56.	-9.44903
▁considered	-9.44998
factor	-9.45021
"):	-9.45076
▁followed	-9.45283
▁raw	-9.45403
▁types	-9.45423
▁makes	-9.45445
``,	-9.45582
▁twenty	-9.45669
？」	-9.4571
▁pd	-9.45831
▁strong	-9.45945
▁nn	-9.46339
V	-9.4647
▁sort	-9.46504
▁sie	-9.46517
▁J	-9.46547
▁expected	-9.46625
▁embedding	-9.46721
▁road	-9.47048
▁\"	-9.4713
▁cette	-9.47138
▁alone	-9.47144
▁complex	-9.47227
▁business	-9.47253
▁toward	-9.47355
▁si	-9.47674
getattr	-9.47715
P	-9.47802
▁Madonna	-9.47806
▁view	-9.47909
Rae	-9.47939
▁comme	-9.48056
Nxg	-9.48095
▁stand	-9.48268
▁da	-9.48341
value	-9.48394
numpy	-9.48727
▁Alexander	-9.4876
▁provide	-9.48761
zero	-9.48803
▁columns	-9.48864
▁General	-9.48941
▁according	-9.49016
▁seems	-9.49044
▁G	-9.49138
▁removed	-9.49378
▁earth	-9.49401
▁turn	-9.49453
▁continued	-9.49543
▁8	-9.49653
val	-9.49746
▁language	-9.49987
▁Sir	-9.49988
▁change	-9.49992
▁With	-9.50008
▁arguments	-9.50043
▁hear	-9.50044
▁won	-9.50174
▁why	-9.50201
www	-9.50202
▁Him	-9.50287
▁longer	-9.50618
▁start	-9.50656
▁French	-9.50682
▁six	-9.50698
▁window	-9.50831
▁letter	-9.50931
▁Fortune	-9.50968
▁dxc	-9.50972
exf	-9.51013
ers	-9.51026
▁specified	-9.51056
▁distance	-9.51543
▁den	-9.51667
▁gradient	-9.51893
▁idea	-9.51938
▁trademark	-9.52077
▁Mysticism	-9.52198
▁donations	-9.52201
Qxg	-9.52281
proj	-9.52607
▁space	-9.52614
J	-9.52661
▁inplace	-9.52737
ment	-9.52769
doc	-9.52841
grad	-9.52859
▁room	-9.52877
▁names	-9.53201
▁grace	-9.53278
▁arms	-9.53308
w	-9.53374
▁bring	-9.53412
▁care	-9.53418
▁base	-9.53467
)`.	-9.53579
▁train	-9.53663
Rxh	-9.53705
▁inputs	-9.53715
▁act	-9.53757
keepdims	-9.53834
▁func	-9.53835
▁dead	-9.53853
▁):	-9.53897
H	-9.53947
▁57.	-9.5403
▁fxg	-9.54097
▁Ka	-9.54176
0,	-9.54237
time	-9.54261
▁blood	-9.54446
Tal	-9.54467
Rxg	-9.54485
axes	-9.5457
▁appear	-9.54607
▁believe	-9.54661
enum	-9.54674
▁V	-9.54862
▁meet	-9.54923
▁taking	-9.55044
▁Richard	-9.55079
▁save	-9.55134
deprecated	-9.55241
We	-9.55266
▁4,	-9.55332
▁w	-9.5542
▁De	-9.55463
▁integration	-9.55503
▁paragraph	-9.55657
▁file	-9.55692
Rxa	-9.55747
▁However	-9.55855
▁system	-9.56038
▁Also	-9.5611
train	-9.5614
"{	-9.56174
segments	-9.56207
for	-9.56337
▁Et	-9.56396
▁distribution	-9.56435
▁tensors	-9.56638
(),	-9.56943
▁missing	-9.56959
▁heaven	-9.57042
▁negative	-9.57147
▁applied	-9.57211
▁none	-9.57218
▁really	-9.57243
▁From	-9.5725
And	-9.57314
▁thousand	-9.57323
▁felt	-9.57329
BroadcastingList	-9.57347
▁door	-9.57545
▁Open	-9.5759
per	-9.57705
▁hf	-9.57717
▁faithful	-9.57731
general	-9.57758
▁reality	-9.57778
random	-9.57913
▁woman	-9.5804
▁Daudet	-9.58092
▁ten	-9.58123
▁thou	-9.58172
不	-9.58187
▁position	-9.58246
▁purpose	-9.58464
▁education	-9.58531
▁authority	-9.58546
▁lost	-9.58617
▁perhaps	-9.58633
]]	-9.5877
▁1.0	-9.58781
▁supported	-9.58869
▁ndarray	-9.59009
final	-9.59043
▁available	-9.59079
他	-9.59093
我	-9.59219
▁ministers	-9.5928
▁peace	-9.59402
split	-9.59404
▁limit	-9.59543
em	-9.5955
▁living	-9.59668
▁special	-9.59715
▁brother	-9.59748
files	-9.5977
▁Mihail	-9.59773
▁dim	-9.59831
▁former	-9.59899
▁anything	-9.59964
▁9	-9.60105
▁Thus	-9.60159
▁soldiers	-9.60163
X	-9.60326
▁past	-9.60457
▁fear	-9.60513
▁camp	-9.60529
save	-9.60696
▁Rxa	-9.60886
de	-9.60895
▁sight	-9.60907
▁age	-9.60963
▁Bxg	-9.60968
▁laid	-9.60986
▁due	-9.61129
▁sometimes	-9.61237
▁poor	-9.61336
▁nous	-9.61379
▁built	-9.61546
▁follow	-9.61555
32)>	-9.61602
▁individual	-9.61668
▁Of	-9.62125
▁mit	-9.62152
Ka	-9.62189
▁58.	-9.62276
▁indeed	-9.62296
all	-9.62542
▁load	-9.62626
▁habe	-9.62672
▁captain	-9.62736
▁equal	-9.62822
Q	-9.62872
▁voice	-9.62914
norm	-9.63062
▁Rxg	-9.63225
▁process	-9.63234
▁fall	-9.63262
hf	-9.63282
▁American	-9.63439
batch	-9.63488
la	-9.63504
▁answer	-9.63526
pretrained	-9.63631
▁apply	-9.63781
▁Edinburgh	-9.63818
▁low	-9.63883
um	-9.6411
man	-9.64319
Rad	-9.64324
▁ignore	-9.64363
param	-9.64374
ar	-9.64452
你	-9.64505
▁La	-9.6467
▁neither	-9.64693
ra	-9.64826
▁parts	-9.64983
▁tree	-9.6503
▁Rad	-9.65099
▁ship	-9.65122
bit	-9.65186
▁around	-9.65192
▁groups	-9.65249
▁eye	-9.65335
▁State	-9.65367
32_	-9.65559
▁air	-9.65955
,--	-9.66039
▁learning	-9.66048
▁INT	-9.661
▁desired	-9.66138
▁clear	-9.66285
....	-9.66341
▁0.	-9.66356
▁add	-9.66446
Rxb	-9.66456
是	-9.66502
_{	-9.66527
▁Rxb	-9.66661
numba	-9.66677
▁59.	-9.66692
▁Church	-9.66703
▁beginning	-9.66784
▁ses	-9.66962
▁1-	-9.67033
▁book	-9.67043
▁evil	-9.67069
▁chez	-9.67135
▁art	-9.67179
▁mais	-9.67193
ai	-9.67237
▁http	-9.67256
end	-9.6734
house	-9.67411
▁important	-9.67444
▁wife	-9.67455
▁memory	-9.67458
▁Captain	-9.67718
▁```	-9.67904
▁written	-9.67987
▁round	-9.68232
level	-9.68286
▁wanted	-9.68382
▁bound	-9.68456
▁especially	-9.68511
▁required	-9.68551
▁doctrine	-9.68602
64`,	-9.68605
▁0:	-9.68635
▁sequence	-9.68848
▁returns	-9.68897
Nbd	-9.68918
et	-9.68976
method	-9.6904
▁paid	-9.69053
▁coefficients	-9.69094
▁vessel	-9.69259
added	-9.69502
apply	-9.69525
▁Not	-9.69571
dropout	-9.69667
▁desire	-9.69739
corners	-9.69755
▁government	-9.69779
▁foot	-9.69861
▁women	-9.701
▁based	-9.70104
▁respect	-9.70159
iter	-9.70265
▁lives	-9.70298
▁aboard	-9.70491
at	-9.70531
▁led	-9.70534
▁vous	-9.70678
▁running	-9.70751
▁experience	-9.70864
if	-9.70982
▁fit	-9.7105
▁samples	-9.7107
▁service	-9.71139
▁behind	-9.71151
▁doubt	-9.71233
▁didn	-9.71249
inf	-9.71271
▁necessary	-9.71327
▁cut	-9.71353
▁daß	-9.71567
▁persons	-9.71735
▁personality	-9.71747
load	-9.71826
())	-9.71955
▁queen	-9.71984
▁horse	-9.72004
▁noch	-9.72018
▁reached	-9.72139
▁series	-9.72175
▁Rfe	-9.72257
ce	-9.72277
open	-9.72321
▁Can	-9.72392
▁warning	-9.72484
▁council	-9.72521
▁hat	-9.7271
▁Kxf	-9.72711
ic	-9.72723
▁2.0	-9.72806
▁outside	-9.72841
\"	-9.72885
有	-9.73109
▁information	-9.73113
▁field	-9.73157
▁sin	-9.73272
▁K	-9.73283
Qxb	-9.7332
▁understand	-9.73446
▁auf	-9.73547
▁chief	-9.7355
▁President	-9.7357
=(2,	-9.73676
▁pandas	-9.73719
▁King	-9.73753
▁top	-9.73775
:`\	-9.74046
start	-9.74136
▁South	-9.74244
▁10	-9.74409
▁Qxg	-9.74416
na	-9.7454
idx	-9.74573
classes	-9.74574
▁friend	-9.74704
▁Spirit	-9.74718
▁mon	-9.74722
▁latter	-9.74838
▁associated	-9.74948
▁needed	-9.74988
▁appears	-9.75006
▁described	-9.75015
▁current	-9.75243
▁action	-9.75259
▁troops	-9.75267
▁condition	-9.75304
到	-9.75366
▁religious	-9.75375
▁raised	-9.7538
▁Divine	-9.75438
flash	-9.75659
▁located	-9.75667
▁company	-9.7572
compatibility	-9.75724
▁wrote	-9.75815
▁skipna	-9.75943
pop	-9.76034
▁Il	-9.76111
▁boy	-9.76175
none	-9.76295
▁models	-9.76354
▁although	-9.76491
▁Section	-9.76521
▁instance	-9.76551
▁My	-9.7662
▁Do	-9.76836
ia	-9.76904
▁strength	-9.76926
nt	-9.76962
target	-9.77021
▁killed	-9.77063
▁5,	-9.77076
by	-9.77093
▁embeddings	-9.77126
▁Old	-9.77145
▁British	-9.77171
▁image	-9.77293
▁Must	-9.77426
▁init	-9.77576
▁Simmons	-9.77637
['	-9.77637
▁z	-9.77658
▁co	-9.77714
▁places	-9.77736
▁60.	-9.7777
▁dropout	-9.77887
▁integer	-9.77985
▁Rome	-9.78071
▁behavior	-9.78165
▁auch	-9.78212
▁parameters	-9.7827
▁axes	-9.7833
▁fish	-9.78547
▁master	-9.78567
▁agree	-9.78636
sqrt	-9.78706
old	-9.78748
That	-9.7883
▁Qxb	-9.78924
keep	-9.78966
memory	-9.78984
▁dispatch	-9.79144
▁meeting	-9.79187
▁Buno	-9.79241
▁visit	-9.79252
mapping	-9.79411
▁Rae	-9.79454
▁ma	-9.79525
token	-9.79564
▁allowed	-9.79631
▁sentence	-9.79646
predictions	-9.79708
▁bad	-9.79714
▁beyond	-9.79747
▁Apostle	-9.79749
▁con	-9.79772
▁CHAPTER	-9.79858
utenberg	-9.79962
32)	-9.80061
Nora	-9.80078
▁effect	-9.80101
▁["	-9.80108
▁office	-9.80254
▁lived	-9.80297
co	-9.8039
params	-9.80426
▁thy	-9.80683
▁constant	-9.80712
["	-9.80734
在	-9.80853
▁match	-9.80963
▁How	-9.81168
▁paper	-9.8117
eth	-9.81175
▁comes	-9.81186
32`,	-9.81203
▁total	-9.81262
names	-9.81298
▁command	-9.81323
decoder	-9.81325
▁Thomas	-9.81333
▁replied	-9.81383
▁receive	-9.81395
▁sun	-9.81423
▁fine	-9.81425
▁seem	-9.81464
▁late	-9.8147
▁France	-9.81505
之	-9.81723
▁ordered	-9.81886
▁ces	-9.81927
=["	-9.82074
▁Indian	-9.82193
able	-9.82293
▁copies	-9.82311
▁Jenkins	-9.82421
▁fellow	-9.82497
又	-9.82504
id	-9.82613
available	-9.82707
times	-9.8289
▁bin	-9.82964
quantized	-9.82987
▁hour	-9.82987
▁\\	-9.83055
also	-9.83079
▁born	-9.83232
not	-9.83259
real	-9.83309
▁random	-9.8352
▁culture	-9.83552
▁myself	-9.83701
▁battle	-9.8374
▁warnings	-9.83744
▁doch	-9.83757
▁preached	-9.83761
▁segment	-9.83802
▁century	-9.83924
▁feel	-9.84059
▁While	-9.84089
▁danger	-9.84092
▁wind	-9.84248
group	-9.84451
▁safe	-9.84566
▁period	-9.84604
▁wish	-9.84682
▁message	-9.848
prefix	-9.84848
▁Mahomed	-9.84882
▁table	-9.84938
▁avait	-9.85033
▁black	-9.85046
▁Rxh	-9.8506
▁simple	-9.85154
chess	-9.85188
▁theory	-9.85222
▁logger	-9.8527
ne	-9.85279
parameters	-9.85282
▁Now	-9.8536
▁Major	-9.85415
▁Cape	-9.85539
▁freedom	-9.8556
▁degree	-9.85616
heads	-9.85707
▁doing	-9.85809
leaf	-9.85867
▁deprecated	-9.85915
▁status	-9.85979
▁plan	-9.86096
▁»	-9.86223
▁holy	-9.86339
▁front	-9.86368
▁Jack	-9.86403
▁include	-9.86443
這	-9.86503
▁Boston	-9.86601
alpha	-9.86632
No	-9.86668
▁assembly	-9.86837
▁format	-9.86888
Greek	-9.86944
▁lord	-9.87055
Lucio	-9.87114
▁Plymouth	-9.87121
▁um	-9.87157
q	-9.87211
Bxb	-9.87307
▁scalar	-9.87323
[1]	-9.87388
el	-9.87451
he	-9.8746
▁accepted	-9.87479
\_	-9.87559
range	-9.87563
▁integral	-9.8757
▁61.	-9.876
說	-9.87727
▁break	-9.87779
▁appeared	-9.8785
▁problem	-9.87858
▁local	-9.87916
▁ou	-9.87928
},	-9.87958
▁nearly	-9.87985
▁Newport	-9.88025
▁Burns	-9.88043
ur	-9.88064
▁user	-9.8815
▁level	-9.88268
ie	-9.88294
▁Bxb	-9.88311
▁spoke	-9.88366
▁res	-9.88383
▁column	-9.88384
▁Swaziland	-9.88424
Kxf	-9.88499
▁philosophy	-9.88526
▁fee	-9.88655
▁page	-9.88718
人	-9.88778
G	-9.88815
fp	-9.88832
▁NA	-9.88882
ub	-9.88939
▁London	-9.88952
▁filled	-9.89052
di	-9.89084
▁ran	-9.89167
')	-9.89185
▁Otho	-9.89251
▁entered	-9.89323
▁im	-9.89438
▁3.0	-9.89444
▁12	-9.89509
▁(1	-9.89511
▁writing	-9.89534
▁easy	-9.89741
▁ancient	-9.89951
▁duty	-9.90194
▁dit	-9.90224
▁consider	-9.90224
▁immediately	-9.90236
lo	-9.90282
去	-9.90331
▁sound	-9.90365
▁map	-9.90469
▁royal	-9.90474
▁distributed	-9.90486
that	-9.906
ait	-9.90703
文新	-9.90727
▁refund	-9.9073
▁converted	-9.90738
▁bien	-9.90771
▁pay	-9.90966
▁needs	-9.91056
▁Warren	-9.91152
▁moi	-9.91213
Alekhine	-9.9125
見	-9.91261
▁containing	-9.91282
▁created	-9.91289
▁Hamilton	-9.91349
ion	-9.91375
▁hours	-9.9145
▁eBook	-9.91604
argument	-9.91657
").	-9.91884
▁stage	-9.91925
▁remained	-9.92092
▁sich	-9.92105
▁heads	-9.92111
▁Roman	-9.92217
▁8,	-9.92272
▁War	-9.92341
▁fully	-9.92344
encoder	-9.92394
▁winter	-9.92406
▁sat	-9.92434
▁Father	-9.92464
▁test	-9.92504
▁beautiful	-9.92522
▁math	-9.92686
Bxh	-9.92721
Qxh	-9.92849
▁attribute	-9.92866
auto	-9.92924
▁named	-9.92944
join	-9.92979
▁0.0	-9.9299
▁Indians	-9.92991
▁sermon	-9.93015
ity	-9.93056
▁compute	-9.93125
But	-9.93184
▁string	-9.93185
▁obtain	-9.93209
▁step	-9.93212
agg	-9.93276
▁date	-9.93278
▁Nxb	-9.93303
oob	-9.93446
check	-9.93484
▁vol	-9.93551
▁notice	-9.93602
▁saying	-9.93776
▁ourselves	-9.93807
▁deep	-9.93947
scale	-9.94028
▁Qxh	-9.94142
tp	-9.94201
▁presence	-9.9421
▁chap	-9.94287
DataFrame	-9.94315
polynomial	-9.94393
▁trees	-9.94398
▁phrase	-9.94403
nearest	-9.94472
▁higher	-9.94495
▁Bay	-9.94508
▁lead	-9.94521
▁strange	-9.94567
▁cost	-9.94679
▁align	-9.94732
cuda	-9.94856
=0)	-9.94922
▁directly	-9.9495
▁fast	-9.95027
▁Governor	-9.95124
▁moral	-9.95139
cast	-9.95212
Reduction	-9.95286
▁prayer	-9.95332
▁obtained	-9.95354
▁disk	-9.95519
▁18	-9.95571
▁Nxg	-9.95629
Nxb	-9.95779
ies	-9.95817
▁infinite	-9.95854
▁setting	-9.95857
▁private	-9.95878
▁influence	-9.95908
▁reference	-9.95954
▁ministry	-9.95971
▁carry	-9.96051
▁fixed	-9.96052
▁direction	-9.96161
▁liberty	-9.9618
▁science	-9.9624
▁story	-9.96309
default	-9.96331
offload	-9.96338
▁code	-9.96358
exp	-9.96428
▁3)	-9.96464
checkpointing	-9.96504
▁entire	-9.96773
▁split	-9.96824
▁believed	-9.96914
▁62.	-9.96981
▁avoid	-9.97008
▁please	-9.97049
▁parameter	-9.97161
▁II	-9.972
▁regard	-9.97246
▁linear	-9.97253
▁TypeError	-9.97313
▁pad	-9.97375
下	-9.97481
ent	-9.97567
▁surface	-9.9768
▁unique	-9.97763
▁standing	-9.97778
▁offered	-9.97811
▁von	-9.97906
NAME	-9.98005
(1,	-9.98027
▁teaching	-9.98041
▁permission	-9.98159
▁caused	-9.98161
▁accept	-9.98211
▁House	-9.98212
▁highest	-9.98256
linprog	-9.98338
▁calls	-9.98345
▁Their	-9.98396
▁dark	-9.98407
▁row	-9.98512
▁wieder	-9.98552
▁testimony	-9.98566
▁AND	-9.98623
▁remove	-9.98637
▁corresponding	-9.9868
▁probably	-9.98693
▁faire	-9.98752
▁takes	-9.98774
▁various	-9.98781
▁fight	-9.98797
▁trouble	-9.98877
ref	-9.98913
就	-9.98997
▁sub	-9.99029
']	-9.99072
▁physical	-9.99086
▁bay	-9.99189
▁expression	-9.99269
DataFrameGroupBy	-9.99477
▁Bxh	-9.99629
var	-9.99692
▁figure	-9.99718
▁pièce	-9.99783
▁sein	-9.99796
▁remember	-9.99906
▁mouth	-9.99969
▁ask	-10.0013
▁material	-10.0014
▁encoder	-10.0015
64,	-10.0019
▁wenn	-10.0022
ndim	-10.0026
▁Let	-10.003
▁success	-10.0031
enabled	-10.0033
▁gives	-10.0033
▁rock	-10.0036
kernel	-10.0049
binary	-10.0058
▁loading	-10.0077
▁looking	-10.0081
▁active	-10.0094
raw	-10.0094
▁broken	-10.0103
▁big	-10.0109
▁divine	-10.011
▁usually	-10.0113
▁aux	-10.0115
▁chance	-10.0127
▁formed	-10.0128
▁greatest	-10.0134
If	-10.0136
▁easily	-10.0137
▁showed	-10.0142
▁picture	-10.0152
`).	-10.0153
▁determined	-10.0156
▁product	-10.0156
▁nation	-10.016
▁coast	-10.0162
▁souls	-10.0169
result	-10.0177
▁eternal	-10.0177
▁feeling	-10.0185
rate	-10.0217
▁3],	-10.0223
▁correct	-10.0224
▁allow	-10.0229
▁David	-10.0231
▁deck	-10.0233
▁rose	-10.0243
▁Fort	-10.0246
▁stone	-10.0249
▁cried	-10.0249
any	-10.0257
▁observed	-10.0272
▁Sie	-10.0273
▁proper	-10.0289
▁afraid	-10.0298
▁houses	-10.0301
▁produced	-10.0304
Title	-10.0312
▁shard	-10.0317
▁sides	-10.0318
]])	-10.0334
▁unexpected	-10.034
▁speech	-10.0351
pad	-10.0351
▁started	-10.0364
▁bug	-10.0375
^	-10.0383
▁dem	-10.0393
▁Edward	-10.0412
▁objects	-10.0423
.)_	-10.0427
▁Whether	-10.0433
▁passing	-10.0445
▁refused	-10.0447
▁bed	-10.0455
▁north	-10.0461
▁em	-10.0461
▁declared	-10.0474
▁functions	-10.0477
▁conscience	-10.048
transform	-10.0481
▁distributing	-10.0482
▁q	-10.0487
▁content	-10.049
▁stop	-10.0495
skipna	-10.0495
▁youth	-10.05
▁token	-10.0504
cxb	-10.051
▁drew	-10.051
new	-10.0511
In	-10.0516
ge	-10.0519
▁attempt	-10.0522
▁boat	-10.0536
▁term	-10.0542
▁walk	-10.0542
▁wir	-10.0551
▁Please	-10.0554
IGHTS	-10.0554
Computes	-10.056
▁1:	-10.0562
▁è	-10.0566
Qxa	-10.0567
▁ways	-10.057
http	-10.0582
▁motion	-10.0582
+	-10.0582
▁evidence	-10.0584
▁concerning	-10.0585
▁corner	-10.0589
▁remain	-10.0589
scope	-10.0591
▁lot	-10.0593
▁civil	-10.0594
This	-10.0595
▁thinking	-10.0595
Don	-10.0599
▁OR	-10.0601
▁rows	-10.0602
▁Use	-10.0603
Kxg	-10.0605
▁eine	-10.0606
▁south	-10.0615
▁towards	-10.0622
▁ago	-10.0627
▁tax	-10.0628
▁becoming	-10.0635
▁heavy	-10.0637
▁kingdom	-10.0666
▁Will	-10.068
時	-10.0703
▁features	-10.0706
▁First	-10.0706
▁positive	-10.0709
▁sleep	-10.0714
ation	-10.0715
▁uses	-10.0716
transpose	-10.0719
▁placed	-10.0722
▁saved	-10.0733
▁eBooks	-10.0735
▁custom	-10.0739
▁nach	-10.0742
▁bank	-10.0761
▁additional	-10.0775
▁com	-10.0777
▁consciousness	-10.0779
▁addition	-10.0782
▁third	-10.0782
▁everything	-10.0785
▁modern	-10.0788
format	-10.079
▁exactly	-10.0792
ratio	-10.0798
▁wherein	-10.0802
▁SeriesGroupBy	-10.081
▁sand	-10.081
▁63.	-10.0819
▁performed	-10.082
▁red	-10.082
me	-10.082
▁mercy	-10.083
▁Vespasian	-10.0831
▁loaded	-10.0834
▁somewhat	-10.0838
▁famous	-10.0845
▁pretrained	-10.0851
1=["	-10.0855
▁parliament	-10.0878
▁German	-10.0883
▁Glasgow	-10.0892
▁numbers	-10.0893
nd	-10.0908
▁knows	-10.091
▁unless	-10.0912
▁ought	-10.0917
▁64.	-10.094
safetensors	-10.094
也	-10.0942
Series	-10.0946
Module	-10.0946
limit	-10.0956
▁states	-10.0962
▁als	-10.0969
▁included	-10.098
▁Son	-10.0983
▁Sebuza	-10.0985
=0,	-10.0986
▁seven	-10.0991
▁quickly	-10.0996
▁passage	-10.0998
▁brethren	-10.0998
▁promise	-10.1
▁disable	-10.1006
core	-10.1017
ta	-10.1017
▁ceil	-10.1024
ro	-10.1025
dir	-10.1026
▁grass	-10.1037
New	-10.1038
▁doesn	-10.1043
▁lines	-10.1052
▁generally	-10.1053
▁absolute	-10.1057
▁dilation	-10.106
▁Jones	-10.1061
▁margin	-10.1069
▁leading	-10.107
▁comply	-10.1072
▁intended	-10.1073
▁grave	-10.1074
▁algorithm	-10.1077
▁walls	-10.1078
=1,	-10.108
▁afternoon	-10.1085
▁arg	-10.1086
▁19	-10.1087
▁craft	-10.1094
Rfe	-10.1112
▁variant	-10.1116
▁pre	-10.112
▁May	-10.114
▁judgment	-10.1143
▁giving	-10.1151
point	-10.1153
▁appearance	-10.1154
▁resolved	-10.1163
checkpoint	-10.1171
▁possession	-10.1171
uint	-10.1176
IndexedSlices	-10.1178
▁implementation	-10.1184
cython	-10.1184
items	-10.1185
highs	-10.1193
▁worthy	-10.1193
mul	-10.1194
rs	-10.1199
inputs	-10.1207
▁laughed	-10.1219
得	-10.122
▁applicable	-10.1232
▁mentioned	-10.1235
▁thoughts	-10.1236
▁Kxe	-10.1237
便	-10.1241
▁gxh	-10.1249
▁learn	-10.1251
▁Her	-10.1252
▁elle	-10.1255
▁Return	-10.1257
▁relative	-10.1259
▁Many	-10.1269
▁moved	-10.1271
▁operator	-10.1287
io	-10.129
▁popular	-10.1292
eye	-10.1306
▁glad	-10.1311
WE	-10.1314
▁cross	-10.1314
▁mein	-10.1316
Well	-10.1319
▁empty	-10.1322
▁finally	-10.1331
res	-10.1334
▁Why	-10.1338
▁Er	-10.1343
▁bishop	-10.1346
▁caught	-10.1349
▁gentleman	-10.136
can	-10.1378
▁principle	-10.1385
▁ill	-10.1395
▁remarkable	-10.1396
▁multiple	-10.1397
▁warriors	-10.1398
▁feature	-10.1399
less	-10.1401
▁seeing	-10.1414
im	-10.1419
reshape	-10.1425
py	-10.1426
▁Union	-10.1427
deprecation	-10.1431
channels	-10.1431
▁cases	-10.1437
▁mate	-10.1443
▁existence	-10.1448
▁tried	-10.145
▁forces	-10.1468
▁remaining	-10.1474
▁calling	-10.1477
▁Germany	-10.1478
▁6,	-10.1478
▁gospel	-10.1481
▁approach	-10.1491
Substitution	-10.1519
rng	-10.1522
▁car	-10.1523
▁share	-10.1525
▁adaptive	-10.1532
note	-10.1536
▁difference	-10.1538
([1,	-10.1538
▁stay	-10.1542
land	-10.1544
missing	-10.1556
▁suppose	-10.1561
day	-10.1565
▁harbor	-10.1565
▁opened	-10.1565
▁leaving	-10.1566
▁hardly	-10.1568
▁wie	-10.1572
▁arrived	-10.1573
▁afterwards	-10.1591
▁drawn	-10.1592
▁throne	-10.1592
▁Deprecat	-10.1592
ri	-10.1593
▁covenant	-10.1596
▁etc	-10.1598
Giovanni	-10.1601
▁floating	-10.1609
▁Washington	-10.161
▁contain	-10.1611
▁mere	-10.1614
▁mile	-10.1618
▁results	-10.1632
▁development	-10.1636
▁16	-10.1642
▁Brandt	-10.166
▁collection	-10.166
▁gold	-10.1663
one	-10.1664
.»	-10.1664
engine	-10.1668
▁talk	-10.167
__(	-10.1672
16	-10.1675
▁girl	-10.1682
▁2],	-10.1696
▁protected	-10.1697
▁Attention	-10.1699
▁Galba	-10.1701
16,	-10.1704
▁considerable	-10.1708
▁America	-10.1711
ée	-10.1712
▁entries	-10.1725
▁bear	-10.1741
▁orders	-10.1744
▁methods	-10.1749
▁Charles	-10.175
▁ret	-10.1753
▁islands	-10.1755
▁settled	-10.176
▁mi	-10.1763
那	-10.177
▁becomes	-10.1772
▁keeping	-10.1772
be	-10.1772
▁valid	-10.1773
men	-10.1776
prod	-10.1778
▁continue	-10.1783
Compute	-10.1791
▁compliance	-10.1792
▁YOU	-10.1798
▁tied	-10.1799
Kxe	-10.1799
▁meant	-10.1802
`):	-10.1809
▁}	-10.1818
▁meaning	-10.1826
▁legions	-10.1827
se	-10.1827
▁expanded	-10.1828
▁forty	-10.1832
▁Andrew	-10.1838
dtypes	-10.1839
▁West	-10.184
▁escape	-10.1841
▁Qxa	-10.1845
▁eight	-10.1846
test	-10.1849
div	-10.1862
▁letters	-10.1864
abs	-10.1865
▁previous	-10.1866
place	-10.1873
▁Such	-10.1875
▁west	-10.1878
▁freely	-10.1881
▁0)	-10.1883
16`,	-10.19
▁Rac	-10.1906
There	-10.1907
▁particularly	-10.1915
ian	-10.1924
▁search	-10.193
▁Bank	-10.1934
▁del	-10.1936
▁task	-10.1965
▁cabin	-10.1965
▁beauty	-10.1969
mesh	-10.1978
▁speaking	-10.1981
▁game	-10.1986
do	-10.1997
▁decision	-10.2001
▁TODO	-10.2009
view	-10.2012
▁Smith	-10.2033
eq	-10.2034
▁enemies	-10.2039
zeros	-10.2043
La	-10.205
▁Point	-10.2052
▁layer	-10.206
▁eps	-10.2062
▁discovered	-10.2071
▁joy	-10.208
▁initialized	-10.2081
▁green	-10.2082
▁Our	-10.2088
▁Kxg	-10.2093
▁flesh	-10.2106
▁>=	-10.2107
embedding	-10.2107
▁learned	-10.2111
▁été	-10.2114
**	-10.2115
▁femme	-10.2116
▁changed	-10.2125
▁Holy	-10.2127
▁opportunity	-10.2139
▁repeated	-10.2152
▁defined	-10.2156
▁text	-10.2156
▁medium	-10.2156
warn	-10.2159
▁happened	-10.216
▁65.	-10.2162
▁arm	-10.2167
▁personal	-10.217
▁hill	-10.217
matmul	-10.2178
▁remains	-10.2181
▁agreed	-10.2186
den	-10.2189
▁soir	-10.2189
▁providing	-10.219
▁perform	-10.2194
▁Even	-10.22
▁double	-10.22
▁estimator	-10.2208
▁grand	-10.2209
▁activity	-10.2211
▁fill	-10.2225
▁Massachusetts	-10.2231
groups	-10.2233
▁national	-10.2241
▁exist	-10.2252
▁guard	-10.2271
(0)	-10.2273
▁spoken	-10.2276
▁months	-10.2276
▁sail	-10.2283
▁conduct	-10.2292
▁Labotsibeni	-10.2292
▁reverse	-10.2297
▁`(	-10.2299
(0,	-10.23
▁sign	-10.23
predict	-10.2302
▁rate	-10.2307
▁Great	-10.2312
meta	-10.2321
▁simply	-10.2323
▁grid	-10.2329
forward	-10.2329
▁interesting	-10.2333
ci	-10.2333
▁dear	-10.2333
info	-10.2335
▁settlement	-10.2339
▁perfect	-10.2343
('	-10.235
▁reach	-10.2354
How	-10.2358
am	-10.2362
▁Only	-10.2366
variant	-10.2367
邵才	-10.2368
▁cxb	-10.2373
▁native	-10.2373
▁vi	-10.2384
▁whatever	-10.2391
W	-10.2395
▁chosen	-10.2396
▁path	-10.2406
but	-10.2406
change	-10.2409
▁IN	-10.2413
要	-10.2416
▁pleasure	-10.2419
▁preaching	-10.2423
翠樓	-10.2426
她	-10.2428
▁description	-10.2435
▁determine	-10.2437
▁send	-10.2438
▁dog	-10.2439
▁play	-10.2442
▁Each	-10.2448
▁dann	-10.2448
▁classes	-10.2455
▁prevent	-10.2455
▁complete	-10.2459
▁hearts	-10.2468
▁obliged	-10.2469
fxg	-10.2471
▁occasion	-10.2471
▁anyone	-10.2473
▁pu	-10.2476
▁weather	-10.2479
▁appointed	-10.2482
▁North	-10.2489
▁na	-10.2497
▁Es	-10.2511
▁dictionary	-10.2514
▁square	-10.2516
ine	-10.2517
▁treated	-10.252
▁herself	-10.2521
docstr	-10.2535
regex	-10.2535
▁relation	-10.254
▁struck	-10.2541
▁Kxd	-10.2543
▁tensorflow	-10.2547
que	-10.2548
▁vessels	-10.2557
__.__	-10.2557
utils	-10.2566
▁emperor	-10.2567
為	-10.2585
▁speaks	-10.2585
▁Hill	-10.2589
▁acts	-10.2594
▁suffering	-10.2604
▁Applie	-10.2605
▁66.	-10.261
▁ver	-10.262
▁pure	-10.2634
▁lower	-10.2645
▁meta	-10.2653
warning	-10.2655
Why	-10.2656
▁fleet	-10.2662
▁casting	-10.2667
ting	-10.2674
"])	-10.2679
▁aber	-10.2679
▁fifty	-10.2681
64`.	-10.2687
▁news	-10.2688
arg	-10.2692
▁thirty	-10.2701
▁officers	-10.2703
▁query	-10.2707
▁spot	-10.2712
▁20	-10.2713
Yes	-10.2714
▁GPU	-10.2716
▁suffer	-10.2717
▁move	-10.2723
▁warm	-10.2725
▁Before	-10.2731
上	-10.2731
bilinear	-10.2735
▁Und	-10.2735
▁supports	-10.2746
▁trust	-10.2751
▁était	-10.2763
▁fort	-10.2767
▁exercise	-10.2767
▁merely	-10.2776
▁sim	-10.2788
▁specify	-10.279
▁Un	-10.2793
▁exclaimed	-10.2794
▁Dr	-10.2802
▁source	-10.2807
▁cold	-10.2807
▁temps	-10.2812
▁importance	-10.282
!”	-10.282
Y	-10.2821
▁peu	-10.2821
block	-10.2822
▁follows	-10.2825
39	-10.2827
▁serve	-10.2828
與	-10.2829
▁distribute	-10.2839
▁conditions	-10.2839
tensors	-10.2845
▁beach	-10.2849
▁parish	-10.285
▁chose	-10.2859
▁rule	-10.2859
▁dense	-10.2863
大	-10.2865
▁daughter	-10.2866
▁15	-10.2867
▁race	-10.287
▁official	-10.2875
▁license	-10.2882
▁building	-10.2888
▁wicked	-10.2891
▁affairs	-10.2902
}`	-10.2903
▁ideal	-10.292
vo	-10.2923
▁ideas	-10.293
▁darkness	-10.2938
▁composed	-10.2939
▁tp	-10.2943
▁teacher	-10.2949
▁1]	-10.2955
▁wood	-10.2956
▁deal	-10.2956
▁members	-10.2957
ir	-10.2958
▁fields	-10.2962
▁worth	-10.2963
▁wrong	-10.2972
▁iteration	-10.2974
▁dinner	-10.2974
▁marked	-10.2981
▁，	-10.2996
ier	-10.2998
numeric	-10.2998
we	-10.3011
▁immediate	-10.3012
ceil	-10.3014
Nxh	-10.3017
▁deux	-10.3021
▁larger	-10.3023
error	-10.3024
十州	-10.3026
▁discipline	-10.3032
▁peculiar	-10.3043
([0	-10.3052
elle	-10.3053
▁practice	-10.3059
▁preach	-10.306
▁replacement	-10.3061
hui	-10.3064
▁wait	-10.3071
▁middle	-10.3072
For	-10.3074
variadic	-10.3082
SparseTensor	-10.3097
lst	-10.3099
Bxa	-10.3103
▁requirements	-10.3108
up	-10.3108
▁crown	-10.3118
▁division	-10.3124
▁July	-10.3127
series	-10.3134
▁usual	-10.3143
▁Congress	-10.3145
▁broke	-10.3145
▁hier	-10.3146
▁Ma	-10.3155
▁steamer	-10.3169
,),	-10.3175
fit	-10.3182
▁lying	-10.3184
▁witness	-10.3186
▁About	-10.319
▁library	-10.3192
▁30	-10.3199
01	-10.32
▁matters	-10.3209
parameter	-10.3226
▁stopped	-10.3232
▁channel	-10.3237
▁difficulty	-10.3237
▁suddenly	-10.3242
▁serious	-10.3242
▁summer	-10.3243
ando	-10.3244
▁courts	-10.3247
▁Another	-10.3247
periods	-10.3248
▁impossible	-10.3252
▁begin	-10.3255
▁interval	-10.3258
▁concept	-10.3267
▁suffered	-10.3273
=0).	-10.3274
functional	-10.3276
▁property	-10.3276
▁effort	-10.3277
▁standard	-10.3278
sin	-10.3278
▁boys	-10.3281
▁rug	-10.3287
update	-10.3288
▁pretty	-10.3288
([[	-10.329
▁floor	-10.3293
▁courage	-10.3295
▁established	-10.3304
？	-10.3307
▁Chedsoye	-10.3307
cpu	-10.3309
▁sweet	-10.3313
▁depth	-10.3313
把	-10.3317
▁für	-10.3321
▁useful	-10.3324
▁final	-10.3327
ten	-10.3342
▁month	-10.3346
▁study	-10.3346
▁Yet	-10.3356
▁Life	-10.3359
▁author	-10.3361
▁Jim	-10.3362
▁Paolo	-10.3368
▁nur	-10.3373
▁parser	-10.338
▁dont	-10.3382
▁ihn	-10.3384
▁demand	-10.3392
▁obj	-10.3398
玉娘	-10.3421
▁rich	-10.3422
▁lambda	-10.3422
local	-10.3423
▁food	-10.3428
▁reformation	-10.3429
▁signal	-10.343
▁secret	-10.3432
▁bit	-10.3443
▁%(	-10.3443
▁River	-10.3448
----------------	-10.3448
▁sont	-10.3452
▁decided	-10.3454
score	-10.346
▁published	-10.3466
▁toute	-10.3474
▁efforts	-10.3477
▁limits	-10.3477
▁hair	-10.3484
▁sehr	-10.3487
▁explanation	-10.3494
▁dropped	-10.3496
▁noble	-10.3498
自	-10.3499
▁expect	-10.3502
▁anchor	-10.3503
▁var	-10.3505
cos	-10.3505
▁getting	-10.3507
]],	-10.3514
2013	-10.3515
▁gar	-10.3519
▁variables	-10.3519
▁super	-10.3523
128`	-10.3528
▁salvation	-10.3531
▁ends	-10.3532
▁similar	-10.354
▁relativity	-10.3547
▁devil	-10.3548
gxh	-10.3548
▁allows	-10.355
▁situation	-10.3565
selected	-10.3566
▁lie	-10.3571
▁couldn	-10.3584
append	-10.3587
▁earl	-10.3597
▁season	-10.3597
▁upper	-10.3602
▁rise	-10.3604
▁Unless	-10.3606
▁waiting	-10.3614
▁Man	-10.3625
▁plain	-10.3625
▁victory	-10.3631
version	-10.3636
▁entry	-10.3639
ão	-10.364
▁enter	-10.3647
▁Die	-10.3648
avg	-10.3649
▁unity	-10.3649
▁section	-10.3655
▁supposed	-10.3657
▁Mount	-10.3661
▁design	-10.3662
▁granted	-10.3665
▁false	-10.3665
▁aus	-10.3675
▁kraal	-10.3675
▁spatial	-10.3677
▁ones	-10.3678
▁printed	-10.368
▁Has	-10.3687
logical	-10.369
▁representing	-10.3692
▁Upon	-10.3699
▁"9	-10.3701
embd	-10.3702
回	-10.3705
▁Apply	-10.3706
▁broad	-10.3708
▁regarded	-10.3712
▁Most	-10.3726
▁companion	-10.3726
▁honor	-10.3732
▁io	-10.3739
▁haben	-10.374
has	-10.3743
"`	-10.3748
deg	-10.3749
docs	-10.3752
grid	-10.3752
▁Tue	-10.3752
▁defaults	-10.3755
layer	-10.3755
▁[]	-10.3757
`)	-10.3758
▁blue	-10.3759
▁variable	-10.3764
▁requested	-10.3769
▁iron	-10.3772
▁block	-10.3778
▁enable	-10.3779
My	-10.3785
▁village	-10.379
▁generation	-10.3793
free	-10.3797
▁TO	-10.3805
▁reader	-10.3807
▁comfort	-10.3808
▁forms	-10.381
▁intellectual	-10.3811
▁kann	-10.3823
▁wrath	-10.3825
▁powers	-10.3827
▁working	-10.3832
▁principles	-10.3838
▁presented	-10.3838
Project	-10.3841
▁constantly	-10.3842
▁68.	-10.3844
▁proved	-10.3844
▁bodies	-10.3846
pp	-10.3846
▁knowing	-10.3849
▁circumstances	-10.3856
▁farther	-10.3857
▁fresh	-10.3858
▁closed	-10.386
小姐	-10.3866
▁mine	-10.3869
▁Since	-10.3872
▁shared	-10.3874
▁Je	-10.3883
▁committed	-10.3892
dx	-10.3892
Embedding	-10.3893
▁23	-10.3897
同	-10.3899
▁political	-10.39
▁Pilgrims	-10.3901
▁schon	-10.3904
▁difficulties	-10.3908
▁shows	-10.3913
▁blessed	-10.3915
▁piece	-10.3916
▁taught	-10.3922
▁ihm	-10.3924
▁pleasant	-10.3924
▁equivalent	-10.3926
、	-10.3928
已	-10.3935
▁witch	-10.3936
▁served	-10.3943
.")	-10.3948
Rhe	-10.395
▁evening	-10.3955
▁Any	-10.3955
▁minutes	-10.397
▁March	-10.3973
▁opposite	-10.3981
▁excellent	-10.3981
Kxd	-10.3987
▁retain	-10.3995
kernels	-10.3998
▁hell	-10.4
▁Nantucket	-10.4
sklearn	-10.4001
▁67.	-10.4004
▁street	-10.4009
=1)	-10.4009
▁conception	-10.4012
▁mystics	-10.4012
▁opinion	-10.4017
▁boolean	-10.402
▁sharded	-10.4021
▁Rev	-10.4026
▁performance	-10.403
▁mass	-10.4032
▁é	-10.4041
▁{}	-10.4054
▁Rfd	-10.4058
▁contrary	-10.4058
▁opposition	-10.4058
▁post	-10.4062
▁servants	-10.4066
▁books	-10.4067
De	-10.4072
▁truly	-10.4076
▁integrate	-10.4082
▁style	-10.4091
中	-10.4095
To	-10.4102
▁advantage	-10.4103
▁norm	-10.4112
▁una	-10.4117
▁stepped	-10.4119
▁commanded	-10.4121
ry	-10.4125
changed	-10.4132
▁quiet	-10.4142
▁delta	-10.4142
▁World	-10.4143
age	-10.4144
>`	-10.4154
▁vie	-10.4165
▁certainly	-10.4177
▁forced	-10.4189
32`	-10.419
▁routine	-10.4199
matrix	-10.4214
▁finding	-10.4216
PreTrainedModel	-10.4218
▁score	-10.4221
▁joined	-10.4221
scalar	-10.4222
softmax	-10.4224
metadata	-10.4224
▁seek	-10.4242
▁shot	-10.425
▁quand	-10.425
pooling	-10.4252
Rfd	-10.4255
▁modules	-10.426
classification	-10.4273
▁events	-10.4285
▁honour	-10.4287
▁Marblehead	-10.4287
▁gift	-10.4289
!»	-10.4292
▁east	-10.4292
#	-10.4298
▁mat	-10.4301
▁Compute	-10.4312
▁probability	-10.4313
op	-10.4315
▁questions	-10.4319
Rac	-10.4325
▁NDFrameT	-10.4326
▁NOT	-10.4328
▁Values	-10.433
ement	-10.433
true	-10.4334
▁watch	-10.4353
▁polyval	-10.4372
▁afterward	-10.4378
▁inner	-10.438
▁fair	-10.4384
▁alpha	-10.4388
▁goes	-10.439
▁Miss	-10.4395
▁spent	-10.4398
St	-10.4399
return	-10.4414
▁sermons	-10.4415
▁fishing	-10.4417
▁beside	-10.4417
▁clearly	-10.4419
ung	-10.4424
▁pieces	-10.4425
▁progress	-10.4426
▁pounds	-10.4428
▁execution	-10.4443
▁requires	-10.4446
▁mission	-10.4449
▁count	-10.445
▁leaves	-10.4451
▁pray	-10.4452
▁week	-10.4465
▁justice	-10.4473
▁contains	-10.4482
▁commission	-10.4483
好	-10.4486
ton	-10.4487
__}	-10.449
▁transposed	-10.4493
▁ended	-10.4498
stride	-10.4504
▁groupby	-10.4506
▁multiplication	-10.4509
▁2:	-10.4511
▁contained	-10.4515
▁Example	-10.4521
▁lies	-10.4521
▁conversation	-10.4526
empty	-10.4533
▁inferred	-10.4534
▁alles	-10.4536
▁threw	-10.4538
▁create	-10.4545
margin	-10.4546
shard	-10.4554
▁inside	-10.4556
▁sind	-10.4556
▁mystical	-10.4562
▁volume	-10.4565
▁Italy	-10.4567
▁choose	-10.4569
▁owner	-10.4573
▁indunas	-10.4577
▁%	-10.4585
▁During	-10.4594
";	-10.4599
▁static	-10.4604
ig	-10.4615
▁spread	-10.4619
▁gain	-10.4619
家	-10.462
▁pleased	-10.4621
▁creation	-10.4622
▁pyl	-10.4633
▁sorted	-10.4635
▁curious	-10.4638
▁Raises	-10.4639
▁Harbor	-10.4642
▁predictions	-10.4645
▁prepared	-10.4652
▁override	-10.4653
('--	-10.4656
▁{'	-10.4662
64)	-10.4672
▁looks	-10.4672
▁understanding	-10.4673
▁lo	-10.4681
▁logits	-10.4686
▁wonder	-10.4687
▁governor	-10.47
▁moving	-10.47
▁maximum	-10.4703
jit	-10.4704
▁vor	-10.4704
▁pain	-10.4706
▁exact	-10.4708
▁executed	-10.4712
▁22	-10.4713
▁Nxh	-10.4719
▁equipment	-10.4725
([2,	-10.473
′_	-10.4735
▁online	-10.4738
▁thereof	-10.4739
tree	-10.474
so	-10.4741
此	-10.475
▁ganz	-10.4751
▁11	-10.4752
▁divided	-10.4754
▁ANY	-10.476
▁wide	-10.4761
ndo	-10.4769
▁volunteers	-10.4771
▁besides	-10.4776
▁retained	-10.4777
▁June	-10.4781
Lasker	-10.4781
ends	-10.4791
▁voi	-10.4793
▁majesty	-10.4799
▁exists	-10.4805
trees	-10.4808
▁tide	-10.4814
▁Two	-10.4817
▁files	-10.4819
▁Scots	-10.4827
room	-10.4832
au	-10.4838
▁Befort	-10.4844
▁Paris	-10.4849
▁minute	-10.4851
▁24	-10.4855
▁Le	-10.4859
▁fond	-10.486
▁Nero	-10.4869
fraction	-10.487
optimize	-10.4876
▁hills	-10.4878
▁choice	-10.489
▁servant	-10.4903
▁surprise	-10.4909
▁Emanuel	-10.491
▁difficult	-10.4911
▁quarter	-10.4913
▁seat	-10.4925
▁69.	-10.4925
▁beta	-10.4926
))`.	-10.4934
().	-10.4937
▁isn	-10.4941
▁promised	-10.4947
▁muß	-10.4948
▁reading	-10.4954
將	-10.4954
▁displaying	-10.4955
▁steps	-10.4973
▁pattern	-10.4976
closed	-10.4978
▁trip	-10.4985
▁ball	-10.4994
▁principal	-10.4996
▁destroy	-10.5
▁neg	-10.5006
▁　　	-10.501
▁70.	-10.5012
equal	-10.5013
bag	-10.5014
▁Samuel	-10.5016
full	-10.5026
▁très	-10.503
vals	-10.5038
▁27	-10.5054
▁explained	-10.5063
▁dire	-10.5066
▁crew	-10.5075
▁Queen	-10.5076
▁universal	-10.5076
2[	-10.5076
卞嘉	-10.5079
▁vision	-10.5086
▁auto	-10.509
▁transpose	-10.5095
▁prepare	-10.5096
which	-10.5097
▁posted	-10.5098
▁measure	-10.5098
▁deprecation	-10.5101
▁Nge	-10.5101
▁understood	-10.5103
▁sans	-10.5128
▁Check	-10.5145
message	-10.5147
ism	-10.5148
▁sought	-10.5151
▁bxa	-10.5152
▁pictures	-10.5155
遂	-10.5158
▁admitted	-10.5162
quad	-10.5162
▁eager	-10.5165
▁Blair	-10.5171
▁Cor	-10.5174
ous	-10.5175
▁drink	-10.5181
▁immer	-10.5184
ter	-10.5198
▁hatte	-10.5203
▁fun	-10.5205
▁2)	-10.5206
▁rocks	-10.5207
▁über	-10.5216
deepspeed	-10.5217
mo	-10.5223
same	-10.5225
▁twelve	-10.5226
出	-10.523
▁actual	-10.5234
adapter	-10.5235
unexpected	-10.5236
▁singular	-10.5236
▁broadcast	-10.524
▁weighted	-10.5245
▁dîner	-10.5248
huggingface	-10.5249
▁Don	-10.5249
▁military	-10.5255
▁aside	-10.5263
▁expedition	-10.5267
▁brave	-10.527
▁FOR	-10.5273
ist	-10.5275
▁quick	-10.5281
▁prefix	-10.5285
renaming	-10.5304
▁August	-10.5307
▁sword	-10.531
▁average	-10.5315
notes	-10.5315
▁solution	-10.5318
▁Z	-10.5319
U	-10.5321
randn	-10.5327
▁trial	-10.5333
▁draw	-10.5334
▁trying	-10.5339
▁meine	-10.5343
bxa	-10.5343
▁turning	-10.5343
▁***	-10.5343
▁initialize	-10.5343
à	-10.5344
▁happy	-10.5346
▁update	-10.5347
▁horses	-10.5353
ive	-10.5354
▁judge	-10.5358
▁Caecina	-10.536
▁ho	-10.5361
▁Himself	-10.5361
▁title	-10.5365
▁holding	-10.5368
▁Bxa	-10.5371
▁copying	-10.5372
▁reasons	-10.5374
▁walked	-10.5381
▁worship	-10.539
▁offer	-10.5392
nThe	-10.5392
▁lips	-10.5393
▁formerly	-10.5394
▁stranger	-10.5396
▁wild	-10.5398
▁soil	-10.5406
▁tokens	-10.5409
▁ships	-10.541
▁Aber	-10.5412
tis	-10.5424
▁distinction	-10.5424
▁likely	-10.543
▁Sugden	-10.5446
▁delivered	-10.5453
▁finished	-10.5453
▁storm	-10.5454
points	-10.5454
▁website	-10.5462
▁ashore	-10.5463
▁claim	-10.5465
▁entirely	-10.5469
▁December	-10.5475
▁sins	-10.5484
02	-10.5491
▁editions	-10.5504
Oh	-10.5509
▁smile	-10.551
▁Spain	-10.5519
être	-10.5522
▁covered	-10.5523
▁solemn	-10.5528
copy	-10.5536
▁abstract	-10.5538
▁independent	-10.5539
▁wise	-10.5546
Nxa	-10.5546
▁carriage	-10.5546
▁glorious	-10.5548
anno	-10.5548
mat	-10.5548
▁28	-10.5548
!...	-10.5549
▁married	-10.5552
▁control	-10.5557
▁Lomwazi	-10.5557
▁smaller	-10.5559
▁PRO	-10.5561
▁Oh	-10.5562
▁sous	-10.5572
▁deg	-10.5575
▁sir	-10.5579
▁planes	-10.5583
)``	-10.559
▁rough	-10.5591
▁théâtre	-10.5591
▁external	-10.5592
▁request	-10.5597
ha	-10.5599
Moscow	-10.56
reproducibility	-10.5603
▁Porel	-10.5604
▁Eckhart	-10.5604
▁opt	-10.5605
▁Python	-10.5613
util	-10.5614
▁degrees	-10.5619
▁stands	-10.5621
▁western	-10.5623
initialized	-10.5626
▁Artie	-10.5628
▁board	-10.564
▁operations	-10.564
▁bounds	-10.5643
▁Notes	-10.5645
▁lose	-10.5646
filename	-10.565
▁2-	-10.5651
▁actually	-10.5656
▁exclusive	-10.5657
▁oil	-10.5658
▁configuration	-10.5666
▁terrible	-10.5671
▁limited	-10.5672
▁hot	-10.5674
▁silence	-10.5676
▁prison	-10.5678
fill	-10.568
▁compared	-10.5685
▁cache	-10.5685
floor	-10.5694
:`\\	-10.5695
you	-10.5697
▁slowly	-10.5701
▁prisoners	-10.5701
▁January	-10.5714
▁etwas	-10.5719
clock	-10.5723
▁Rhe	-10.5729
▁({	-10.573
▁sharp	-10.573
imanche	-10.5745
▁write	-10.5747
▁protect	-10.5749
▁flag	-10.5758
▁cry	-10.5762
▁wine	-10.5763
▁Oom	-10.5767
▁mark	-10.5767
▁join	-10.5771
▁lands	-10.5779
frac	-10.5779
▁fees	-10.5792
子	-10.5795
▁Cp	-10.5799
▁direct	-10.5808
▁filename	-10.5815
▁Carolina	-10.5816
▁prisoner	-10.5818
▁amount	-10.5827
▁livre	-10.5828
▁manager	-10.5828
▁grew	-10.583
▁ordinary	-10.5841
normal	-10.5843
▁paying	-10.5846
▁centre	-10.5852
take	-10.586
▁decoder	-10.5864
▁destruction	-10.5866
▁member	-10.5866
▁sudden	-10.5876
▁fallen	-10.5877
▁familiar	-10.5882
▁factor	-10.5884
▁Testament	-10.5885
▁anywhere	-10.5887
▁entrance	-10.589
safe	-10.5895
}(	-10.5898
▁ignored	-10.5899
replace	-10.59
html	-10.5904
Who	-10.5905
▁Information	-10.5907
ate	-10.5908
▁buried	-10.5918
▁article	-10.5924
▁segments	-10.5927
▁holder	-10.593
▁ensure	-10.5931
Nge	-10.5931
ul	-10.5937
▁affair	-10.5958
▁express	-10.596
▁voyage	-10.5962
▁images	-10.5967
▁roots	-10.5972
lib	-10.5976
▁1],	-10.5977
▁Non	-10.5982
▁forget	-10.5993
ECT	-10.5993
▁seized	-10.5993
static	-10.5994
▁increase	-10.5995
▁hidden	-10.5995
▁event	-10.5995
▁capital	-10.5997
▁inference	-10.6002
lr	-10.6002
▁arch	-10.6009
▁remembered	-10.601
▁errors	-10.6017
▁righteousness	-10.6018
▁0.5	-10.6026
▁elementwise	-10.6027
▁win	-10.603
▁distinguished	-10.603
▁validation	-10.6031
▁Was	-10.6036
va	-10.604
▁assistance	-10.6042
▁glass	-10.6043
▁countries	-10.6043
▁wonderful	-10.6044
▁Street	-10.6045
▁port	-10.6051
▁mehr	-10.6054
▁depends	-10.6061
linalg	-10.6063
▁legion	-10.6064
▁wall	-10.6064
▁]	-10.6074
▁computed	-10.6077
▁callable	-10.6078
▁belief	-10.608
▁kill	-10.608
▁coffee	-10.6084
csr	-10.6085
▁Milton	-10.6088
今	-10.6088
▁band	-10.6094
ons	-10.6099
Raf	-10.6099
▁domain	-10.6101
▁credit	-10.6107
▁wholly	-10.6113
(*	-10.6118
▁fashion	-10.6122
▁commit	-10.6127
▁carrying	-10.6128
▁ids	-10.6133
▁record	-10.6138
▁tous	-10.6146
▁rights	-10.615
▁practically	-10.6151
▁identical	-10.6152
▁Andrews	-10.6155
▁resolution	-10.6161
▁entre	-10.6163
▁Master	-10.6164
▁Bill	-10.6168
▁separate	-10.6172
▁extended	-10.6173
▁sit	-10.6177
▁satisfaction	-10.6183
vi	-10.6184
▁shifted	-10.6187
▁weak	-10.6192
▁narrow	-10.6198
IES	-10.6201
]:	-10.6203
▁creating	-10.6206
les	-10.6209
▁params	-10.6211
•	-10.6213
▁GUTENBERG	-10.6213
▁wouldn	-10.6215
▁thrown	-10.6225
▁escaped	-10.6225
▁stones	-10.6228
0.0	-10.6229
▁attack	-10.6239
▁Those	-10.6243
▁Guthrie	-10.6249
▁compatible	-10.6253
▁pointed	-10.6255
relu	-10.6263
▁scene	-10.6269
▁loose	-10.6272
▁mountains	-10.6278
▁touch	-10.6279
▁million	-10.6283
▁colony	-10.6285
tie	-10.6286
string	-10.6287
▁historical	-10.6289
▁region	-10.6289
▁bishops	-10.6293
▁Welch	-10.6295
▁City	-10.6295
▁uns	-10.6296
msg	-10.6299
▁29	-10.63
▁mal	-10.6301
▁weaver	-10.6302
▁attended	-10.6306
▁possessed	-10.6324
▁13	-10.6331
▁earlier	-10.6331
Fischer	-10.6336
▁shook	-10.6342
▁einen	-10.6343
▁fix	-10.6351
▁Should	-10.6353
^{	-10.6354
▁engaged	-10.6357
resample	-10.6357
▁parallel	-10.636
vocab	-10.6367
▁store	-10.6367
▁consist	-10.6372
scipy	-10.6377
subsample	-10.6378
▁targets	-10.638
▁powerful	-10.639
▁wisdom	-10.6393
London	-10.6393
▁Louis	-10.6411
▁midst	-10.6413
ling	-10.6414
▁attached	-10.6414
▁attributes	-10.6416
▁bottom	-10.6418
▁50	-10.642
▁partly	-10.6424
transformers	-10.6425
▁Wyman	-10.6428
where	-10.6441
▁favour	-10.6445
▁6],	-10.6451
▁shoulder	-10.6455
▁sitting	-10.6455
▁moments	-10.6461
▁confession	-10.6466
▁National	-10.6466
▁Being	-10.6469
▁garden	-10.6475
▁played	-10.6476
▁extent	-10.648
▁yield	-10.6483
▁Nxa	-10.6484
▁cls	-10.6485
▁71.	-10.6495
▁streets	-10.6502
2019	-10.6505
Mard	-10.6506
▁permitted	-10.6512
tied	-10.6516
▁hearing	-10.6519
▁va	-10.652
▁positions	-10.6521
▁binary	-10.6527
▁specific	-10.6528
▁jetzt	-10.6533
▁por	-10.6536
▁distinct	-10.6538
images	-10.6542
▁deepspeed	-10.6543
▁frequently	-10.6549
▁Both	-10.657
▁introduced	-10.6571
▁straight	-10.6584
▁leaf	-10.6585
▁via	-10.6587
▁poet	-10.6587
ujour	-10.6599
Z	-10.66
▁universe	-10.6601
▁lst	-10.6601
▁journey	-10.6601
▁construction	-10.6606
▁III	-10.6612
parse	-10.6617
con	-10.6621
▁Britain	-10.6632
▁Frederick	-10.6633
▁1])	-10.6637
See	-10.6638
▁wasn	-10.6639
相	-10.6643
▁correctly	-10.6645
▁preserve	-10.6645
main	-10.6646
▁Early	-10.665
Loss	-10.665
▁bar	-10.6651
▁health	-10.6655
▁decay	-10.666
▁``(	-10.6662
▁blow	-10.6663
▁reported	-10.6671
▁examples	-10.6672
When	-10.6678
▁7,	-10.6683
▁Its	-10.669
▁saints	-10.6694
▁Kxh	-10.6696
▁zeal	-10.6701
--"	-10.6702
are	-10.6703
our	-10.6705
[:,	-10.6706
▁Road	-10.6706
▁fin	-10.6707
▁blessing	-10.6709
▁Antonius	-10.6717
▁instructions	-10.6717
▁largest	-10.6719
▁Flash	-10.6724
▁Cup	-10.6729
▁desert	-10.673
▁regression	-10.6739
▁Israel	-10.674
起	-10.6743
▁require	-10.6745
▁fortune	-10.6747
▁treatment	-10.6747
▁existing	-10.675
▁encore	-10.6754
▁succeeded	-10.6757
▁hotel	-10.6761
ado	-10.6766
▁Lexington	-10.6769
quantization	-10.677
▁represented	-10.6777
▁eat	-10.6778
都	-10.6778
polyval	-10.678
Tunga	-10.6781
▁whatsoever	-10.6782
▁14	-10.6785
▁Mann	-10.6789
▁`[-	-10.679
▁grouper	-10.679
▁accordingly	-10.6793
▁weeks	-10.6794
▁communion	-10.6794
▁seq	-10.6801
▁accordance	-10.6803
▁thick	-10.6803
▁mort	-10.6806
▁shown	-10.6813
▁sufficient	-10.6823
▁energy	-10.6824
▁GH	-10.6829
▁leur	-10.6829
▁tall	-10.6837
▁option	-10.6839
▁shores	-10.6841
▁rules	-10.6842
All	-10.6858
▁wird	-10.6859
▁minds	-10.6859
brainstorming	-10.6862
peft	-10.6862
sub	-10.6863
guf	-10.6864
▁demanded	-10.6868
▁vals	-10.6869
▁Spanish	-10.6873
▁Civilis	-10.6875
▁constraint	-10.6875
bicubic	-10.6878
SAFE	-10.6878
▁safety	-10.6879
▁viel	-10.6879
▁virtue	-10.6881
▁husband	-10.6881
▁lady	-10.6881
▁Europe	-10.6886
▁PyTorch	-10.6888
go	-10.6892
▁gathered	-10.6898
way	-10.6903
arange	-10.6904
▁mouse	-10.6905
▁ocean	-10.6905
▁Tzaneen	-10.6908
▁maintain	-10.6912
mi	-10.6912
▁Every	-10.6913
▁Defaults	-10.6922
▁address	-10.6928
▁adjoint	-10.6928
▁conversion	-10.693
▁verbose	-10.6932
▁soft	-10.6934
generate	-10.6938
▁enjoy	-10.6949
▁install	-10.6949
Jeu	-10.6952
▁union	-10.6953
▁assured	-10.6956
▁inhabitants	-10.6959
▁seed	-10.6961
▁naturally	-10.6963
▁represents	-10.6965
▁summed	-10.6965
Kxh	-10.6966
▁Virgin	-10.6969
▁Greek	-10.697
term	-10.6978
▁sampled	-10.6982
▁Co	-10.6989
0.0,	-10.6994
▁warn	-10.6997
▁teachers	-10.6999
▁brief	-10.7012
▁proud	-10.7016
factors	-10.7018
個	-10.7024
generation	-10.7025
beta	-10.7026
})	-10.704
▁Nor	-10.704
▁wheel	-10.7042
可	-10.7044
▁foundation	-10.7051
Le	-10.7054
▁college	-10.7064
▁color	-10.7064
▁upsample	-10.7065
▁fighting	-10.707
▁FOOTNOTES	-10.7075
▁satisfied	-10.7076
▁unknown	-10.7078
▁Specifi	-10.7079
pi	-10.7079
▁advance	-10.709
▁Come	-10.7094
▁velocity	-10.7097
高公	-10.7098
▁Sam	-10.71
_0	-10.7102
▁thousands	-10.711
：	-10.711
################	-10.7111
▁advanced	-10.7116
▁Se	-10.7118
▁province	-10.7118
linear	-10.7123
▁Italian	-10.7124
行	-10.7125
▁dying	-10.7133
▁convert	-10.7134
▁aid	-10.7135
(1)	-10.7136
[0],	-10.7138
▁thence	-10.7138
▁speed	-10.714
▁classification	-10.7147
last	-10.7148
▁therein	-10.7148
▁firm	-10.7151
▁context	-10.7153
](	-10.7155
▁East	-10.716
▁grad	-10.7161
09	-10.7169
▁sick	-10.7173
▁alive	-10.7175
▁growth	-10.7182
▁waters	-10.7183
▁origin	-10.7187
▁evident	-10.7187
distributed	-10.719
笑道	-10.719
▁shoulders	-10.7193
問	-10.7194
folder	-10.7194
▁corresponds	-10.7195
query	-10.72
side	-10.7203
nonzero	-10.7206
▁federal	-10.721
dimensional	-10.7213
▁properly	-10.7214
▁0],	-10.7217
▁ruin	-10.7229
▁rising	-10.7232
▁distant	-10.7239
▁population	-10.7242
▁dollars	-10.7243
▁bare	-10.7247
▁policy	-10.7248
▁limitation	-10.7249
ek	-10.725
▁honest	-10.7254
▁Where	-10.7258
da	-10.7258
▁Car	-10.726
門	-10.7266
▁forgotten	-10.7267
▁ont	-10.727
▁nine	-10.7272
▁proceeded	-10.7276
▁Clay	-10.7277
▁derived	-10.7278
logsumexp	-10.7304
▁throughout	-10.7309
▁society	-10.731
pre	-10.7312
hash	-10.7313
▁-1,	-10.7314
▁-1	-10.7317
▁inf	-10.7317
▁rare	-10.7327
▁exception	-10.7332
▁epsrel	-10.7333
三	-10.7335
▁dropna	-10.7335
dense	-10.734
▁là	-10.7345
▁mismatched	-10.735
▁increasing	-10.7352
▁60	-10.7352
▁watched	-10.7354
▁smoke	-10.7356
▁Jose	-10.7357
32"]	-10.7363
▁supply	-10.7364
▁dignity	-10.7372
▁simplex	-10.7373
名	-10.7374
▁November	-10.7374
▁golden	-10.7376
▁div	-10.7377
▁condemned	-10.7385
null	-10.7387
▁advice	-10.7389
▁Qu	-10.7389
▁worse	-10.7395
▁sake	-10.7398
()}	-10.74
▁impression	-10.7405
▁affected	-10.7408
▁likewise	-10.7412
▁derivative	-10.7418
▁fought	-10.7426
▁72.	-10.7429
astype	-10.7432
▁observe	-10.7433
▁pupil	-10.7434
▁Joe	-10.7435
▁behaviour	-10.7438
▁verse	-10.7441
▁welcome	-10.7444
▁cover	-10.7445
▁grande	-10.7449
▁periods	-10.7449
▁territory	-10.7458
▁writer	-10.7458
line	-10.7462
loaded	-10.7464
▁gained	-10.7465
▁wished	-10.7465
▁contemplation	-10.7475
▁capable	-10.7481
▁Calhoun	-10.7482
▁employed	-10.7483
201	-10.7491
▁Cabot	-10.7498
▁cavalry	-10.7498
▁fool	-10.7499
ure	-10.75
▁tongue	-10.7503
▁idx	-10.751
▁mighty	-10.7514
▁alt	-10.7522
▁Senate	-10.7533
▁everywhere	-10.7536
ones	-10.7536
▁report	-10.7536
▁100	-10.754
▁Like	-10.7544
▁arrival	-10.7544
single	-10.7544
length	-10.7546
▁equally	-10.755
▁begun	-10.7552
▁issues	-10.7555
▁amongst	-10.7559
▁Salem	-10.7561
▁major	-10.7562
▁17	-10.7564
pointer	-10.757
▁throw	-10.7575
▁rolling	-10.7579
▁refer	-10.7581
▁node	-10.7593
▁estimate	-10.7596
▁prove	-10.76
▁dry	-10.7601
▁Though	-10.7602
▁schooner	-10.7604
▁hurt	-10.7608
▁Desert	-10.7608
▁marriage	-10.7608
▁savage	-10.761
▁Kxc	-10.761
bounds	-10.7618
▁forecastle	-10.762
▁crowd	-10.7625
sigmoid	-10.763
▁opposed	-10.7631
▁flash	-10.7632
és	-10.7633
causal	-10.7638
eps	-10.7638
li	-10.764
▁Perhaps	-10.7646
download	-10.7649
directory	-10.7649
legacy	-10.7649
verbose	-10.7655
▁asleep	-10.766
stage	-10.7661
resizing	-10.7661
▁praise	-10.7664
▁destroyed	-10.7665
▁replace	-10.7666
▁imagination	-10.7667
看	-10.7669
▁discover	-10.7673
▁yourself	-10.7675
▁worked	-10.768
extraction	-10.7681
▁growing	-10.7683
▁Rock	-10.7687
▁height	-10.7688
▁daily	-10.769
▁legal	-10.7691
================	-10.7691
▁reduces	-10.7708
▁attend	-10.771
▁secure	-10.7715
▁entity	-10.7719
Expected	-10.7725
▁backward	-10.7726
morrow	-10.7726
▁scattered	-10.7732
▁goodness	-10.7734
▁duties	-10.7738
\\	-10.774
once	-10.7742
ImplementedError	-10.7743
▁2000-01-	-10.7743
▁cease	-10.7745
▁officer	-10.7746
ho	-10.7753
▁Men	-10.7754
▁payments	-10.7758
▁Gospel	-10.7758
▁wvar	-10.7758
▁GPT	-10.7759
▁extraordinary	-10.776
ING	-10.7761
起來	-10.7766
▁reward	-10.7769
errors	-10.7772
▁smiled	-10.7773
Samed	-10.7776
▁peut	-10.7777
ignore	-10.7777
▁sei	-10.7781
如	-10.7781
ithub	-10.7788
▁epsabs	-10.7795
▁figures	-10.7796
▁Well	-10.7799
▁assumed	-10.78
▁Me	-10.7802
ou	-10.7802
出來	-10.7804
▁9]]	-10.7804
▁adventure	-10.7805
▁produce	-10.7805
▁portion	-10.7809
▁sailed	-10.7809
▁spirits	-10.7813
▁Revolution	-10.7814
▁waited	-10.7814
▁21	-10.7815
▁yea	-10.7817
how	-10.7822
▁related	-10.7822
▁birth	-10.7827
作	-10.7831
▁Das	-10.7833
▁soldier	-10.7836
▁monument	-10.7836
Capablanca	-10.7838
▁tennis	-10.7844
▁performing	-10.7844
▁shut	-10.7847
▁surprised	-10.7852
▁carefully	-10.7853
▁greatly	-10.7855
▁stream	-10.7861
▁grouped	-10.7865
▁objective	-10.7866
▁dangerous	-10.787
▁falling	-10.7871
▁provides	-10.7873
▁même	-10.7884
▁older	-10.7887
402	-10.7891
▁spring	-10.7898
five	-10.7903
▁October	-10.7903
▁Du	-10.7904
▁grow	-10.7905
▁chair	-10.7905
▁Christians	-10.7906
小	-10.7906
)``.	-10.7907
▁[[1,	-10.7908
▁links	-10.7912
▁temple	-10.7914
▁finite	-10.7914
▁developed	-10.7921
▁sold	-10.7924
▁concern	-10.7925
pattern	-10.7936
ard	-10.7939
first	-10.7949
▁Cousin	-10.7951
▁earnest	-10.7959
▁dis	-10.7963
[2,	-10.7964
(-1)	-10.797
URS	-10.7972
▁surely	-10.7972
who	-10.7973
▁contact	-10.7974
▁returning	-10.798
▁bloody	-10.7986
pa	-10.7986
▁Christianity	-10.7987
▁Or	-10.7989
▁après	-10.8006
▁breath	-10.8008
▁obedience	-10.8018
hub	-10.802
wrap	-10.8021
▁research	-10.8022
ver	-10.8024
▁numerical	-10.8026
▁purposes	-10.8029
▁Mme	-10.8032
▁talked	-10.8032
était	-10.804
▁Orleans	-10.8042
common	-10.8044
▁Florida	-10.8055
`:	-10.8056
▁choses	-10.8062
▁stopping	-10.8063
▁fruit	-10.8064
▁scheme	-10.8066
▁Secretary	-10.8067
▁ob	-10.8069
Linear	-10.8077
▁prince	-10.8081
▁necessity	-10.8082
adaptive	-10.809
▁sorry	-10.8091
half	-10.8093
Apply	-10.8096
▁acquaintance	-10.8096
▁services	-10.8097
▁Government	-10.8097
è	-10.8098
They	-10.8098
tuple	-10.8102
ab	-10.8102
▁ex	-10.8102
▁connection	-10.8103
OR	-10.8103
▁solid	-10.8105
無	-10.8106
▁music	-10.8108
▁willing	-10.8109
▁Pemaquid	-10.8111
contiguous	-10.8114
lookup	-10.812
▁coat	-10.8121
columns	-10.8122
quantile	-10.8127
exclusions	-10.8127
cls	-10.8127
▁completely	-10.8128
)`,	-10.8131
▁Der	-10.8138
information	-10.8141
rd	-10.8152
▁controversy	-10.8152
▁uniform	-10.8153
▁revealed	-10.8158
先	-10.8165
buffers	-10.8166
▁optimizer	-10.8168
▁expressed	-10.8168
▁statement	-10.817
卻	-10.817
----	-10.8173
▁nichts	-10.8175
ma	-10.8175
▁Ho	-10.8177
▁social	-10.818
▁Colonel	-10.8181
▁Reduce	-10.819
bound	-10.8191
▁build	-10.8193
▁VI	-10.8196
infty	-10.8196
Ziegler	-10.8201
▁represent	-10.8203
▁castle	-10.8205
GradientBoosting	-10.8208
▁Equivalent	-10.8208
msgs	-10.8209
]`	-10.8218
▁warrant	-10.8219
▁Nature	-10.8222
parallel	-10.8235
▁subfolder	-10.8238
▁misery	-10.824
tsch	-10.824
ca	-10.824
▁subjects	-10.8241
▁Baltimore	-10.8243
std	-10.8244
▁teach	-10.8245
▁vain	-10.8245
▁chapter	-10.8247
▁jour	-10.8248
▁thrust	-10.8249
▁interested	-10.8251
ty	-10.8261
▁picked	-10.8263
▁election	-10.8265
ercredi	-10.827
▁soll	-10.8277
▁haven	-10.8279
一個	-10.8281
▁não	-10.8294
▁tells	-10.8294
▁regular	-10.8296
▁march	-10.8298
▁team	-10.83
▁5.0	-10.83
▁jours	-10.8306
▁covenants	-10.8307
▁explain	-10.8309
}.	-10.8309
▁homme	-10.8309
▁basis	-10.8309
▁Cod	-10.8311
▁practical	-10.8312
Rhf	-10.8317
▁lifted	-10.8318
▁hopes	-10.8318
400,	-10.832
▁ja	-10.8323
▁vraiment	-10.8326
▁nearest	-10.8332
▁consideration	-10.8335
▁Head	-10.8335
▁gut	-10.8345
▁mention	-10.8354
▁elsewhere	-10.8357
▁angels	-10.8359
▁taste	-10.8362
▁Dickson	-10.8364
▁neck	-10.8365
▁concerned	-10.8365
▁á	-10.8366
▁happen	-10.8367
▁suggested	-10.8373
▁outward	-10.8374
▁successful	-10.8375
▁center	-10.8378
▁rods	-10.8389
▁fog	-10.8392
▁quality	-10.8393
▁IV	-10.8393
▁Knox	-10.8401
▁equality	-10.8403
▁views	-10.8405
▁femmes	-10.8407
▁patent	-10.8408
▁causal	-10.8408
conv	-10.841
▁2),	-10.8413
▁gentlemen	-10.8414
▁occur	-10.8416
▁visited	-10.8416
▁bei	-10.8417
named	-10.8428
▁lieu	-10.8431
▁4],	-10.8432
▁Joseph	-10.8432
▁offers	-10.8434
son	-10.8435
▁betwixt	-10.8442
.----	-10.8445
▁pages	-10.8454
▁University	-10.8465
▁Percival	-10.8465
▁substance	-10.8467
▁Raul	-10.8467
▁symbol	-10.8473
ish	-10.8474
▁instrument	-10.8477
▁salt	-10.8482
▁San	-10.8483
▁tea	-10.8484
▁col	-10.8486
▁stored	-10.8497
▁directed	-10.8498
▁extra	-10.8506
▁delay	-10.8507
▁initial	-10.8507
Je	-10.8508
ê	-10.8508
▁increased	-10.8508
▁te	-10.851
▁belong	-10.8511
cross	-10.8513
▁40	-10.8515
▁generated	-10.8516
▁instant	-10.8516
▁driven	-10.8519
▁whereby	-10.8525
prediction	-10.8529
▁oath	-10.8529
decay	-10.8531
▁speculative	-10.8535
▁bringing	-10.8536
▁dé	-10.8536
▁matin	-10.8538
▁maison	-10.8538
▁options	-10.8542
USA	-10.8542
▁assembled	-10.8544
▁referred	-10.8548
▁complying	-10.855
▁beat	-10.8555
▁transformation	-10.8556
▁admit	-10.8557
▁Given	-10.8558
▁rain	-10.856
LA	-10.8562
▁doctrines	-10.8566
initialize	-10.8566
▁bearing	-10.8569
▁Brown	-10.8569
▁urged	-10.8571
▁Frau	-10.8571
▁alias	-10.8575
▁tradition	-10.8581
Union	-10.8583
▁trouve	-10.8586
align	-10.8586
▁failed	-10.8587
integer	-10.8589
▁ça	-10.8592
▁discovery	-10.8593
▁dare	-10.8594
stop	-10.8598
▁9,	-10.8598
▁possibly	-10.8603
▁Rab	-10.8606
▁altogether	-10.8607
▁catch	-10.8607
cumsum	-10.8615
slices	-10.8616
pytorch	-10.8618
▁maintained	-10.8633
}.")	-10.8635
▁definition	-10.8635
▁Sibijaan	-10.864
03	-10.8648
▁sons	-10.8656
▁shortly	-10.8657
因	-10.8665
▁consequence	-10.8668
▁matrices	-10.867
▁arbitrary	-10.8672
▁Having	-10.8679
Rosa	-10.8681
▁paragraphs	-10.8682
▁scarcely	-10.8685
▁sky	-10.8685
process	-10.8686
▁foreign	-10.8686
▁Africa	-10.8691
▁Ce	-10.8692
▁generations	-10.8693
罷	-10.8694
▁Van	-10.8695
▁generals	-10.8697
▁imagine	-10.8698
▁precious	-10.8701
▁track	-10.8702
▁scène	-10.8706
ina	-10.8711
▁Star	-10.8716
▁ice	-10.8717
user	-10.8717
▁petit	-10.8719
▁agent	-10.8719
▁Georgia	-10.8719
面	-10.8721
."--	-10.8721
▁ch	-10.8722
▁fitting	-10.8725
▁eminent	-10.8726
▁sufferings	-10.8727
▁aim	-10.8727
Un	-10.8745
送	-10.8745
night	-10.8752
▁edge	-10.8753
led	-10.8753
▁erected	-10.8757
"--	-10.8758
rss	-10.8758
right	-10.876
▁worn	-10.876
staticmethod	-10.876
▁commonly	-10.8764
▁confidence	-10.8765
▁stars	-10.8767
▁pride	-10.8768
▁summoned	-10.8769
▁putting	-10.8771
▁THIS	-10.8774
▁issue	-10.8774
▁transformers	-10.8774
▁indicating	-10.8776
分	-10.8778
art	-10.8779
▁glance	-10.8781
▁4.0	-10.8786
▁slack	-10.8786
▁defective	-10.8787
▁reign	-10.8787
▁wohl	-10.8793
unsqueeze	-10.8794
▁’	-10.8796
ary	-10.8798
▁scipy	-10.8799
▁walking	-10.8804
▁comparison	-10.8807
▁senate	-10.8807
▁monde	-10.881
▁ears	-10.8811
▁trade	-10.8811
▁Valens	-10.8813
▁ere	-10.8815
▁changes	-10.8817
▁11,	-10.8823
conversion	-10.8825
▁opts	-10.8833
▁Young	-10.8835
▁relations	-10.8845
▁garrison	-10.8846
▁Ohio	-10.8847
▁dependence	-10.8849
▁spite	-10.885
▁causes	-10.8851
▁pair	-10.8854
問道	-10.8858
▁shapes	-10.8866
▁begins	-10.8869
▁lack	-10.8869
▁effects	-10.8872
▁bread	-10.8872
disk	-10.8872
rand	-10.8873
▁blind	-10.8876
)]	-10.888
pow	-10.8881
▁"10	-10.8882
▁ha	-10.8898
▁constitute	-10.8899
▁whereas	-10.8908
depth	-10.8909
▁locations	-10.8909
▁Among	-10.8911
▁tour	-10.8912
▁notes	-10.8914
4.0	-10.8918
▁variety	-10.8919
Now	-10.8919
▁Again	-10.8922
▁resort	-10.8927
ized	-10.8929
▁faster	-10.8929
▁donate	-10.893
請	-10.8937
▁receiving	-10.8939
supports	-10.894
▁behold	-10.8942
lp	-10.895
▁occupied	-10.8952
著	-10.8956
▁rope	-10.8961
▁benefit	-10.8973
▁clothes	-10.8973
~	-10.8976
▁DAMAGE	-10.8979
▁violent	-10.8982
▁saving	-10.8982
▁Hence	-10.8985
Please	-10.8985
▁arose	-10.8985
archive	-10.8992
▁younger	-10.8995
▁landed	-10.8996
▁wants	-10.8997
▁instruction	-10.8999
▁Wenn	-10.9
ED	-10.9005
God	-10.9007
▁"11	-10.9008
▁hadn	-10.9009
▁campaign	-10.9013
▁gens	-10.9014
imag	-10.9015
chen	-10.9018
embed	-10.9025
▁inclined	-10.9025
▁wives	-10.9025
▁Argyle	-10.9026
▁dress	-10.9037
日	-10.9042
▁royalties	-10.9046
She	-10.9047
▁guess	-10.9051
▁defence	-10.9052
▁würde	-10.9052
<	-10.9054
▁noise	-10.9059
▁Lucio	-10.9062
▁pocket	-10.9066
▁accounts	-10.9069
▁landing	-10.907
LIMITED	-10.9073
▁--«	-10.9075
▁patience	-10.9079
negative	-10.908
So	-10.9081
▁Ah	-10.9086
▁candidate	-10.9087
▁eastern	-10.9093
▁drop	-10.9095
om	-10.9096
▁leader	-10.9097
]):	-10.9097
▁includes	-10.9099
▁suis	-10.9103
▁favor	-10.9107
lambda	-10.9107
property	-10.9107
成名	-10.9107
▁losses	-10.9109
tags	-10.911
▁writings	-10.9113
▁AGREE	-10.9113
field	-10.9116
freq	-10.9121
location	-10.9122
▁Penobscot	-10.9123
inplace	-10.9123
▁Law	-10.9124
▁prelacy	-10.9127
impurity	-10.9128
▁removal	-10.9128
ité	-10.913
▁conviction	-10.913
▁accompanied	-10.9131
▁sentiment	-10.9131
▁disclaimer	-10.9136
▁leads	-10.9137
▁cloud	-10.9137
▁windows	-10.9139
run	-10.9141
8=	-10.9142
ds	-10.9142
▁ascending	-10.9144
▁charged	-10.9144
▁deserted	-10.915
兩	-10.915
▁visible	-10.915
double	-10.9155
was	-10.9156
▁breakfast	-10.9162
hook	-10.9163
▁whenever	-10.9164
▁quarters	-10.9168
▁Po	-10.9173
▁tears	-10.9174
▁nodded	-10.9174
▁channels	-10.9176
▁tender	-10.9176
▁labels	-10.918
▁articles	-10.9181
▁president	-10.9183
▁vectors	-10.9184
Use	-10.9186
▁ImportError	-10.9188
Lundi	-10.9188
▁holiness	-10.9188
.9.	-10.9188
▁tie	-10.9191
年	-10.9193
▁Michael	-10.9197
▁corn	-10.9198
▁parents	-10.9211
8`,	-10.9217
▁Therefore	-10.9217
▁msg	-10.9223
▁estate	-10.9224
1=[	-10.9225
World	-10.9231
endpoints	-10.9232
▁Bradford	-10.9238
▁clean	-10.9238
▁weiß	-10.9239
▁outputs	-10.9239
▁nun	-10.924
▁sooner	-10.9246
▁Company	-10.9249
▁press	-10.925
▁ranges	-10.9252
▁polyvander	-10.9253
事	-10.9254
▁April	-10.9256
▁temper	-10.9257
▁bright	-10.9258
divide	-10.9258
▁petite	-10.9259
如何	-10.9262
▁fishermen	-10.9263
▁Christmas	-10.9265
INDEX	-10.9266
▁mystery	-10.9266
▁bsz	-10.9274
▁bold	-10.9279
▁talking	-10.9286
pt	-10.9287
▁strict	-10.929
▁writers	-10.929
▁Bothwel	-10.9292
▁groupings	-10.9296
tra	-10.9297
▁Webster	-10.9298
▁slow	-10.9298
▁Giovanni	-10.9299
ial	-10.93
▁loved	-10.9301
▁September	-10.9302
▁partial	-10.9304
ner	-10.9307
call	-10.9309
▁fairly	-10.9311
▁trained	-10.9313
iteration	-10.9315
▁Maine	-10.9315
▁Sound	-10.9319
▁counted	-10.9322
▁threshold	-10.9328
▁sd	-10.9333
▁hall	-10.9338
improvement	-10.9342
▁pendant	-10.9346
▁highly	-10.9347
▁Once	-10.9348
▁evaluation	-10.935
▁computer	-10.9353
▁wooden	-10.9358
▁tu	-10.9367
▁gin	-10.9367
▁Boers	-10.9368
▁73.	-10.9373
▁multi	-10.9374
▁reaching	-10.9376
▁ride	-10.9377
element	-10.9378
▁voir	-10.9393
只	-10.9394
▁exposed	-10.9401
▁jamais	-10.9402
▁\\(	-10.9402
▁differ	-10.9403
▁transform	-10.9404
心	-10.9409
▁conceived	-10.941
▁ear	-10.9411
▁armed	-10.9412
▁flow	-10.9414
▁uncle	-10.9415
ship	-10.9418
▁Court	-10.9423
▁banks	-10.9436
▁lesson	-10.9438
▁francs	-10.944
non	-10.9443
身	-10.9445
▁mars	-10.9446
Rde	-10.9448
▁informed	-10.9449
▁playing	-10.9449
▁vector	-10.945
▁gradually	-10.9451
)}	-10.9452
▁Tacitus	-10.9457
▁2018	-10.9457
▁sending	-10.9458
過	-10.9459
lengths	-10.946
▁card	-10.946
▁Good	-10.9467
▁movement	-10.947
▁cap	-10.9471
▁CPU	-10.9471
▁werden	-10.9475
▁pro	-10.9476
scores	-10.9477
dy	-10.9477
▁merchant	-10.9481
▁prevailed	-10.9481
處	-10.9481
▁retired	-10.9482
▁guilty	-10.9482
=1	-10.9482
▁stock	-10.9483
▁holds	-10.9485
▁respectively	-10.9487
▁yeux	-10.9489
los	-10.9489
▁Set	-10.9492
net	-10.9493
ally	-10.9493
兩個	-10.9494
文新道	-10.9495
▁converts	-10.9497
▁Waloo	-10.9507
▁criterion	-10.9509
=2,	-10.951
▁parties	-10.951
Kxc	-10.9511
▁area	-10.9511
▁einmal	-10.9514
▁Index	-10.9519
▁natives	-10.9523
▁addressed	-10.9524
▁Gallery	-10.9528
▁quelques	-10.953
▁Aaron	-10.9532
ble	-10.9533
mod	-10.9534
▁wore	-10.9537
▁burial	-10.9542
▁animal	-10.9543
▁box	-10.9549
▁wedding	-10.9549
▁chamber	-10.955
.«	-10.9561
▁apprehended	-10.9561
▁normal	-10.9566
▁Werner	-10.9566
▁Arthur	-10.9568
▁exclude	-10.9572
▁wealth	-10.958
▁mountain	-10.958
▁confusion	-10.9584
▁nearer	-10.9585
▁humanity	-10.9587
▁mem	-10.9588
▁proceed	-10.9592
▁noticed	-10.9595
▁intervals	-10.9595
▁jeune	-10.9597
▁sacred	-10.9598
▁Zombode	-10.9606
▁essence	-10.9606
ä	-10.9607
▁closely	-10.9609
▁Tennessee	-10.9609
▁ge	-10.9611
ger	-10.9611
▁families	-10.9613
▁creature	-10.9613
▁reputation	-10.962
▁sailors	-10.962
前	-10.9621
▁assume	-10.9625
▁Mucianus	-10.9627
▁absolutely	-10.9628
monde	-10.9629
▁bore	-10.9631
▁counsel	-10.9632
▁portrait	-10.9632
multiple	-10.9633
▁keyword	-10.9643
▁root	-10.9644
▁En	-10.9649
▁90	-10.9649
▁declare	-10.9651
▁murder	-10.9652
squared	-10.9652
logits	-10.9655
▁Susan	-10.9656
upsample	-10.9656
▁arrays	-10.9656
▁price	-10.9661
unsorted	-10.9662
backward	-10.9663
▁Champlain	-10.9664
▁eu	-10.9668
▁Function	-10.9668
simplex	-10.9669
▁noted	-10.967
▁Germans	-10.9675
▁shame	-10.9679
:`'	-10.9686
▁revelation	-10.9697
off	-10.9698
▁pipe	-10.9699
▁Guards	-10.9706
Do	-10.9707
▁interpreted	-10.9709
indexed	-10.9709
▁marched	-10.971
▁Parrot	-10.9713
▁probabilities	-10.9718
pr	-10.972
SPX	-10.972
▁citizens	-10.9726
▁newly	-10.9733
▁showing	-10.9734
▁Rhode	-10.9734
Tuple	-10.9734
▁habit	-10.9741
▁==========	-10.9742
▁sixty	-10.9742
▁provinces	-10.9743
▁consists	-10.9743
▁interpolation	-10.9744
▁February	-10.9748
▁RuntimeError	-10.9749
▁parle	-10.9761
unpool	-10.9762
▁eh	-10.9764
▁Boer	-10.9764
yard	-10.9773
▁belonging	-10.9775
▁faces	-10.978
▁Kind	-10.9781
▁//	-10.9783
▁wäre	-10.9786
let	-10.9788
ler	-10.9789
ov	-10.9791
且	-10.9791
▁crime	-10.9792
▁gets	-10.9798
▁market	-10.98
▁4])	-10.98
▁shadow	-10.9807
▁doubtless	-10.9811
▁gravitational	-10.9812
▁Red	-10.9813
▁Linear	-10.9816
▁Gorges	-10.9819
▁label	-10.9819
▁empire	-10.9821
Rab	-10.9822
▁Late	-10.9823
▁offsets	-10.9824
▁formation	-10.9824
()`	-10.9825
▁companions	-10.9828
▁slaves	-10.9829
▁ihr	-10.9831
pair	-10.9833
▁fé	-10.9835
▁ainsi	-10.9836
▁leurs	-10.9837
▁armies	-10.9837
▁Vol	-10.9843
▁snow	-10.9843
▁wear	-10.9844
▁tags	-10.9846
endredi	-10.9847
30	-10.9848
▁travel	-10.9849
Il	-10.9849
▁tête	-10.9849
▁fail	-10.9851
▁Que	-10.9856
▁al	-10.9857
▁tent	-10.9859
高	-10.9861
▁adapter	-10.9864
▁superior	-10.9865
AS	-10.9868
▁Holland	-10.9869
▁25	-10.9872
▁profession	-10.9876
▁proposed	-10.988
後	-10.9881
ad	-10.9882
▁heavenly	-10.9883
▁Gaussian	-10.9883
▁coup	-10.9884
▁site	-10.9886
starts	-10.9892
▁potential	-10.9898
▁phase	-10.9899
;"	-10.99
▁Lake	-10.99
▁experiment	-10.9909
▁protest	-10.9911
▁lately	-10.9921
bert	-10.9921
▁proportion	-10.9922
▁fled	-10.9927
▁registered	-10.9927
ground	-10.9927
ted	-10.993
▁fatal	-10.9931
▁quantized	-10.9933
▁calculate	-10.9936
▁Include	-10.9938
▁JOHN	-10.9953
ut	-10.9953
▁congregation	-10.9953
▁fifteen	-10.9953
(**	-10.9954
▁defeat	-10.9954
▁fingers	-10.9958
▁frame	-10.9963
▁vote	-10.9964
▁Jan	-10.9967
▁propos	-10.9974
▁restored	-10.9978
▁concrete	-10.9979
▁Dutch	-10.9981
▁strongly	-10.9984
▁duke	-10.9987
Ce	-10.999
▁Had	-10.9995
*,	-10.9996
▁vice	-11.0001
.1.	-11.0001
▁Under	-11.0004
▁dredging	-11.0005
west	-11.0007
▁devices	-11.0008
alg	-11.002
▁Number	-11.002
▁77.	-11.0021
▁grasp	-11.0028
▁luck	-11.0028
ol	-11.0032
▁Make	-11.004
▁predict	-11.0047
▁pressed	-11.0049
▁cruel	-11.005
秀郎	-11.0055
▁mai	-11.0062
east	-11.0065
task	-11.0067
▁sets	-11.0071
ica	-11.0074
▁thin	-11.0076
▁numba	-11.0077
▁trois	-11.0079
▁mis	-11.008
▁frequent	-11.0082
▁odd	-11.0092
▁happiness	-11.0094
squeeze	-11.0095
▁quoted	-11.0097
▁Lebombo	-11.0101
▁rifle	-11.0101
▁aware	-11.0105
▁mystic	-11.0105
▁hundreds	-11.0105
sort	-11.0109
▁anti	-11.011
▁fundamental	-11.0112
▁charges	-11.0113
▁edition	-11.0119
▁Bar	-11.012
▁huge	-11.0126
▁designed	-11.0126
▁Cargil	-11.0131
▁sinners	-11.0134
▁lords	-11.0136
▁confess	-11.0137
ron	-11.0149
▁59	-11.0153
▁eternity	-11.0154
MENT	-11.0154
sen	-11.0155
▁facts	-11.0155
▁pos	-11.0159
天	-11.0159
▁copied	-11.0162
▁founded	-11.0162
hand	-11.0163
▁Ireland	-11.0164
▁interests	-11.017
law	-11.0171
ante	-11.0176
▁flock	-11.0179
four	-11.0182
▁Port	-11.0183
▁overcome	-11.0193
▁abroad	-11.0199
▁16,	-11.0202
▁constraints	-11.0209
▁terror	-11.0211
▁12,	-11.0211
▁savages	-11.0213
indexer	-11.0213
▁Rde	-11.0213
sdpa	-11.0214
je	-11.0217
▁slight	-11.0219
▁reply	-11.0219
▁branches	-11.022
▁"1995	-11.0221
▁university	-11.0221
▁captured	-11.0223
fractional	-11.0228
▁united	-11.0229
▁distinguish	-11.023
mismatched	-11.0233
▁décembre	-11.0237
▁26	-11.0237
若	-11.0241
IS	-11.0244
▁Latin	-11.0244
老	-11.0246
Returns	-11.0251
▁connected	-11.0254
▁prayed	-11.0258
▁"1994	-11.0259
ful	-11.0265
▁Just	-11.0268
▁apparent	-11.0271
▁generate	-11.0273
▁Light	-11.0281
▁bridge	-11.0281
▁farm	-11.0282
▁depend	-11.0283
▁-----	-11.0285
▁tower	-11.0287
)))	-11.029
▁careful	-11.0292
▁:]	-11.0295
▁comfortable	-11.0298
▁Little	-11.0299
▁2022	-11.03
▁zeros	-11.0308
▁Judge	-11.0309
▁ddp	-11.0309
▁QUADPACK	-11.0313
▁wrought	-11.0313
numerator	-11.0313
▁extreme	-11.0317
▁obey	-11.0317
ck	-11.0323
生	-11.0323
▁MultiIndex	-11.0325
▁Calculate	-11.0325
▁presidency	-11.0328
▁righteous	-11.0328
▁GroupBy	-11.0328
Bo	-11.0329
air	-11.0329
▁efficient	-11.033
▁belongs	-11.0332
▁preserved	-11.0333
▁acting	-11.0337
▁architecture	-11.0339
▁modified	-11.0339
ka	-11.0342
dot	-11.0343
▁sailor	-11.0345
stack	-11.0345
去了	-11.0347
及	-11.0361
▁Rail	-11.0362
▁hoped	-11.0373
▁Because	-11.0376
▁composition	-11.0379
▁rien	-11.038
▁busy	-11.0381
▁confirmed	-11.0384
vrier	-11.0385
▁WARRANT	-11.0396
der	-11.0397
▁auxiliaries	-11.0397
▁perfectly	-11.0397
▁expressions	-11.0398
▁vast	-11.0405
▁conclusion	-11.0408
▁cet	-11.0409
▁remarked	-11.041
不知	-11.0411
▁quantile	-11.0414
mann	-11.0417
▁vient	-11.0417
▁Da	-11.0422
▁recognized	-11.0424
▁According	-11.0425
▁inspect	-11.0427
▁exp	-11.0429
▁Epistle	-11.0432
▁identify	-11.0435
▁silver	-11.0435
對	-11.0447
▁turns	-11.0448
Paris	-11.0451
▁costs	-11.0454
▁followers	-11.0456
▁promises	-11.0456
▁pushed	-11.0457
▁grouping	-11.0458
LICENSE	-11.0459
▁location	-11.0461
▁manifest	-11.0465
ite	-11.0466
Vienna	-11.0472
▁multitude	-11.0478
orig	-11.0479
ja	-11.048
▁smooth	-11.0485
▁meetings	-11.0488
▁selected	-11.0489
proba	-11.0495
▁API	-11.0497
▁ignorant	-11.0497
▁shop	-11.0499
▁。	-11.0499
▁Gaul	-11.0501
▁arise	-11.0504
▁completed	-11.0509
Mr	-11.0512
3[	-11.0515
dog	-11.0516
▁harm	-11.0517
▁separated	-11.0519
present	-11.0521
▁Plotinus	-11.0521
▁Go	-11.0523
▁sagte	-11.0524
▁tribes	-11.0531
()})	-11.0534
▁triple	-11.054
▁Accordingly	-11.054
▁primitive	-11.0544
za	-11.0546
Nim	-11.0551
方	-11.0552
▁deny	-11.0558
▁girls	-11.0558
夫人	-11.0563
order	-11.0564
▁Take	-11.0566
▁godly	-11.0571
▁mansion	-11.0573
▁moon	-11.0578
▁apart	-11.0579
▁problems	-11.0579
▁provision	-11.058
eur	-11.0583
▁haste	-11.0595
▁stages	-11.0599
▁selbst	-11.0602
ez	-11.0605
▁induna	-11.0616
▁sad	-11.0624
▁buffer	-11.0627
ava	-11.0627
▁Che	-11.0629
▁74.	-11.0632
▁Nora	-11.0637
▁favorite	-11.0639
▁optimization	-11.0642
▁Vi	-11.0654
ada	-11.0654
▁Riverside	-11.0655
Is	-11.0663
官	-11.0669
▁polynomials	-11.0671
▁improvement	-11.0672
▁fate	-11.0673
▁yourselves	-11.0678
▁être	-11.0678
▁ahead	-11.0683
compat	-11.0686
ak	-11.0687
▁Swazis	-11.0688
▁revision	-11.0691
▁Which	-11.0697
▁burnt	-11.0711
▁India	-11.0712
▁sails	-11.0714
▁kW	-11.0716
▁numerous	-11.0718
字	-11.072
▁sol	-11.0722
▁meinen	-11.0727
got	-11.0729
▁Swazi	-11.0731
▁struggle	-11.0732
▁definite	-11.0732
John	-11.0734
[0])	-11.0736
▁affection	-11.074
▁...,	-11.0743
間	-11.0743
▁EX	-11.0748
▁Martingale	-11.0749
▁Satan	-11.075
▁regent	-11.0754
▁obtaining	-11.0758
▁telling	-11.0764
▁characteristic	-11.0764
▁conscious	-11.0765
▁quelque	-11.077
▁realized	-11.0771
▁authorities	-11.0773
▁guide	-11.0776
As	-11.0779
red	-11.0782
▁mistake	-11.0783
find	-11.0784
▁sacrifice	-11.0787
▁epoch	-11.0791
mouse	-11.0792
811	-11.0792
▁defeated	-11.0798
▁0]	-11.0798
mgr	-11.0799
▁aspect	-11.0801
iters	-11.0802
▁trace	-11.0809
ren	-11.081
▁Wir	-11.0814
▁defect	-11.0816
▁farmer	-11.0818
▁multiplicity	-11.0822
dilation	-11.0823
uniform	-11.0823
2023-01-01	-11.0823
▁Ein	-11.0824
▁accelerate	-11.0833
▁whale	-11.0834
▁network	-11.0837
▁ignorance	-11.0837
▁implied	-11.0837
▁rendered	-11.0843
ndarray	-11.0843
overload	-11.0847
▁Second	-11.0848
▁Hall	-11.0848
Let	-11.085
入	-11.085
▁Stirling	-11.0853
▁sister	-11.0854
▁acquainted	-11.0855
▁reasonable	-11.0857
mem	-11.0861
▁adding	-11.0866
▁cardinal	-11.087
▁enumerate	-11.087
called	-11.0872
batched	-11.0872
▁`"	-11.0875
▁global	-11.0875
▁Besides	-11.0878
VF	-11.0879
▁Long	-11.0882
▁Sea	-11.0883
▁piety	-11.0886
▁Shape	-11.0886
redefined	-11.0888
▁Mark	-11.0891
▁burden	-11.0894
summarization	-11.0894
▁display	-11.0895
▁involved	-11.0897
ke	-11.0897
▁conceive	-11.0899
▁DE	-11.0899
▁doors	-11.09
情	-11.0903
▁integrand	-11.0903
▁relief	-11.0905
▁History	-11.0905
▁logging	-11.0905
▁flat	-11.0906
▁più	-11.091
▁Tout	-11.0911
▁beneath	-11.0918
antizationMethod	-11.0918
▁fury	-11.092
▁Jews	-11.0923
▁shoot	-11.0924
▁boats	-11.0925
▁devotion	-11.0926
▁Next	-11.0927
original	-11.0929
▁denominator	-11.0932
numel	-11.0932
▁arrive	-11.0936
▁pity	-11.0938
zowi	-11.0943
▁po	-11.0953
▁observation	-11.0958
▁seldom	-11.0959
▁hast	-11.0959
▁Callable	-11.0962
▁deliver	-11.0962
▁submodule	-11.0967
▁recompute	-11.0968
▁attitude	-11.0971
iv	-11.0972
▁precision	-11.0973
▁dataset	-11.0974
▁supper	-11.0976
▁buy	-11.0976
▁Sabbath	-11.0977
連	-11.0978
▁prob	-11.0978
▁critical	-11.098
▁indicate	-11.0984
work	-11.0989
▁bitter	-11.0989
▁Except	-11.0991
▁occurred	-11.0992
▁NO	-11.0992
▁define	-11.0993
▁std	-11.0994
▁somewhere	-11.1002
內	-11.1003
▁application	-11.1003
▁stacklevel	-11.1006
THE	-11.1006
tterTransformer	-11.1006
▁enabled	-11.1009
▁attempts	-11.1012
▁allegiance	-11.1016
▁Mississippi	-11.1024
▁receipt	-11.1024
▁commercial	-11.1032
▁treachery	-11.1032
▁novembre	-11.1032
▁excitement	-11.1032
▁salle	-11.1033
▁witnesses	-11.1038
«	-11.1038
▁indexed	-11.104
▁clay	-11.1044
▁proof	-11.1048
▁players	-11.1048
)\	-11.1049
▁"1997	-11.1049
▁Otherwise	-11.105
▁devant	-11.1052
被	-11.1052
▁Additional	-11.1053
▁programming	-11.1054
▁Egypt	-11.1055
▁tend	-11.1056
▁thereby	-11.1057
▁ab	-11.106
revision	-11.106
▁quad	-11.1069
▁intention	-11.1075
▁drive	-11.1079
▁countenance	-11.1084
▁career	-11.1084
▁describe	-11.1085
}."	-11.1088
64`	-11.1088
based	-11.1095
▁burning	-11.1097
▁milieu	-11.1098
born	-11.1098
▁theta	-11.1099
▁owned	-11.11
▁discourse	-11.1103
▁desires	-11.1103
酒	-11.1104
▁Who	-11.1111
[0,	-11.1118
bishop	-11.1118
world	-11.1118
▁ranks	-11.1118
▁border	-11.1119
nth	-11.1121
ring	-11.1128
hot	-11.1128
▁Tuesday	-11.1131
delta	-11.1134
裡	-11.1137
ang	-11.1141
▁restrictions	-11.1142
▁dream	-11.1144
▁providence	-11.1148
Can	-11.1149
▁commissioners	-11.1156
▁possess	-11.1156
two	-11.1161
ach	-11.1162
29	-11.1163
▁profit	-11.1164
▁evidently	-11.1165
▁safetensors	-11.1167
才	-11.1167
▁integrals	-11.1169
ius	-11.1171
[1,	-11.1173
▁flight	-11.1174
▁wo	-11.1178
▁hätte	-11.1184
▁einem	-11.1187
([[1,	-11.1189
▁corps	-11.1195
opt	-11.1197
▁WITH	-11.1198
▁dozen	-11.1203
)>	-11.1204
1[	-11.1209
▁3-	-11.121
▁claims	-11.1211
▁imperial	-11.1214
▁skiff	-11.1214
▁judgement	-11.1218
▁reserved	-11.1227
eager	-11.1235
▁toutes	-11.1236
▁grant	-11.1239
▁popery	-11.1239
Ah	-11.124
Cast	-11.1241
▁discussion	-11.1242
ze	-11.1244
▁inches	-11.1245
▁matches	-11.1251
▁notwithstanding	-11.1256
▁lit	-11.1257
▁Wallace	-11.1261
▁vague	-11.1261
▁nations	-11.1262
▁reckon	-11.1263
老爺	-11.1265
還	-11.1271
ont	-11.1273
▁era	-11.1273
▁heat	-11.1278
▁Henderson	-11.1281
hidden	-11.1287
Not	-11.129
})`	-11.1291
▁premier	-11.1293
▁falls	-11.1298
▁sympathy	-11.1298
diff	-11.1309
▁net	-11.131
▁essential	-11.1311
left	-11.1312
bo	-11.1313
▁renamed	-11.1315
▁references	-11.1316
▁surrounded	-11.1317
ick	-11.1318
▁branch	-11.132
▁Sabinus	-11.1323
而	-11.1324
▁dos	-11.1324
▁gross	-11.1326
mp	-11.1329
▁judged	-11.1333
▁heures	-11.1334
▁meiner	-11.1342
▁imposed	-11.1342
▁Renwick	-11.1349
scaled	-11.1349
▁lights	-11.1353
▁artist	-11.1359
▁Wie	-11.1361
霍公	-11.1362
▁announced	-11.1363
Then	-11.1366
▁Creek	-11.1369
▁bless	-11.1378
Tis	-11.1379
▁Championship	-11.1383
ordinate	-11.1385
▁friendly	-11.1385
▁plans	-11.1386
▁helped	-11.1386
▁inverse	-11.1387
▁systems	-11.1389
entropy	-11.1391
▁formula	-11.1391
▁Other	-11.1393
▁effective	-11.1396
»	-11.1402
▁seeking	-11.1403
▁describes	-11.1408
05	-11.1408
▁swung	-11.1408
▁anger	-11.141
▁gate	-11.1411
▁machine	-11.1412
▁exempt	-11.1416
compile	-11.1417
▁Petersburg	-11.1417
▁Buren	-11.1418
▁released	-11.1431
▁delight	-11.1431
plot	-11.1432
▁coronation	-11.1434
▁venture	-11.1436
body	-11.1436
▁silent	-11.1442
頭	-11.1443
▁Stuart	-11.1446
▁unit	-11.1447
▁gracious	-11.1447
▁$	-11.1449
▁police	-11.145
▁promoting	-11.1451
Eq	-11.1453
▁Benton	-11.1457
▁correspond	-11.146
▁alarm	-11.1461
One	-11.1465
▁assurance	-11.1467
▁towns	-11.1467
▁job	-11.1468
▁miserable	-11.1468
▁contempt	-11.1476
ct	-11.1478
ance	-11.1481
▁records	-11.1482
▁expenses	-11.1483
Dropout	-11.1484
▁kirk	-11.1484
▁vocab	-11.1484
ep	-11.1486
▁truths	-11.1487
nodes	-11.1487
▁bears	-11.1492
adjoint	-11.1492
:)_	-11.1494
gpt	-11.1495
▁Horace	-11.1497
待	-11.1501
shuffle	-11.1502
groupings	-11.1503
叫	-11.1504
▁unusual	-11.1507
▁bout	-11.1508
sharded	-11.1508
2023-02-01	-11.1508
chT	-11.1508
▁viewed	-11.1509
▁Mais	-11.151
▁Piso	-11.1511
▁10,	-11.1511
▁broadcasting	-11.1511
▁fellows	-11.1512
▁innocent	-11.1512
▁dawn	-11.1518
▁squared	-11.152
▁formal	-11.1521
▁mad	-11.1522
ngroups	-11.1523
▁drawing	-11.1526
▁Julius	-11.1528
▁fitted	-11.1528
▁suit	-11.1529
tic	-11.1531
▁della	-11.1533
▁persuaded	-11.1537
▁impis	-11.1542
▁station	-11.1543
▁impi	-11.1545
▁75.	-11.1548
▁Connecticut	-11.1548
▁pulled	-11.1552
▁financial	-11.1554
▁flops	-11.1555
▁passages	-11.1558
Where	-11.1559
▁Down	-11.1559
▁Hog	-11.1562
serialization	-11.1563
▁Ground	-11.1563
[1:]	-11.1571
▁hung	-11.1572
▁79.	-11.1577
▁inward	-11.1578
▁sheep	-11.1579
PretrainedConfig	-11.158
▁sprang	-11.158
▁78.	-11.1583
▁void	-11.1584
minibatch	-11.1589
▁actions	-11.1594
▁scl	-11.1596
▁jax	-11.1597
▁Lochien	-11.1597
▁liked	-11.1598
▁Transformers	-11.16
masked	-11.1602
feature	-11.1602
([1.	-11.1605
▁northern	-11.1606
▁sono	-11.1608
女	-11.161
但	-11.1615
▁stirred	-11.1617
▁divide	-11.1621
arxi	-11.1622
Old	-11.1623
▁fly	-11.1623
▁violence	-11.1623
▁Add	-11.1624
▁cached	-11.1627
▁sounds	-11.1629
neg	-11.1629
▁mental	-11.163
my	-11.1641
ique	-11.1642
▁torn	-11.1644
▁installed	-11.1644
▁recently	-11.1644
[...	-11.1647
▁thoroughly	-11.1652
▁revolution	-11.1658
▁ngroups	-11.166
most	-11.1662
▁celebrated	-11.1664
拿	-11.1665
ô	-11.1666
▁widest	-11.1669
▁community	-11.167
▁solicit	-11.1671
▁encountered	-11.1671
lich	-11.1671
▁opening	-11.1672
▁14,	-11.1677
▁gray	-11.168
▁inequality	-11.1684
▁sickness	-11.1685
▁5],	-11.1687
話	-11.1687
▁accomplished	-11.1689
▁GER	-11.169
兄	-11.1691
▁spake	-11.1693
three	-11.1694
▁octobre	-11.1695
▁42	-11.1696
▁Although	-11.1699
▁hit	-11.17
▁fat	-11.1703
▁intelligence	-11.1703
ata	-11.1709
▁janvier	-11.1711
▁waves	-11.1711
▁churches	-11.1713
▁strike	-11.1714
▁Lou	-11.1716
▁Isles	-11.1716
commit	-11.172
▁preferred	-11.172
▁globally	-11.1723
▁conv	-11.1724
▁fathers	-11.1725
▁species	-11.173
ato	-11.173
▁39	-11.1736
▁sensible	-11.1736
ULL	-11.1737
▁appearing	-11.1738
解	-11.1745
▁Moreover	-11.1746
'``.	-11.1746
▁ceased	-11.1747
▁werde	-11.175
▁cent	-11.175
▁committee	-11.1755
▁anyway	-11.1755
▁avoir	-11.176
▁necessarily	-11.1764
▁whereupon	-11.1765
▁earnestly	-11.1769
▁suitable	-11.1769
ste	-11.1772
▁departure	-11.1773
▁Constitution	-11.1779
▁-1)	-11.1779
▁harbour	-11.1781
▁yellow	-11.1781
▁threatened	-11.1783
▁grown	-11.1785
▁Tage	-11.1788
▁apparently	-11.1794
▁Mi	-11.1805
▁1.0,	-11.1807
▁divinity	-11.1808
▁magistrates	-11.1812
▁recent	-11.1814
▁bought	-11.1817
▁surrender	-11.1818
▁Si	-11.1818
▁despair	-11.1821
▁currently	-11.1826
▁como	-11.1828
▁unable	-11.1829
▁enthusiasm	-11.1834
▁instances	-11.1835
▁denied	-11.1843
▁redemption	-11.1845
▁bon	-11.1845
steps	-11.1845
learning	-11.1846
▁"1998	-11.1852
▁Meanwhile	-11.1852
▁admiration	-11.1853
▁wave	-11.1857
ern	-11.186
▁tone	-11.1863
▁route	-11.1863
▁deliverance	-11.187
floating	-11.1876
▁resulting	-11.1877
▁qs	-11.188
▁Valley	-11.1885
this	-11.1888
▁teeth	-11.1889
▁rude	-11.1894
▁Zeit	-11.1897
▁rage	-11.1902
pos	-11.1903
doctors	-11.1903
▁studies	-11.1906
▁bond	-11.1906
▁Still	-11.191
▁minimum	-11.191
▁structure	-11.191
▁worst	-11.1915
bin	-11.1919
▁watching	-11.1919
▁sagen	-11.1926
▁gewesen	-11.1926
▁Yes	-11.1927
avait	-11.1929
▁sole	-11.1934
今日	-11.1939
▁Mountain	-11.194
▁Kxb	-11.194
▁plenty	-11.1942
distance	-11.1944
▁permanent	-11.1949
lin	-11.1951
▁internal	-11.1952
方才	-11.1956
che	-11.1956
命	-11.1958
▁Per	-11.196
▁feelings	-11.1964
▁grounds	-11.1965
bar	-11.1966
▁arranged	-11.1967
mer	-11.1971
▁conference	-11.1976
▁hij	-11.198
▁sees	-11.1984
▁sore	-11.1993
▁charming	-11.1993
may	-11.1995
▁Load	-11.1997
mse	-11.2001
▁mes	-11.2006
▁Mar	-11.2011
▁tired	-11.2013
(2)	-11.2019
stone	-11.2023
▁smart	-11.2026
▁claimed	-11.2028
▁utmost	-11.2032
▁southern	-11.2032
▁Get	-11.2033
▁mapping	-11.2035
▁dwelling	-11.2041
▁Cremona	-11.2041
▁fois	-11.2042
▁transformed	-11.2042
▁doth	-11.2046
Here	-11.2047
聽	-11.2047
ap	-11.2048
▁ability	-11.2049
▁Cabinet	-11.205
▁Augustine	-11.2051
▁Y	-11.2052
▁presently	-11.2055
▁intellect	-11.2056
ster	-11.2064
▁ao	-11.2069
▁Abraham	-11.207
▁originally	-11.207
Plain	-11.2073
▁refuge	-11.2074
▁laird	-11.2077
▁extract	-11.2083
▁el	-11.2084
▁diligence	-11.2086
huber	-11.21
▁corrupt	-11.21
向	-11.2102
▁Ann	-11.2105
▁laquelle	-11.2105
backend	-11.2111
▁attained	-11.2111
transformer	-11.2112
agent	-11.2117
▁starting	-11.2118
麼	-11.212
.--_	-11.2122
▁thinks	-11.2122
▁subsequently	-11.2126
▁crossed	-11.2127
ions	-11.2127
▁abide	-11.2129
二	-11.213
▁release	-11.213
▁Predict	-11.213
▁displayed	-11.2131
▁scaled	-11.2132
▁Heaven	-11.2137
▁Hugh	-11.2138
extended	-11.2141
▁grateful	-11.2141
▁European	-11.2142
ti	-11.2142
▁stuff	-11.2145
Berlin	-11.2146
ram	-11.215
▁magic	-11.215
▁qualities	-11.215
▁declaration	-11.215
▁Livingston	-11.2151
broadcast	-11.2154
20	-11.2154
exceptions	-11.2155
bsz	-11.2156
▁levels	-11.2158
其	-11.2159
▁acquired	-11.216
▁triumph	-11.2161
▁pixel	-11.2164
ccp	-11.2164
explicit	-11.2164
accelerate	-11.2164
▁residence	-11.2169
▁Shoals	-11.217
argmax	-11.2171
▁cook	-11.2172
ensemble	-11.2173
accelerator	-11.2173
multiply	-11.2173
dropna	-11.2174
▁utter	-11.2174
相公	-11.2177
▁swept	-11.2178
▁votre	-11.2178
▁statements	-11.2179
▁palace	-11.2181
▁breast	-11.2181
▁rapidly	-11.2181
▁Daniel	-11.2183
omega	-11.2187
▁notion	-11.2188
▁animals	-11.2191
piece	-11.2193
▁seine	-11.2194
options	-11.2197
▁project	-11.2198
▁frequency	-11.22
%	-11.22
▁deeply	-11.22
constructor	-11.2201
▁computers	-11.2203
▁pick	-11.2207
▁excellency	-11.2207
▁regiment	-11.2207
▁evaluated	-11.221
ND	-11.221
|	-11.2211
▁brown	-11.2212
▁hut	-11.2212
正	-11.2212
▁punishment	-11.2216
取	-11.2217
▁deeper	-11.222
▁fault	-11.2224
▁circle	-11.2225
▁toujours	-11.2225
requires	-11.2227
▁76.	-11.223
force	-11.2231
▁blame	-11.2236
▁Nbc	-11.2237
▁accuracy	-11.2238
只是	-11.2242
▁friendship	-11.2244
▁porte	-11.2247
▁bottle	-11.2248
▁settlers	-11.2248
▁Saint	-11.2248
using	-11.2249
light	-11.2249
▁ArrayLike	-11.2252
klass	-11.2252
tegrator	-11.2256
▁boosting	-11.2257
▁xii	-11.2258
▁quietly	-11.226
cudnn	-11.2261
▁Nashville	-11.2261
▁pixels	-11.2261
▁Literal	-11.2264
ni	-11.2264
▁elect	-11.2265
▁fractional	-11.2266
Which	-11.2267
從	-11.227
▁projection	-11.227
▁feared	-11.2272
▁cela	-11.2272
step	-11.2272
▁signs	-11.2274
▁Without	-11.2275
leq	-11.2277
進	-11.2278
▁studied	-11.2279
▁splendid	-11.228
▁Francis	-11.228
▁affine	-11.2286
手	-11.2288
▁codes	-11.2289
▁src	-11.2289
▁weakness	-11.229
▁Au	-11.2292
▁callback	-11.2297
▁hook	-11.2297
▁spend	-11.2298
idxmin	-11.2299
▁Al	-11.2304
▁star	-11.2306
▁Wood	-11.2307
▁kernels	-11.2308
▁subintervals	-11.231
▁ti	-11.231
▁3:	-11.2311
▁proxies	-11.2311
▁compatibility	-11.2314
▁adds	-11.2316
(3)	-11.2316
▁Wentworth	-11.2318
▁production	-11.2322
training	-11.2323
On	-11.2324
▁plant	-11.2326
▁embankment	-11.2326
▁prophecy	-11.2326
▁sometime	-11.2328
▁subscribe	-11.233
▁roads	-11.2335
▁Ob	-11.2342
▁interpolate	-11.2343
▁2]	-11.2344
▁educational	-11.2362
ils	-11.2364
▁Indeed	-11.2365
▁'{	-11.2368
▁denn	-11.2368
product	-11.2372
▁alike	-11.2372
16"]	-11.2375
▁afford	-11.2376
▁roman	-11.2381
▁meinem	-11.2382
▁layers	-11.2384
▁VII	-11.2385
▁weighting	-11.2386
▁Your	-11.2387
000	-11.2389
ffill	-11.2389
和	-11.2391
▁conflict	-11.2392
▁tol	-11.2392
▁sell	-11.2401
▁THAT	-11.2401
▁legs	-11.2403
▁marquis	-11.2404
開	-11.2408
▁staff	-11.241
▁centuries	-11.2411
▁Virginia	-11.2412
▁marks	-11.2412
▁painted	-11.2414
▁rode	-11.2416
▁2021	-11.2418
往	-11.2418
being	-11.242
▁angry	-11.242
▁disposition	-11.2422
▁quantization	-11.2422
▁pen	-11.2423
▁humble	-11.2424
▁protection	-11.2425
▁theology	-11.2426
▁Jewish	-11.2427
▁faisait	-11.2429
▁sua	-11.2435
會	-11.2438
▁"1996	-11.2439
李虛齋	-11.2439
▁indignation	-11.2442
▁host	-11.2442
▁expense	-11.245
▁Author	-11.2453
▁laying	-11.2456
▁Finally	-11.2458
▁sliding	-11.2459
gt	-11.2461
▁absence	-11.2462
▁prefer	-11.2464
qs	-11.2466
▁Royal	-11.2466
▁dimensional	-11.2467
▁PreTrainedModel	-11.2467
▁approaching	-11.247
▁finger	-11.2471
▁Lee	-11.2471
▁passion	-11.2471
err	-11.2478
▁"202	-11.2482
▁weary	-11.2486
▁poetry	-11.2486
▁spare	-11.2487
▁0]]	-11.2488
▁ease	-11.249
▁combined	-11.2496
▁mankind	-11.2497
▁33	-11.2498
▁2023	-11.2498
▁48	-11.2498
▁waren	-11.25
fish	-11.2508
▁virtues	-11.251
[2]	-11.2513
▁Soon	-11.2514
▁PG	-11.2517
▁finds	-11.2522
▁Seven	-11.2528
ors	-11.2529
port	-11.2532
▁flower	-11.2537
▁ensemble	-11.2538
ko	-11.254
▁cattle	-11.2543
▁tendency	-11.2543
▁46	-11.2545
▁striking	-11.2549
▁ni	-11.255
▁advised	-11.2551
▁defense	-11.2555
▁offload	-11.2556
▁depending	-11.2556
▁calculation	-11.2566
▁su	-11.2567
▁prominently	-11.2574
▁anent	-11.2575
▁exit	-11.2576
ordinates	-11.2584
▁fourth	-11.2586
▁plainly	-11.259
▁oob	-11.2592
▁wounded	-11.2596
ade	-11.2599
▁disciples	-11.26
笑	-11.26
▁liability	-11.26
▁brothers	-11.2603
▁semble	-11.2605
▁gaze	-11.2606
▁entering	-11.2607
ow	-11.2609
▁gradients	-11.261
1.49	-11.2613
▁Thou	-11.2617
▁temperature	-11.262
▁dir	-11.2621
▁refuse	-11.2621
睡	-11.2623
post	-11.2624
▁fearful	-11.2628
▁subset	-11.2629
▁handed	-11.263
pe	-11.2633
▁solve	-11.2636
▁faut	-11.2637
▁dependent	-11.2642
▁visitor	-11.2645
▁prayers	-11.2652
▁ayant	-11.2659
▁insisted	-11.2662
▁anxious	-11.2664
言	-11.2666
▁sharing	-11.2668
▁significance	-11.2668
▁nullification	-11.2668
▁panic	-11.2671
▁imaginary	-11.2677
▁dwell	-11.2687
▁Sometimes	-11.2691
▁troubles	-11.2691
鬱公	-11.2696
▁Moses	-11.2697
nIn	-11.2697
▁Park	-11.2698
▁treaty	-11.2702
REACH	-11.2704
▁Canada	-11.2705
▁curiosity	-11.2706
▁joke	-11.2711
▁dangers	-11.2712
▁wondered	-11.2714
▁alteration	-11.2717
▁À	-11.2718
ide	-11.2723
▁goal	-11.2723
mar	-11.2733
special	-11.2735
▁Saviour	-11.2736
revised	-11.2736
▁papers	-11.2738
▁Portsmouth	-11.2738
▁beings	-11.274
▁"1992	-11.2755
▁sport	-11.276
udi	-11.2765
▁bow	-11.2765
▁damages	-11.2771
19	-11.2777
07	-11.2778
▁strategy	-11.2781
▁gentle	-11.2783
▁2])	-11.2789
▁quarrel	-11.2789
▁establish	-11.2791
▁Hart	-11.2791
▁dressed	-11.2794
▁Cairo	-11.2794
▁Di	-11.2797
▁examined	-11.2797
▁Titus	-11.2799
曉得	-11.28
▁outer	-11.2804
再	-11.2806
▁excluded	-11.2808
所	-11.2809
▁acted	-11.281
▁pardon	-11.2811
doctor	-11.2811
邵才道	-11.2813
▁DISTRIBUT	-11.2814
wood	-11.2814
top	-11.2817
▁"220	-11.2818
▁modes	-11.2819
Kxb	-11.2825
▁83.	-11.2826
▁Rfc	-11.2827
builtin	-11.2832
▁bag	-11.2835
弟	-11.2835
loader	-11.2835
Ko	-11.2839
buffer	-11.284
▁START	-11.2845
▁earthly	-11.2845
▁cup	-11.2847
▁characters	-11.2855
▁intelligent	-11.2856
▁laugh	-11.2856
sten	-11.2857
▁bunk	-11.2858
▁ASCII	-11.2863
▁Copyright	-11.2863
▁hostile	-11.2863
?...	-11.2866
▁clouds	-11.2881
▁infer	-11.2886
▁quest	-11.2887
will	-11.289
▁cities	-11.2893
▁pull	-11.2893
reverse	-11.2895
▁succès	-11.2898
:\	-11.2898
▁Yhiordes	-11.2902
auth	-11.2903
donate	-11.2903
decrease	-11.2904
▁stern	-11.2904
▁rapid	-11.2909
數	-11.2912
▁Crawford	-11.2912
▁throat	-11.2913
softplus	-11.2914
LayerNorm	-11.2914
epsabs	-11.2915
▁fewer	-11.2917
▁lange	-11.2919
▁juillet	-11.2922
trilinear	-11.2924
interpolate	-11.2924
stacklevel	-11.2925
cumprod	-11.2925
▁breaking	-11.2927
▁rational	-11.293
▁Day	-11.293
▁val	-11.2931
▁explicitly	-11.2937
▁hang	-11.2946
Regressor	-11.2946
▁hungry	-11.2947
▁package	-11.295
Buenos	-11.2952
▁seated	-11.2952
▁Elle	-11.2953
▁Aires	-11.2953
▁session	-11.2958
▁cards	-11.2958
俱	-11.296
▁00:00:00	-11.2962
▁tuples	-11.2962
codes	-11.2964
▁Nce	-11.2966
▁adopted	-11.2967
▁romance	-11.2969
example	-11.2971
▁initialization	-11.2972
▁restore	-11.2973
▁convinced	-11.2974
在此	-11.2981
▁zealous	-11.2982
▁2*	-11.2989
▁ri	-11.2989
▁frère	-11.2989
ip	-11.2989
▁Terms	-11.299
ettertransformer	-11.2992
pipe	-11.2995
stages	-11.2996
即	-11.2997
▁rid	-11.3
▁labour	-11.3
hebyshev	-11.3002
▁JIT	-11.3002
▁eventually	-11.3002
=-1)	-11.3002
▁Monts	-11.3004
▁covariance	-11.3006
▁plantation	-11.3009
▁Messrs	-11.3012
=(4,	-11.3022
▁drove	-11.3022
▁8],	-11.3022
▁automatically	-11.3022
▁loyalty	-11.3022
ack	-11.3025
environ	-11.303
▁maxp	-11.3031
▁"1993	-11.3032
hi	-11.3032
▁hanging	-11.3032
▁flung	-11.3034
▁achieved	-11.3036
▁È	-11.3036
▁confirmation	-11.3043
▁knees	-11.3043
▁bitsandbytes	-11.3045
▁tariff	-11.3046
▁Resampler	-11.3047
▁allein	-11.3047
▁canoe	-11.3049
▁More	-11.305
▁vary	-11.3052
▁bestowed	-11.3054
▁lest	-11.3054
▁Con	-11.3055
BOOK	-11.3055
▁prophet	-11.3058
▁kings	-11.3059
▁Durham	-11.3062
▁retval	-11.3065
Come	-11.3066
truediv	-11.3066
▁cohorts	-11.3068
▁temptation	-11.3069
into	-11.3071
ley	-11.3073
▁security	-11.3078
▁areas	-11.3081
▁trick	-11.3083
▁gifts	-11.3087
▁incorrect	-11.3091
▁BC	-11.3096
ium	-11.3097
▁devoted	-11.3099
▁cool	-11.3101
32``	-11.3104
link	-11.3108
▁desperate	-11.3108
▁dreadful	-11.3109
▁household	-11.3111
▁43	-11.3112
▁invited	-11.3113
import	-11.3115
▁lhe	-11.3118
▁derive	-11.3119
ot	-11.3119
一看	-11.3119
▁fame	-11.312
▁relevant	-11.3122
▁31	-11.3123
▁Ben	-11.3124
▁electronically	-11.3125
▁Ge	-11.3125
▁implemented	-11.3127
▁defend	-11.3127
scl	-11.3128
Vanilla	-11.3129
▁sizes	-11.313
:--	-11.3131
▁camel	-11.3137
▁attacked	-11.3137
春暉	-11.314
▁dance	-11.3143
item	-11.3149
▁shift	-11.315
▁talent	-11.3151
▁Nothing	-11.3151
武公	-11.3152
▁brilliant	-11.3153
▁pressure	-11.3153
ABILITY	-11.3154
▁stated	-11.3155
▁subsequent	-11.3156
▁CZE	-11.3157
▁maintaining	-11.3162
▁Jerusalem	-11.3163
▁WARRANTY	-11.3163
▁majority	-11.3164
▁iterations	-11.3164
▁lowest	-11.3164
▁rested	-11.3165
▁decide	-11.3167
outputs	-11.3169
▁Geld	-11.3169
▁Royalty	-11.3173
code	-11.3173
▁Act	-11.3176
▁mainly	-11.3177
▁Bagdad	-11.3177
1=	-11.3178
▁shake	-11.3182
▁gods	-11.3187
▁sufficiently	-11.319
▁Tauler	-11.3193
▁rear	-11.3196
▁creatures	-11.3196
▁pupils	-11.3202
▁[-1,	-11.3203
▁consent	-11.3205
▁Provide	-11.3211
ane	-11.3211
make	-11.3216
▁twice	-11.3216
▁intimate	-11.3218
▁Dionysius	-11.3221
▁subdivision	-11.3222
ria	-11.3225
▁Falcon	-11.3228
▁softmax	-11.3228
▁13,	-11.3228
▁salute	-11.3228
▁attain	-11.3229
▁nose	-11.3232
▁Instead	-11.3234
cht	-11.3237
▁heavens	-11.3237
▁passengers	-11.324
▁trop	-11.3241
▁Administration	-11.3241
▁Philip	-11.3244
▁banished	-11.3246
▁coach	-11.3249
nce	-11.325
▁awful	-11.3251
what	-11.3253
▁scripture	-11.3253
▁treason	-11.3254
▁slipped	-11.3254
▁=>	-11.3256
▁neglect	-11.3257
▁unchanged	-11.3258
▁alongside	-11.3258
specific	-11.326
▁applies	-11.3265
▁Friedman	-11.3266
▁accused	-11.3269
▁openly	-11.3271
▁marble	-11.3275
▁shelter	-11.3277
▁Rhine	-11.328
▁Elizabeth	-11.3286
▁-2.	-11.3287
▁reverence	-11.3288
vous	-11.329
▁172	-11.329
▁assist	-11.3292
▁remote	-11.3294
▁contribute	-11.3294
▁ladder	-11.3295
)},	-11.3296
欲	-11.3298
▁porter	-11.3299
▁fer	-11.3302
▁valuable	-11.3307
cp	-11.3309
tte	-11.3312
▁everlasting	-11.3313
clip	-11.3315
▁Martin	-11.3317
▁ci	-11.332
▁Eq	-11.3321
▁US	-11.3323
並	-11.3325
ok	-11.3327
▁Online	-11.3329
▁core	-11.333
▁lr	-11.3332
▁labours	-11.334
avoir	-11.3343
▁song	-11.3343
▁planned	-11.3347
(...,	-11.3349
▁interior	-11.335
▁commander	-11.335
等	-11.3354
▁firmly	-11.3354
ities	-11.3356
▁advocate	-11.3358
▁pulpit	-11.3368
ran	-11.337
▁grief	-11.337
▁existed	-11.337
low	-11.3372
▁stronger	-11.3373
▁organized	-11.3373
▁dix	-11.3374
▁pale	-11.3377
▁foolish	-11.3378
▁relationship	-11.3378
▁rod	-11.3378
▁thither	-11.3378
▁könnte	-11.3382
▁BE	-11.3382
就是	-11.3382
▁pris	-11.3383
▁extremely	-11.3385
▁(0,	-11.3388
▁[[	-11.339
▁oder	-11.3391
▁settle	-11.3392
▁enjoyed	-11.3393
▁Isaac	-11.3395
▁Trinity	-11.3399
▁differences	-11.34
▁"262	-11.34
cache	-11.3402
黃鉞	-11.3404
=0	-11.3405
types	-11.3407
avais	-11.3415
▁railway	-11.3415
▁2017	-11.3417
▁trials	-11.3418
ba	-11.3423
▁Solomon	-11.343
ical	-11.3431
▁detail	-11.3432
▁Earl	-11.3433
▁calculated	-11.3433
=0.0,	-11.3435
▁Scripture	-11.344
▁rebellion	-11.3441
玉娘道	-11.3442
▁5)	-11.3444
▁einer	-11.3446
▁useless	-11.345
▁Hand	-11.345
▁supplied	-11.3452
▁Professor	-11.3453
▁Castine	-11.3453
▁tons	-11.3457
ik	-11.3461
▁suspicion	-11.3461
▁littérature	-11.3461
▁jusqu	-11.3461
▁brain	-11.3463
▁pious	-11.3464
soft	-11.3466
▁commanding	-11.3468
▁kam	-11.3469
▁fp	-11.3471
▁4-	-11.3472
▁restoration	-11.3472
▁bis	-11.3473
ue	-11.3475
▁offering	-11.3476
▁keine	-11.3478
tro	-11.3479
▁Gosnold	-11.3482
口	-11.3485
ham	-11.3487
▁pink	-11.3489
▁meat	-11.349
▁grandfather	-11.3494
▁Society	-11.3494
▁hid	-11.3495
Go	-11.3496
▁equation	-11.3503
▁Neither	-11.3503
▁forgot	-11.3504
▁oysters	-11.3506
▁reflect	-11.3506
▁exceeding	-11.3506
▁cow	-11.3512
▁constitution	-11.3513
▁ordinarily	-11.3514
'},	-11.3515
▁mot	-11.3516
▁"15	-11.3516
▁hitherto	-11.3517
▁rulers	-11.3517
▁graves	-11.3518
▁resistance	-11.3525
▁wreck	-11.3527
▁appeal	-11.3527
▁impressed	-11.3528
知	-11.3529
An	-11.3532
ii	-11.3535
▁("	-11.3536
▁fancy	-11.3537
▁constructed	-11.3538
ino	-11.3539
hooks	-11.354
▁applying	-11.3541
▁sorrow	-11.3545
raise	-11.3547
▁Ngf	-11.3548
sign	-11.3551
(\	-11.3551
writing	-11.3552
▁priest	-11.3553
?«	-11.3553
ber	-11.3554
▁Als	-11.3554
▁pronounced	-11.356
▁induce	-11.3564
50	-11.3575
▁pursuit	-11.3577
▁proclamation	-11.3577
▁elders	-11.3577
car	-11.3578
▁interrupted	-11.3579
▁gehen	-11.3581
▁lift	-11.3582
甚	-11.3584
▁travail	-11.3586
repo	-11.3587
▁squares	-11.3589
▁van	-11.359
At	-11.359
▁League	-11.3598
▁historian	-11.36
▁prior	-11.36
underlying	-11.3601
▁quando	-11.3601
;--	-11.3601
^2	-11.3602
▁Catholic	-11.3603
▁filters	-11.3605
valid	-11.3608
定	-11.361
▁Vitellians	-11.361
▁buildings	-11.3611
▁chi	-11.3612
▁supreme	-11.3612
▁alternative	-11.3616
▁forest	-11.3618
par	-11.3618
▁189	-11.362
▁replaced	-11.3621
▁push	-11.3624
Si	-11.3629
▁background	-11.3629
▁High	-11.3632
▁Green	-11.3633
▁repo	-11.3635
Ma	-11.3645
▁sovereign	-11.3647
是個	-11.3652
想	-11.3652
does	-11.3655
▁Array	-11.3656
▁prod	-11.3657
▁Rhg	-11.3666
▁shouldn	-11.3667
▁hint	-11.3671
於	-11.3671
地	-11.3672
▁Wadsworth	-11.3673
▁Sa	-11.3673
▁beaten	-11.3674
▁leaders	-11.3674
▁Claudius	-11.3675
tion	-11.3676
sizes	-11.3677
▁56	-11.3679
▁recht	-11.3681
0",	-11.3681
▁tra	-11.3681
ranges	-11.3682
▁slightly	-11.3688
exact	-11.3693
▁govern	-11.3694
▁Ayr	-11.3696
▁roof	-11.37
▁mysterious	-11.3701
▁render	-11.3702
manager	-11.3703
風	-11.3705
▁septembre	-11.3705
▁seventy	-11.3705
▁imag	-11.3706
▁Jacob	-11.371
▁barn	-11.3713
令	-11.3714
suffix	-11.3714
▁"1991	-11.3715
▁laughter	-11.3716
bra	-11.3716
Mar	-11.3717
▁appropriate	-11.3717
▁première	-11.3718
▁"230	-11.3719
about	-11.3719
住	-11.372
▁scarce	-11.3723
做	-11.3723
▁Loudon	-11.3726
▁sinful	-11.3735
未	-11.3735
只得	-11.3738
▁steady	-11.3738
▁respects	-11.3739
rie	-11.3743
▁waste	-11.3746
▁debate	-11.3747
▁Boosting	-11.3749
▁provisions	-11.3752
▁Love	-11.3752
▁safely	-11.3754
發	-11.3757
cul	-11.3758
▁presbytery	-11.3758
▁observations	-11.3759
integrations	-11.3759
([0.	-11.3763
▁Runs	-11.3765
homme	-11.3766
æ	-11.3767
▁impurity	-11.3768
▁TensorFlow	-11.3769
his	-11.377
▁lion	-11.377
po	-11.3773
ens	-11.3773
▁solver	-11.3775
▁signed	-11.3776
▁narrative	-11.378
▁significant	-11.3781
▁compiled	-11.3782
offsets	-11.3782
▁loud	-11.3785
▁temporal	-11.3785
▁fille	-11.3786
▁tableau	-11.3788
onations	-11.3788
postsolve	-11.3791
▁supplies	-11.3791
▁pretended	-11.3795
▁~	-11.3798
wa	-11.3798
▁iW	-11.38
San	-11.3801
▁AttributeError	-11.3802
PathLike	-11.3802
▁inquiry	-11.3802
defined	-11.3804
▁trail	-11.3807
▁81.	-11.3811
backends	-11.3812
nogil	-11.3812
▁skip	-11.3813
▁Leben	-11.3815
▁recursively	-11.3815
▁inherit	-11.3816
▁nom	-11.3823
nopython	-11.3824
ebook	-11.3826
uff	-11.3827
▁Polynomial	-11.3827
▁presents	-11.3832
▁mostly	-11.3833
▁freq	-11.3833
▁polygrid	-11.3835
tensordot	-11.3836
cat	-11.3842
▁mounted	-11.3842
▁Ghost	-11.3845
\\)	-11.3846
qui	-11.3846
▁lighted	-11.3852
Ha	-11.3854
emb	-11.3856
▁preceding	-11.3856
▁earliest	-11.3856
▁persecution	-11.3859
▁passes	-11.386
▁Cl	-11.3861
▁Value	-11.3865
▁absent	-11.3867
().__	-11.3875
▁presolve	-11.3877
▁inheritance	-11.3878
Germany	-11.388
▁brings	-11.3881
▁Count	-11.3882
▁ddof	-11.3883
▁knife	-11.3884
▁32	-11.3884
padW	-11.3885
▁tolerance	-11.3885
▁embed	-11.3886
▁approached	-11.3893
▁autres	-11.3896
▁torture	-11.3897
▁Cloth	-11.3899
▁xi	-11.3902
▁noon	-11.3903
ros	-11.3907
▁Language	-11.3907
▁troubled	-11.391
eau	-11.3911
▁Clark	-11.3913
▁2001	-11.3914
▁20,	-11.3914
▁hate	-11.3916
ize	-11.3918
多	-11.3919
mon	-11.3921
▁Hause	-11.3924
▁enterprise	-11.3925
▁Say	-11.3928
▁masses	-11.393
如今	-11.3931
▁centurions	-11.3938
Speed	-11.3941
用	-11.3942
▁historians	-11.3942
▁doctor	-11.3945
▁handsome	-11.3951
▁Prince	-11.3959
▁reg	-11.3959
▁schools	-11.3963
外	-11.3967
▁inter	-11.3967
▁mount	-11.3969
▁Hayne	-11.3973
balanced	-11.3974
▁Beach	-11.3975
打	-11.3975
▁Kittery	-11.3976
▁Mather	-11.3976
▁witnessed	-11.3977
▁Mill	-11.3977
ux	-11.3978
▁distress	-11.398
▁accepts	-11.398
▁"223	-11.3983
▁disgrace	-11.3985
▁engagement	-11.3986
▁Rhf	-11.3987
Hastings	-11.3987
▁ENG	-11.3988
▁severe	-11.3988
▁improved	-11.3988
▁damage	-11.3989
▁acres	-11.3992
成	-11.3995
▁chiefly	-11.4006
當	-11.4007
盡	-11.4008
▁genius	-11.4008
▁faculties	-11.4009
▁années	-11.401
▁belonged	-11.4012
▁nuit	-11.4012
夜	-11.4013
▁renewed	-11.4027
▁ashamed	-11.4031
▁keen	-11.4032
▁nonzero	-11.4032
▁2015	-11.4032
▁occupation	-11.4036
▁successfully	-11.4038
nternally	-11.4039
▁reflection	-11.4039
▁rail	-11.4042
Tell	-11.4045
▁Lewis	-11.4047
▁touched	-11.4048
▁counter	-11.4049
▁refers	-11.405
▁courses	-11.405
▁situated	-11.4054
▁Den	-11.4054
water	-11.4055
▁writes	-11.4057
▁scaffold	-11.4065
enable	-11.407
▁Churches	-11.4071
▁poem	-11.4071
▁closer	-11.4073
▁dust	-11.4075
公	-11.4079
▁Sch	-11.4081
bed	-11.4082
▁owns	-11.4084
▁humility	-11.4087
2.0	-11.4087
▁directory	-11.4088
▁bent	-11.4088
▁starts	-11.4088
MS	-11.4093
▁furnished	-11.4094
▁variance	-11.4096
▁matmul	-11.4096
▁concluded	-11.4097
▁Fenwick	-11.4098
▁kindly	-11.4106
▁offices	-11.4107
▁Arnold	-11.4107
▁Mitchel	-11.4109
▁ours	-11.4109
▁promptly	-11.4111
rod	-11.4117
▁stretched	-11.4118
tes	-11.4121
▁promoted	-11.4121
such	-11.4122
▁Cerialis	-11.4132
四	-11.4133
▁measures	-11.4134
金	-11.4134
▁wars	-11.4135
]``	-11.4135
▁riding	-11.4137
aient	-11.4143
hard	-11.4144
after	-11.4145
▁gather	-11.4145
▁Umzulek	-11.4153
▁Col	-11.4153
▁opportunities	-11.4154
LE	-11.4156
▁IS	-11.4158
Ro	-11.4159
cha	-11.4163
▁alliance	-11.4165
▁Eastern	-11.417
▁linprog	-11.4171
Any	-11.4173
compute	-11.4174
houses	-11.4177
▁acknowledged	-11.4178
16`	-11.418
▁contributions	-11.4184
compatible	-11.4186
▁purely	-11.4188
▁predicted	-11.4188
▁readily	-11.4188
▁dancing	-11.4189
▁occasions	-11.4199
▁disappointed	-11.4199
▁classical	-11.4201
▁reproach	-11.4201
▁drinking	-11.4202
▁deed	-11.4211
▁killing	-11.4211
▁fired	-11.4219
▁professional	-11.422
▁owed	-11.4221
▁philosophical	-11.4222
▁harmless	-11.4222
▁compile	-11.4222
strict	-11.4224
▁Ed	-11.4225
TCh	-11.4225
說道	-11.4228
▁32,	-11.423
▁collections	-11.4231
▁beloved	-11.4233
▁Dec	-11.4242
frame	-11.4244
▁privileges	-11.4245
other	-11.4247
▁Update	-11.4248
eval	-11.4248
__`	-11.4251
▁Town	-11.4252
▁lessons	-11.4253
▁logical	-11.4255
▁Lecture	-11.4259
▁Une	-11.4259
文	-11.4261
AL	-11.4262
▁hanged	-11.4264
issues	-11.4264
▁demande	-11.4268
avril	-11.427
▁mixed	-11.427
----"	-11.4275
氣	-11.4277
死	-11.4278
▁Tim	-11.4279
▁err	-11.4283
▁Em	-11.4285
▁weapons	-11.4285
▁fused	-11.4286
`]	-11.4289
▁hide	-11.429
▁neighbors	-11.4291
▁Asia	-11.4295
▁faithfulness	-11.4295
total	-11.4297
▁answers	-11.4297
flex	-11.4298
▁Acadia	-11.4301
▁risk	-11.4301
▁Com	-11.4303
▁rounded	-11.431
▁Domitian	-11.4312
▁hatred	-11.4313
▁disait	-11.4313
▁disant	-11.4314
▁sufferers	-11.4314
▁Read	-11.4315
▁wirklich	-11.4317
▁80.	-11.4318
▁sober	-11.432
▁inspired	-11.4321
▁Melvil	-11.4324
▁hero	-11.4325
▁casted	-11.4326
▁typically	-11.4326
leg	-11.4327
ées	-11.4327
▁cloth	-11.4327
▁improve	-11.4333
▁meantime	-11.4333
▁strangers	-11.4334
▁witchcraft	-11.4335
▁sailing	-11.4337
▁diese	-11.4337
▁apprehend	-11.4339
▁remark	-11.4345
▁locomotive	-11.4346
▁dealing	-11.4352
▁differs	-11.4353
▁believer	-11.4356
▁Team	-11.4358
▁issued	-11.4359
▁burn	-11.436
▁dogs	-11.4364
▁fortress	-11.4366
▁reports	-11.4366
era	-11.4366
▁blows	-11.4367
▁fourteen	-11.4377
▁colonies	-11.4381
▁International	-11.4384
▁Zen	-11.4384
looking	-11.4385
▁utterly	-11.4385
0)	-11.4387
▁roll	-11.4387
▁film	-11.4388
repeat	-11.4389
▁près	-11.4393
▁Over	-11.4394
▁inquired	-11.4395
▁Gr	-11.4395
▁2019	-11.4398
▁burned	-11.44
▁checks	-11.4401
▁accustomed	-11.4402
▁dragged	-11.4403
▁Nfd	-11.4406
▁convention	-11.441
▁manuscript	-11.4411
▁2014	-11.4412
▁interpretation	-11.4413
▁ils	-11.4415
▁convenient	-11.4415
ken	-11.4417
▁ages	-11.4419
ano	-11.4419
▁games	-11.4422
rt	-11.4422
▁loyal	-11.4423
▁Va	-11.4423
▁declaring	-11.4427
▁mood	-11.4427
▁nie	-11.4429
兒	-11.4431
table	-11.4434
▁widely	-11.4436
riedman	-11.4437
▁murdered	-11.4439
xor	-11.444
▁Mortimer	-11.4443
▁hole	-11.4443
▁guns	-11.4443
▁considering	-11.4444
▁professor	-11.4448
▁Algernon	-11.445
ais	-11.445
▁alle	-11.4451
拜	-11.4452
▁exalted	-11.4455
▁hurried	-11.4457
▁parole	-11.4458
▁cheeks	-11.4459
▁lamp	-11.446
▁regions	-11.446
▁Bernard	-11.446
▁runs	-11.4461
▁iter	-11.4466
▁bill	-11.4467
▁lecture	-11.4471
▁"228	-11.4475
▁Land	-11.4476
interval	-11.4478
不得	-11.4479
▁2020	-11.4479
▁mu	-11.448
▁capture	-11.4484
roots	-11.449
▁Gu	-11.449
▁disease	-11.4492
▁pains	-11.4495
Mme	-11.4495
▁wurde	-11.4496
▁"229	-11.4497
▁pi	-11.4497
▁clock	-11.4498
▁Three	-11.4499
include	-11.4501
▁charter	-11.4503
▁15,	-11.4503
▁tribe	-11.4504
▁Rietvlei	-11.4507
▁autre	-11.451
▁skill	-11.4511
slice	-11.4512
▁durch	-11.4512
▁Ver	-11.4513
▁detected	-11.4513
▁symbols	-11.4514
▁exercised	-11.4516
▁eleven	-11.4516
▁avant	-11.4516
▁Galloway	-11.4519
mente	-11.4521
offset	-11.4523
▁Later	-11.4526
▁murmured	-11.4526
然	-11.4529
▁Never	-11.453
▁capacity	-11.4531
▁reception	-11.4531
▁Zola	-11.4531
詩	-11.4535
▁shed	-11.4536
▁uttered	-11.454
▁2013	-11.4541
▁flying	-11.4541
▁hardships	-11.4543
▁contre	-11.4543
▁Transformer	-11.4545
▁standards	-11.4547
framework	-11.4549
▁softly	-11.455
▁endure	-11.4551
area	-11.4557
▁smallest	-11.4558
▁student	-11.4562
▁corruption	-11.4563
▁64,	-11.4563
observed	-11.4565
▁survive	-11.4565
▁experiences	-11.4565
江	-11.4565
loading	-11.4566
ng	-11.4568
▁ging	-11.4569
polyvander	-11.4572
validation	-11.4572
故	-11.4575
▁sch	-11.4575
▁phenomena	-11.4576
Odéon	-11.4577
▁KIND	-11.4577
batches	-11.4579
親	-11.4586
▁successor	-11.4586
▁Americans	-11.4587
▁Lady	-11.4587
吩咐	-11.4588
▁Blitz	-11.4589
▁82.	-11.459
200	-11.4591
▁immense	-11.4594
proxies	-11.4596
ddof	-11.4596
idxmax	-11.4598
callback	-11.46
▁chambre	-11.4601
▁anxiety	-11.4601
▁(1,	-11.4602
▁handful	-11.4604
▁Provincetown	-11.4606
▁Io	-11.4607
▁serait	-11.4608
▁contrast	-11.461
▁zum	-11.4611
ipm	-11.4611
▁Auch	-11.4611
▁RUS	-11.4612
▁stairs	-11.4612
▁possibility	-11.4613
▁cousin	-11.4613
▁assez	-11.4613
▁"227	-11.4613
馮公	-11.4616
▁curve	-11.4617
Red	-11.4622
▁fears	-11.4623
Good	-11.4623
▁smiling	-11.4624
▁eagerly	-11.4626
(-1,	-11.4627
小弟	-11.4631
▁updated	-11.4632
▁processing	-11.4633
ido	-11.4635
▁subconfig	-11.4637
▁flood	-11.4637
▁Gradient	-11.4641
▁slept	-11.4641
▁voix	-11.4643
▁Out	-11.4643
▁caravan	-11.4648
ient	-11.4648
board	-11.4649
▁supernatural	-11.465
▁mismatch	-11.4653
▁Japanese	-11.4653
History	-11.4655
▁initializing	-11.4656
▁"233	-11.4656
▁whereof	-11.466
=0.1	-11.4662
á	-11.4664
▁boundary	-11.4665
雖	-11.4665
Van	-11.4665
▁cosine	-11.4668
▁masters	-11.4668
▁35	-11.4668
▁plane	-11.4669
▁Lo	-11.4671
▁Atlantic	-11.4671
▁OSError	-11.4671
▁quadrature	-11.4671
▁wopts	-11.4672
▁petition	-11.4673
mal	-11.4674
▁unbatched	-11.4675
▁rigid	-11.4677
Classifier	-11.4683
▁approval	-11.4683
▁conjugate	-11.4687
▁Augen	-11.4689
sem	-11.4691
▁eighteen	-11.4692
▁Thy	-11.4692
=0}	-11.4695
府	-11.4695
▁professed	-11.4697
至	-11.4702
scripting	-11.4703
▁integrality	-11.4706
▁disappointment	-11.4707
▁satisfy	-11.4708
▁oyster	-11.4711
=[	-11.4712
▁jnp	-11.4714
=2)	-11.4714
▁wenig	-11.4716
▁font	-11.4721
▁eval	-11.4723
▁178	-11.4723
resize	-11.4724
▁treasure	-11.4724
Size	-11.4725
▁Dense	-11.4725
:`(*	-11.4725
▁horror	-11.4728
▁notable	-11.4729
▁censure	-11.4731
▁Full	-11.4731
▁tries	-11.4741
▁Uncas	-11.4743
▁heap	-11.4748
▁``0	-11.4749
2014	-11.4749
▁preparation	-11.4752
▁gli	-11.4753
▁Version	-11.4754
▁dared	-11.4754
▁Education	-11.4754
▁forever	-11.476
part	-11.4762
▁goods	-11.4765
二人	-11.4765
▁unlike	-11.4769
▁wounds	-11.4773
col	-11.4775
quant	-11.4778
▁Duke	-11.478
▁club	-11.4782
▁paused	-11.4788
▁bull	-11.4789
▁Hampshire	-11.479
▁Romans	-11.4791
▁covenanted	-11.4796
hill	-11.4799
▁3])	-11.4799
▁hazard	-11.48
▁Frankfort	-11.4802
▁rivers	-11.4803
▁Bible	-11.4803
▁chest	-11.481
Using	-11.4811
▁50,	-11.4811
▁summit	-11.4813
▁Newton	-11.4816
父親	-11.4819
paged	-11.482
▁Am	-11.4823
Rhg	-11.4824
▁Special	-11.4826
▁responded	-11.4829
▁reminded	-11.483
▁170	-11.4832
▁rolled	-11.4834
▁activities	-11.4838
accel	-11.4839
▁Bo	-11.484
▁ordained	-11.484
▁lordship	-11.4842
▁treat	-11.4844
▁disaster	-11.4848
▁inferior	-11.4849
▁presbyterian	-11.485
ning	-11.4851
▁ring	-11.4851
▁"18	-11.4852
▁1.5	-11.4852
富高	-11.4862
▁Western	-11.4862
▁repeat	-11.4863
▁vital	-11.4863
ess	-11.4865
bfill	-11.4865
▁Absolute	-11.4867
▁batched	-11.4867
don	-11.4867
▁attempting	-11.487
▁gleam	-11.4873
▁Service	-11.4874
▁drift	-11.4877
Tom	-11.4878
▁professors	-11.4878
▁exercises	-11.4879
ura	-11.4881
▁El	-11.4882
▁Patrick	-11.4884
姐姐	-11.4887
說罷	-11.4887
{\	-11.4891
▁central	-11.4891
▁thereafter	-11.4895
zu	-11.4896
▁elected	-11.4896
▁Class	-11.4897
zo	-11.4897
▁rejoice	-11.4898
▁ohne	-11.4898
▁regards	-11.4906
search	-11.491
▁resemblance	-11.491
▁captains	-11.491
▁longing	-11.4912
半	-11.4912
▁covenanters	-11.4913
▁individuals	-11.4915
▁managed	-11.4916
large	-11.4917
▁lp	-11.4918
▁Through	-11.4919
▁clergy	-11.4922
▁wollte	-11.4922
levels	-11.4927
▁logic	-11.493
▁calm	-11.4933
▁aspects	-11.4936
128	-11.4939
▁whence	-11.494
ich	-11.494
家人	-11.4941
▁repentance	-11.4946
▁seulement	-11.4947
▁contents	-11.4954
gli	-11.4956
▁littéraire	-11.4958
▁stories	-11.4959
各	-11.4962
▁Mir	-11.4963
▁lm	-11.4964
▁administration	-11.4972
known	-11.4974
▁guilt	-11.4976
▁attributed	-11.4977
▁wickedness	-11.4977
separate	-11.4981
▁ceremonies	-11.4983
▁preacher	-11.4983
▁aussi	-11.4984
▁worry	-11.4984
ER	-11.4989
▁attempted	-11.4991
=0.0	-11.4993
▁seriously	-11.4995
▁hence	-11.5005
▁modification	-11.5007
▁heartily	-11.5008
▁loop	-11.5009
▁behalf	-11.5012
▁Norwich	-11.5014
▁bell	-11.502
▁bullet	-11.502
▁spectacle	-11.5022
▁elder	-11.5022
▁père	-11.5022
▁suo	-11.5023
▁hommes	-11.5024
▁listened	-11.5026
▁acknowledge	-11.503
▁Better	-11.5032
▁survey	-11.5033
▁comp	-11.5036
▁bargain	-11.5037
▁lib	-11.5046
▁Jo	-11.5049
.3.	-11.5049
▁recovered	-11.505
▁vu	-11.5051
though	-11.5053
▁"1999	-11.5054
Rdf	-11.5058
▁licensed	-11.5064
des	-11.5065
▁depart	-11.5066
▁"224	-11.507
▁können	-11.5071
▁chain	-11.5074
▁perceived	-11.5074
▁merit	-11.5076
▁sentiments	-11.5079
▁noir	-11.5079
▁lawful	-11.5079
sse	-11.5082
▁pursued	-11.5087
▁saint	-11.5087
▁strip	-11.5088
▁Walter	-11.5088
▁wagon	-11.5089
mes	-11.509
▁Hutchinson	-11.5093
▁resolve	-11.5094
▁determination	-11.51
▁mentions	-11.5102
▁Kxa	-11.5102
▁faced	-11.5102
▁strengthened	-11.5112
ence	-11.5114
▁raising	-11.5115
▁purchased	-11.5116
▁Cross	-11.5116
▁amid	-11.5117
Felsani	-11.5118
▁clerk	-11.5118
▁continually	-11.512
du	-11.5121
▁web	-11.5123
nen	-11.5128
fix	-11.5129
▁Madame	-11.513
▁175	-11.513
▁chancellor	-11.513
▁documentation	-11.513
fn	-11.5135
帶	-11.5138
▁planted	-11.5141
▁indicated	-11.5142
▁wilderness	-11.5142
▁strive	-11.5146
▁Sharp	-11.5146
back	-11.5149
long	-11.515
▁dreams	-11.5153
▁nevertheless	-11.5155
▁Morton	-11.5155
▁"256	-11.5158
▁cliff	-11.5158
▁transport	-11.5159
之事	-11.5161
差	-11.5161
▁thanks	-11.5162
▁Nelson	-11.5168
▁faculty	-11.5169
▁bark	-11.5176
})`.	-11.5176
)``,	-11.5178
▁accessible	-11.518
▁ix	-11.5188
▁`{	-11.5189
喚	-11.5189
'],	-11.5191
藺氏	-11.5191
▁Cameron	-11.5192
▁Providence	-11.5192
▁cove	-11.5192
▁sequences	-11.5193
dessus	-11.5193
▁convolution	-11.5195
▁adjust	-11.5201
隨	-11.5203
▁Gordon	-11.5204
▁audience	-11.5204
▁implies	-11.5204
▁répétition	-11.5205
her	-11.5206
▁Word	-11.5206
▁demands	-11.5207
ias	-11.5207
書	-11.5211
重	-11.5217
▁melancholy	-11.5217
▁picturesque	-11.5217
IN	-11.5218
mm	-11.522
ls	-11.5224
▁notre	-11.5225
amp	-11.5225
▁voices	-11.5228
船	-11.5228
▁contest	-11.5228
master	-11.5229
▁raconte	-11.5229
▁confessed	-11.523
▁traditional	-11.5241
▁indirectly	-11.5242
▁depths	-11.5247
▁assigned	-11.5248
▁pointing	-11.525
aged	-11.5255
差人	-11.5258
走	-11.5258
▁stayed	-11.5259
▁suggestion	-11.526
▁2016	-11.5261
▁confined	-11.5261
▁Su	-11.5271
ists	-11.5271
▁stared	-11.5272
▁willingly	-11.5275
▁combat	-11.5276
喜	-11.5278
▁choosing	-11.5279
▁filtered	-11.5282
▁sphere	-11.5283
▁seul	-11.5283
▁strongest	-11.5283
意	-11.5285
clamp	-11.5286
▁surrounding	-11.5286
▁nodes	-11.5289
▁cable	-11.5289
▁Kentucky	-11.5292
▁previously	-11.5296
berg	-11.5297
長	-11.5298
▁Usage	-11.5301
fully	-11.5304
▁gates	-11.5304
▁Naples	-11.5304
▁curieux	-11.5305
via	-11.5306
▁Plato	-11.5308
▁checkpoints	-11.531
ourd	-11.5312
▁dispatched	-11.5312
▁leg	-11.5315
▁judges	-11.5316
▁kommt	-11.5319
▁conducted	-11.532
▁modify	-11.532
▁independently	-11.5323
▁semantics	-11.5326
▁[])	-11.5327
▁lequel	-11.5331
▁treatise	-11.5332
▁84.	-11.5335
tric	-11.534
▁Upper	-11.5343
▁Mo	-11.5344
▁questo	-11.5347
fall	-11.5349
▁Pa	-11.5351
▁invitation	-11.5355
▁dull	-11.5357
CE	-11.5361
▁goals	-11.5369
▁prophets	-11.5371
▁Prof	-11.5376
▁considerations	-11.5377
▁`[	-11.5379
▁π	-11.5379
libraries	-11.538
▁livres	-11.5381
▁conclude	-11.5381
▁bags	-11.5381
▁hurry	-11.5382
▁stick	-11.539
▁"222	-11.5393
▁components	-11.5396
▁manual	-11.5402
▁queer	-11.5402
they	-11.5407
▁disappeared	-11.5409
▁sah	-11.5415
▁recall	-11.5416
▁accepting	-11.5417
rat	-11.5419
▁END	-11.5428
▁dich	-11.543
▁pot	-11.5434
▁secured	-11.5434
require	-11.5438
▁sleeping	-11.5439
▁happens	-11.544
▁Jefferson	-11.5442
juin	-11.5446
▁slip	-11.5447
▁frontier	-11.5449
▁"12	-11.5453
▁cruelty	-11.5457
▁dread	-11.5458
▁Les	-11.546
▁audio	-11.546
▁Science	-11.546
expected	-11.5465
▁gazed	-11.5465
sson	-11.5466
▁identity	-11.5466
insert	-11.5471
▁visions	-11.5472
▁optimize	-11.5474
▁recorded	-11.5476
▁Euclidean	-11.5477
▁Lower	-11.5477
▁concealed	-11.548
▁deprive	-11.548
▁excited	-11.5483
pu	-11.5484
ny	-11.5486
▁consequences	-11.5486
▁KING	-11.5495
▁Vetch	-11.5495
Neil	-11.5496
oli	-11.5496
▁rescue	-11.5496
▁shouted	-11.5499
lie	-11.5499
▁league	-11.5499
▁forming	-11.5503
▁roughly	-11.5505
▁doubtful	-11.5505
▁bodily	-11.5508
avier	-11.5509
▁multiplied	-11.551
concat	-11.5511
▁Nov	-11.5511
▁purchase	-11.5513
normalized	-11.5513
selection	-11.552
▁siècle	-11.552
▁wright	-11.5522
variance	-11.5522
linspace	-11.5523
expecting	-11.5523
when	-11.5524
optimum	-11.5524
(1.	-11.5524
▁indulgence	-11.5526
▁County	-11.5528
▁CAC	-11.5528
▁einige	-11.553
▁intent	-11.5533
▁failure	-11.5535
▁Coddington	-11.5536
accumulation	-11.5536
Hashable	-11.5536
constraints	-11.5536
subfolder	-11.5537
Parameter	-11.5537
▁discharged	-11.5544
▁steam	-11.5545
細	-11.5546
香	-11.5546
▁companies	-11.5546
Gather	-11.5546
▁Mutter	-11.5546
Al	-11.5547
Error	-11.5549
preface	-11.5549
remote	-11.555
mfu	-11.5551
NaN	-11.5555
▁executor	-11.5555
聲	-11.5557
rr	-11.5558
importances	-11.5559
▁Newcastle	-11.5559
▁pensée	-11.556
broadcasting	-11.5564
▁labor	-11.5565
▁hay	-11.5566
▁users	-11.5567
▁continuous	-11.5568
▁software	-11.5572
▁detach	-11.5573
▁tun	-11.5574
進來	-11.5576
▁Middle	-11.5577
▁remainder	-11.5577
▁Gallic	-11.5581
▁fishery	-11.5582
▁1``	-11.5582
ados	-11.5583
山	-11.5584
難	-11.5584
▁banishment	-11.5585
▁export	-11.5586
▁Clement	-11.5587
xclude	-11.5589
▁wet	-11.5591
▁procedure	-11.5594
▁shire	-11.5594
▁profound	-11.5594
seq	-11.5594
▁Apostles	-11.5597
ious	-11.5597
▁subclass	-11.5597
▁aft	-11.5598
▁Save	-11.5598
花	-11.5598
Conv	-11.5598
▁modifier	-11.5598
▁victim	-11.5603
▁threatening	-11.5603
▁compare	-11.5604
▁Th	-11.5605
▁reciprocal	-11.5607
▁FA	-11.5607
Parameters	-11.561
uch	-11.5611
▁College	-11.5611
▁economic	-11.5612
▁begged	-11.5614
▁decrease	-11.5622
Cumulative	-11.5624
quadpack	-11.5624
▁shell	-11.5624
ris	-11.5625
▁Stone	-11.5626
▁pastor	-11.5627
▁para	-11.563
}.{	-11.5631
▁"240	-11.5631
▁asking	-11.5631
▁-2	-11.5632
▁169	-11.5639
▁antialias	-11.5646
▁limlst	-11.5646
▁platform	-11.5647
▁experienced	-11.5647
▁``0``	-11.5648
▁(2,	-11.5649
▁lonely	-11.5651
▁realistic	-11.5651
▁sW	-11.5651
=(3,)	-11.5653
Bad	-11.5656
▁painter	-11.5657
▁occurs	-11.5658
▁Deep	-11.5672
Po	-11.5672
▁"13	-11.5673
▁naked	-11.5675
▁occasionally	-11.5679
▁parting	-11.568
▁importlib	-11.5681
▁infodict	-11.5683
multidimensional	-11.5684
▁eaten	-11.5685
▁unfortunate	-11.5685
ude	-11.5687
▁coin	-11.5689
▁redeemed	-11.5691
▁player	-11.5691
▁schön	-11.5694
▁estimators	-11.5695
▁consolation	-11.5696
▁mère	-11.5697
▁painting	-11.57
▁woods	-11.57
▁plague	-11.5702
▁responsibility	-11.5702
聽了	-11.5703
▁suite	-11.5705
▁offloaded	-11.5706
些	-11.5706
▁shoes	-11.5706
▁interview	-11.5708
▁largely	-11.5711
({	-11.5712
▁volunteer	-11.5712
▁escort	-11.5715
▁computation	-11.5715
ON	-11.5717
▁concerns	-11.5718
▁wake	-11.5718
▁Marshall	-11.5724
▁whispered	-11.5731
▁yes	-11.5735
Ho	-11.5736
▁ta	-11.5739
▁Adam	-11.5743
▁caus	-11.5747
ire	-11.5752
▁coeffs	-11.5753
Got	-11.5755
▁swamp	-11.5756
▁Isle	-11.5758
▁Perth	-11.5759
▁conceal	-11.5759
▁lovely	-11.576
temp	-11.5761
▁communication	-11.5766
▁Monday	-11.5768
▁feed	-11.5768
▁bas	-11.5768
Some	-11.5769
elles	-11.5772
▁publication	-11.5773
▁instantly	-11.5775
▁borne	-11.5777
▁drowned	-11.5777
▁approved	-11.578
▁contraction	-11.5782
五	-11.5782
　	-11.5789
après	-11.5791
▁posts	-11.5794
▁hin	-11.5795
custom	-11.5799
▁(1)	-11.5801
▁students	-11.5804
▁Pepperell	-11.5806
▁4]	-11.5806
▁steel	-11.5807
arr	-11.5809
▁testing	-11.581
internal	-11.5813
▁exceedingly	-11.5814
heure	-11.5814
▁mechanics	-11.5814
▁seats	-11.5815
▁rue	-11.5816
▁respective	-11.5818
▁glimpse	-11.582
▁resurrection	-11.582
pd	-11.5822
▁god	-11.5822
▁portraits	-11.5824
▁preparing	-11.5824
▁Carlo	-11.583
樂公	-11.5833
Bu	-11.5833
▁prosperity	-11.5834
vel	-11.5835
▁0.5,	-11.5836
creative	-11.5839
▁donne	-11.584
▁teaches	-11.5844
▁examination	-11.5844
▁seas	-11.5844
▁voyages	-11.5845
▁-1.,	-11.5845
eight	-11.5845
▁wound	-11.5846
▁Legislature	-11.5847
▁fails	-11.5848
hew	-11.585
▁entertained	-11.585
isch	-11.5853
▁dispute	-11.5856
▁cpu	-11.5857
▁22,	-11.5858
han	-11.5858
▁teams	-11.5858
▁astonishment	-11.586
arlsbad	-11.5861
▁23,	-11.5862
▁peintre	-11.5863
▁siege	-11.5864
From	-11.5866
las	-11.5867
▁collar	-11.5867
▁beau	-11.5868
Give	-11.5868
▁industry	-11.5873
▁vieux	-11.5874
▁Napoleon	-11.5877
▁promotion	-11.5878
▁phrases	-11.5879
少	-11.5886
▁Ev	-11.5887
▁autour	-11.5888
++	-11.589
shift	-11.589
Mysticism	-11.5893
▁blank	-11.5895
▁expects	-11.59
400	-11.59
！」	-11.59
▁quatre	-11.59
▁criticism	-11.59
▁Would	-11.5905
▁improvements	-11.5905
▁sharply	-11.591
lev	-11.5912
▁unbounded	-11.5913
▁travelling	-11.5914
▁XXX	-11.5918
Dim	-11.5919
▁electric	-11.5923
acc	-11.5927
pl	-11.5931
▁messenger	-11.5934
▁approximation	-11.5934
▁transforms	-11.5937
▁「	-11.5939
▁landscape	-11.594
▁bilinear	-11.5945
尋	-11.5945
eux	-11.5947
▁district	-11.5948
▁thank	-11.595
▁Feb	-11.5951
▁consistent	-11.5951
▁resources	-11.5953
▁Module	-11.5955
▁husbands	-11.5961
▁Book	-11.5963
bel	-11.5967
月	-11.5967
▁crowded	-11.5971
▁"232	-11.5972
▁chances	-11.5975
▁texts	-11.5975
Nce	-11.5978
▁turf	-11.5981
▁popularity	-11.5983
▁Northampton	-11.5983
▁comment	-11.5985
rou	-11.5986
▁"225	-11.5988
▁195	-11.5994
▁Wishart	-11.5994
▁incident	-11.5995
▁"231	-11.5996
tar	-11.5998
▁suspected	-11.6
nll	-11.6
▁domestic	-11.6001
ki	-11.6001
▁addresses	-11.6001
▁resist	-11.6002
si	-11.6007
▁sacrament	-11.6008
▁appointment	-11.6008
▁mid	-11.6011
▁"221	-11.6011
▁adhere	-11.6012
▁prime	-11.6013
▁IndexedSlices	-11.6013
▁petits	-11.6014
object	-11.6015
nit	-11.6016
lar	-11.6019
hu	-11.602
▁jumped	-11.6029
ero	-11.603
▁believers	-11.603
▁faint	-11.6032
Auj	-11.6033
▁vers	-11.6035
▁strain	-11.6035
pin	-11.6035
▁honourable	-11.6036
▁"235	-11.6037
▁Syria	-11.6039
iii	-11.6041
▁dried	-11.6046
▁sais	-11.6046
▁lap	-11.6046
▁adjacent	-11.6048
完	-11.6052
坐	-11.6056
zi	-11.606
Budapest	-11.6061
▁Hermitage	-11.6062
▁"1.	-11.6064
▁jump	-11.6069
▁vols	-11.607
▁breeze	-11.607
▁Wodrow	-11.6071
argent	-11.6072
jo	-11.6073
▁philosophers	-11.6076
▁maybe	-11.6078
▁horizon	-11.6079
▁Group	-11.608
▁Remove	-11.6081
▁messages	-11.6081
chi	-11.6084
1.0	-11.6087
▁mois	-11.6088
ated	-11.6092
▁Frank	-11.6094
▁walks	-11.6096
▁disc	-11.6098
▁packed	-11.6099
▁renew	-11.6099
made	-11.61
▁shining	-11.6102
▁erst	-11.6102
▁Johnston	-11.6104
▁scriptures	-11.6105
▁Ro	-11.6105
▁seize	-11.6108
▁gale	-11.6109
▁People	-11.611
▁checkpointing	-11.6111
▁select	-11.6111
▁eating	-11.6111
▁kitchen	-11.6116
▁fires	-11.6117
▁Irvine	-11.6117
▁continuum	-11.612
}}	-11.6122
▁loving	-11.6125
▁graph	-11.6125
▁coefficient	-11.6125
▁typical	-11.6126
▁boots	-11.6128
▁attractive	-11.613
qu	-11.6131
alt	-11.6131
▁id	-11.6131
▁haut	-11.6132
▁monitor	-11.6133
warm	-11.6137
何	-11.6138
CZE	-11.6139
▁sagt	-11.614
validate	-11.6142
▁Mac	-11.6147
▁warned	-11.6149
,[4	-11.6153
▁alternate	-11.6153
.8.	-11.6155
▁School	-11.6156
▁tyranny	-11.6157
iz	-11.6164
▁(19	-11.6167
▁charm	-11.6169
▁gathering	-11.617
▁shoemaker	-11.6171
▁oldest	-11.6171
▁environment	-11.6171
istic	-11.6174
▁"14	-11.6175
▁pauvre	-11.6179
Will	-11.618
ole	-11.6181
▁prize	-11.6183
▁Mädchen	-11.6184
▁introduction	-11.619
▁Liebe	-11.6191
▁elegant	-11.6192
▁Method	-11.6193
▁78	-11.6197
▁abilities	-11.6198
▁spectators	-11.6199
▁voted	-11.6203
▁Ha	-11.6205
▁fulness	-11.6206
別	-11.6208
greater	-11.6209
dropped	-11.6209
▁implicit	-11.6209
茶	-11.6211
▁handles	-11.6212
▁threats	-11.6215
ana	-11.6223
▁190	-11.6223
病	-11.6224
date	-11.6225
▁depuis	-11.6226
▁godliness	-11.6226
▁exchange	-11.623
▁Scroop	-11.6232
▁puis	-11.6233
▁mari	-11.6237
▁genuine	-11.6238
所以	-11.6238
▁Caesar	-11.6239
▁exile	-11.624
▁Appledore	-11.6242
▁cutting	-11.6243
▁engineer	-11.6244
Du	-11.6245
▁sc	-11.6246
▁vais	-11.6251
▁gern	-11.6251
▁Colony	-11.6253
▁excluding	-11.6253
▁arts	-11.6259
▁Mu	-11.6263
probs	-11.6263
ile	-11.6263
Get	-11.6264
xlog	-11.6267
▁Agamenticus	-11.6267
▁Raf	-11.6267
▁customs	-11.6268
▁"239	-11.627
▁explicit	-11.627
大家	-11.6271
Open	-11.6273
▁pan	-11.6277
▁promote	-11.6277
ker	-11.6278
▁Turn	-11.6278
▁theme	-11.6281
報	-11.6286
▁items	-11.6287
Bled	-11.6287
▁Des	-11.6288
▁usage	-11.6289
▁substantial	-11.6289
▁mutual	-11.6291
▁Friday	-11.6295
▁specifies	-11.6295
▁Capitol	-11.6295
entries	-11.6298
\",	-11.6299
▁86.	-11.63
▁général	-11.6302
xiv	-11.6303
以	-11.6308
▁residual	-11.631
明日	-11.6315
▁prevailing	-11.6316
▁performs	-11.6317
▁miss	-11.6319
▁link	-11.632
▁equals	-11.6322
▁aroused	-11.6322
▁separation	-11.6323
▁masked	-11.6325
Rfc	-11.6332
▁permit	-11.6334
lu	-11.6335
▁"1990	-11.6336
▁limitations	-11.6338
▁"261	-11.6338
▁estates	-11.6339
▁knocked	-11.6341
▁datasets	-11.6342
interior	-11.6348
▁representation	-11.6348
▁easier	-11.635
▁management	-11.6351
▁een	-11.6352
只見	-11.6355
▁develop	-11.6355
▁stir	-11.6357
▁Twenty	-11.636
infer	-11.6361
Transformer	-11.6363
([[1	-11.6364
▁Currently	-11.6364
▁lev	-11.6366
door	-11.6367
▁altar	-11.637
▁adopt	-11.6371
▁blocks	-11.6373
▁patterns	-11.6376
TY	-11.6377
▁85.	-11.6379
cases	-11.6381
▁Row	-11.6383
▁sack	-11.6383
▁sens	-11.6385
▁abandoned	-11.6385
▁corners	-11.6385
▁continues	-11.6385
有個	-11.6388
▁surrendered	-11.639
▁Transvaal	-11.6392
▁ruins	-11.6393
▁conspicuous	-11.6394
ptr	-11.6394
▁enfin	-11.6394
▁employees	-11.6394
▁proceeds	-11.6397
▁Nur	-11.64
ravel	-11.6401
▁meal	-11.6402
▁finish	-11.6403
ß	-11.6406
▁JAMES	-11.6406
aux	-11.6407
▁southward	-11.6407
▁breadth	-11.6408
▁Monroe	-11.6409
▁reveal	-11.641
US	-11.6414
▁meth	-11.6416
▁stroke	-11.6417
▁Pines	-11.6418
TRUE	-11.642
▁despite	-11.642
▁konnte	-11.642
▁remembrance	-11.642
▁heavily	-11.6421
▁singularities	-11.6421
▁inspiration	-11.6427
▁obvious	-11.6431
▁Mein	-11.6432
number	-11.6435
▁strings	-11.6435
▁praying	-11.6441
▁kraals	-11.6444
▁compelled	-11.6449
create	-11.6449
▁contract	-11.645
▁2012	-11.6451
▁"238	-11.6451
▁LA	-11.6451
▁confused	-11.6454
▁helpless	-11.6456
mos	-11.6458
ward	-11.646
dynamic	-11.646
▁PETER	-11.6463
▁besser	-11.6464
▁kein	-11.6467
▁guests	-11.6469
▁grows	-11.647
▁ve	-11.6471
aire	-11.6472
▁Herr	-11.6472
▁dredger	-11.6476
▁deeds	-11.6481
▁averaged	-11.6483
▁Im	-11.6489
Vander	-11.6489
▁swear	-11.6491
▁correspondence	-11.6491
▁lofty	-11.6493
idée	-11.6494
lk	-11.6495
▁Consider	-11.6495
▁donner	-11.6495
▁strengthen	-11.6498
▁incompatible	-11.6501
▁shalt	-11.6505
▁performances	-11.6506
▁Despite	-11.651
▁encoded	-11.6514
Of	-11.6515
▁fortunes	-11.6516
▁Produce	-11.6519
skip	-11.652
-8.	-11.6521
▁Pi	-11.6522
▁FROM	-11.6524
▁dollar	-11.6525
▁converge	-11.6526
optimizer	-11.6528
edu	-11.653
▁côté	-11.6531
ova	-11.6533
tan	-11.6534
▁colors	-11.6538
▁Belfast	-11.6539
▁taxes	-11.6542
push	-11.6546
▁descent	-11.6546
▁heathen	-11.6548
slope	-11.6549
▁cabinet	-11.6552
uck	-11.6555
aggregate	-11.6557
求	-11.656
pipeline	-11.6561
▁"226	-11.6561
此時	-11.6561
▁northward	-11.6562
▁sunk	-11.6563
▁Hub	-11.6564
▁California	-11.6564
conj	-11.6564
▁poured	-11.6566
▁Art	-11.6568
▁sports	-11.657
▁Weymouth	-11.6572
▁ordinance	-11.6574
▁namely	-11.6574
▁gun	-11.6574
!)	-11.6574
BF	-11.6575
maximum	-11.6575
▁pockets	-11.6575
聞	-11.6577
▁déjeuner	-11.6579
▁pastoral	-11.6579
▁proposition	-11.6582
▁intense	-11.6587
▁bonne	-11.6588
▁yards	-11.6588
▁30,	-11.6589
deterministic	-11.6589
Default	-11.6589
實	-11.659
▁pays	-11.659
翠樓道	-11.659
▁Puis	-11.6591
▁Standish	-11.6591
▁awake	-11.6591
shared	-11.6591
▁script	-11.6591
▁faisant	-11.6592
▁coeur	-11.6593
▁settlements	-11.6595
▁obscure	-11.6597
▁500	-11.6597
▁potentially	-11.6598
▁validated	-11.6598
ö	-11.6599
▁institution	-11.6601
Mi	-11.6603
DatetimeIndex	-11.6603
epsrel	-11.6604
retval	-11.6604
十分	-11.6604
▁regarding	-11.6605
通	-11.6605
更	-11.6605
竟	-11.6605
▁auxiliary	-11.6605
知府	-11.6605
coeffs	-11.6606
▁astonished	-11.6606
▁"218	-11.6607
▁cervelle	-11.6608
▁manifested	-11.6609
▁assault	-11.661
▁Sample	-11.661
▁26,	-11.661
過了	-11.6617
▁clothing	-11.6618
▁profane	-11.6619
▁obeyed	-11.6619
夫婦	-11.662
▁veut	-11.662
▁Ar	-11.6622
▁Dante	-11.6624
▁glaube	-11.6625
▁inclination	-11.6626
izing	-11.6627
▁tail	-11.6632
▁seal	-11.6634
Margin	-11.6634
一齊	-11.6634
▁feu	-11.6635
__()	-11.6637
▁aurait	-11.6639
▁Philadelphia	-11.664
▁21,	-11.6641
▁tale	-11.6642
xx	-11.6643
▁ancestors	-11.6644
▁17,	-11.6645
▁45	-11.6645
record	-11.6647
▁beheld	-11.6648
▁Output	-11.6648
▁ol	-11.6649
▁mob	-11.6649
▁188	-11.6649
(2,	-11.6651
▁solved	-11.6655
lic	-11.6656
Bar	-11.6658
▁submit	-11.666
▁segmentation	-11.6661
Given	-11.6662
▁Council	-11.6662
Generate	-11.6662
▁mediæval	-11.6662
pip	-11.6663
▁stable	-11.6664
▁appended	-11.6665
▁Vander	-11.6665
▁headed	-11.6667
▁someone	-11.6669
tão	-11.6673
▁dieser	-11.6673
▁sorts	-11.6674
===========	-11.6675
MaxPool	-11.6677
▁HQQLinear	-11.6677
▁Nevertheless	-11.6677
▁Indicate	-11.6677
▁Internal	-11.6678
▁scope	-11.6679
▁mo	-11.6679
▁cure	-11.668
▁Jean	-11.6682
▁viz	-11.6682
▁7.0	-11.6682
▁milk	-11.6683
uclidean	-11.6686
▁[`~	-11.6687
stream	-11.6688
=(5,	-11.6689
▁magistrate	-11.6691
UCH	-11.6691
▁Bakoor	-11.6691
▁extrapolation	-11.6691
▁mistress	-11.6691
▁möchte	-11.6691
▁"2023-01-15",	-11.6691
▁midnight	-11.6691
amour	-11.6692
▁swiftly	-11.6694
▁motive	-11.6695
renorm	-11.6696
▁``1``	-11.6697
ó	-11.6698
▁lu	-11.6699
▁linked	-11.6699
floordiv	-11.67
明	-11.6701
▁reshape	-11.6702
▁manger	-11.6705
sph	-11.6706
▁fist	-11.6707
iste	-11.6707
▁damaged	-11.6708
optionally	-11.671
▁wandb	-11.6713
fsdp	-11.6714
▁reflected	-11.6716
▁shock	-11.6716
▁rush	-11.6717
▁prospect	-11.6718
▁backend	-11.6718
▁continent	-11.6719
▁Craig	-11.672
▁esteem	-11.6721
Mo	-11.6722
rum	-11.6724
▁kH	-11.6725
▁rocky	-11.6725
▁Chinese	-11.6725
▁saddle	-11.6726
▁isles	-11.6728
▁feels	-11.6728
▁stax	-11.6729
▁Bi	-11.6729
▁mistaken	-11.673
.2.	-11.6732
▁profits	-11.6733
▁instinct	-11.6733
▁indictment	-11.6735
ama	-11.6735
fun	-11.6742
onnx	-11.6743
▁dot	-11.6744
"2023-01-01",	-11.6745
▁politics	-11.6745
▁canvas	-11.6748
▁computing	-11.6749
▁Louisville	-11.6749
▁XIV	-11.6751
▁nquad	-11.6752
put	-11.6752
▁gfun	-11.6753
▁zeroed	-11.6754
fc	-11.6756
▁journal	-11.6761
▁characteristics	-11.6766
▁produces	-11.6769
▁caution	-11.677
▁persecuted	-11.6772
Mu	-11.6772
▁encourage	-11.6775
▁couple	-11.6778
▁TF	-11.6779
▁riches	-11.678
▁scaling	-11.6784
▁mußte	-11.6784
▁extend	-11.6785
store	-11.6785
▁routines	-11.6788
ised	-11.679
▁pseudo	-11.6793
▁imitation	-11.6793
▁supremacy	-11.6795
▁losing	-11.6803
▁citizen	-11.6807
▁inscription	-11.6807
▁pilot	-11.6807
▁Academy	-11.6807
▁dist	-11.6807
▁exhausted	-11.681
▁ambition	-11.681
IE	-11.6812
亦	-11.6815
▁realm	-11.6817
▁LayerNorm	-11.6819
▁Mason	-11.6819
▁satisfactory	-11.6821
round	-11.6821
▁romantic	-11.6822
▁charitable	-11.6823
autre	-11.6823
Baden	-11.6824
▁mail	-11.6826
▁recommended	-11.6831
agged	-11.6832
▁folder	-11.6832
▁sank	-11.6837
▁Juan	-11.6837
channel	-11.6838
▁veil	-11.6842
▁discharge	-11.6842
▁metadata	-11.6843
吃	-11.6843
viz	-11.6846
ndims	-11.6847
ICE	-11.6848
▁0.0000	-11.6848
▁slave	-11.6849
▁Gray	-11.6852
▁sworn	-11.6852
▁Tour	-11.6853
workers	-11.6853
▁listen	-11.6857
▁Portuguese	-11.6858
▁VIII	-11.6858
uk	-11.6862
style	-11.6863
▁Aug	-11.6863
tanh	-11.6864
union	-11.6864
_2,	-11.6865
▁immortal	-11.6865
▁sovereignty	-11.6866
window	-11.6868
▁induced	-11.687
▁vin	-11.6872
lhe	-11.6873
▁prominent	-11.6877
▁artificial	-11.6879
▁literature	-11.6881
▁Eaton	-11.6881
▁widespread	-11.6881
▁royalty	-11.6882
▁archive	-11.6882
▁influenced	-11.6884
▁interface	-11.6886
▁promising	-11.6888
▁resolutions	-11.6889
▁Nun	-11.6893
[:	-11.6894
▁opinions	-11.6896
df	-11.6896
眼	-11.6896
10.	-11.6897
▁Lamb	-11.6898
▁steadily	-11.6899
rait	-11.69
tal	-11.6901
▁foi	-11.6903
▁regret	-11.6909
▁abundant	-11.691
▁Lincoln	-11.691
▁NEW	-11.691
▁cotton	-11.691
▁Vater	-11.6912
extra	-11.6913
▁wretched	-11.6914
+0.	-11.6917
▁Embedding	-11.6918
▁behoved	-11.6925
▁celebration	-11.6925
▁remnant	-11.6925
▁Earth	-11.6925
▁motives	-11.6927
十	-11.6928
▁searched	-11.693
▁ré	-11.693
▁Alps	-11.6934
csc	-11.6937
▁modeling	-11.6939
▁rejoicing	-11.694
▁thunder	-11.694
▁divisible	-11.694
UDA	-11.694
▁lettre	-11.694
▁Try	-11.694
▁administered	-11.6941
false	-11.6941
George	-11.6942
▁independence	-11.6948
ere	-11.695
眾人	-11.6953
玉	-11.6953
計	-11.6954
▁wagons	-11.6954
▁semi	-11.6954
▁Vocula	-11.6954
▁nephew	-11.6954
▁wharf	-11.6954
；	-11.6955
▁Sì	-11.6955
ility	-11.6955
▁conveyed	-11.6957
▁187	-11.6957
▁somehow	-11.6957
▁effectively	-11.6961
▁kindness	-11.6964
▁cannon	-11.6967
堂	-11.6967
endo	-11.6967
新	-11.6969
▁Flaccus	-11.6969
▁Piscataqua	-11.6969
▁beaucoup	-11.6969
▁removing	-11.697
▁fruits	-11.697
▁encouragement	-11.6971
▁representations	-11.6973
modeling	-11.6974
▁crossing	-11.6975
▁kai	-11.6982
ari	-11.6983
合	-11.6984
▁Carl	-11.6985
▁brick	-11.6985
▁procured	-11.6986
▁memoirs	-11.6997
▁unter	-11.6998
▁football	-11.7
▁wanting	-11.7
▁rival	-11.7001
▁translation	-11.7004
▁bem	-11.7005
ey	-11.7005
▁Islands	-11.7008
ben	-11.7008
▁"237	-11.7011
▁materials	-11.7012
▁indulged	-11.7012
▁nit	-11.7014
▁Problem	-11.7014
▁muttered	-11.7015
▁prendre	-11.7016
▁"234	-11.7018
▁moderate	-11.702
▁silently	-11.702
▁optimal	-11.7031
▁proceedings	-11.7037
▁integers	-11.7037
▁estimates	-11.7039
▁Archibald	-11.7044
ola	-11.7045
▁aggregation	-11.7045
▁disappearance	-11.7046
▁Nearly	-11.7048
ella	-11.705
▁handling	-11.7051
▁producing	-11.7051
parts	-11.7053
▁End	-11.7054
▁Zu	-11.7056
ging	-11.7057
angle	-11.7057
▁estimated	-11.7062
推	-11.7064
▁angle	-11.7064
sol	-11.7069
DING	-11.7072
64),	-11.7073
進京	-11.7073
Reykjavik	-11.7074
▁plead	-11.7075
▁exhorted	-11.7076
放	-11.7077
▁passer	-11.7079
▁cited	-11.7082
▁approximate	-11.7086
▁Isaiah	-11.7089
▁Simon	-11.709
▁comrade	-11.7093
▁Time	-11.7093
▁vii	-11.7094
▁commands	-11.7094
▁cat	-11.7095
lit	-11.7103
▁harmony	-11.7104
▁measuring	-11.7104
▁mortal	-11.7104
▁pp	-11.7105
▁neighborhood	-11.7106
▁prevented	-11.7107
▁Select	-11.7108
▁mio	-11.7109
▁ON	-11.7111
▁19,	-11.7118
▁Pennsylvania	-11.7119
lt	-11.712
`"	-11.7121
▁25,	-11.7123
▁thorough	-11.7127
▁scientific	-11.7128
well	-11.7132
▁extensive	-11.7133
▁Martha	-11.7134
▁0).	-11.7135
1>	-11.7137
▁"242	-11.7139
▁grands	-11.7139
▁hearers	-11.7141
▁attracted	-11.7141
▁31,	-11.7143
[-1]	-11.7143
▁rôle	-11.7144
▁0-	-11.7146
▁risen	-11.7147
128,	-11.7147
▁hyper	-11.7149
▁organism	-11.715
▁asks	-11.7156
▁"260	-11.7156
▁192	-11.7161
▁200	-11.7162
▁uncertain	-11.7164
▁così	-11.7164
▁creek	-11.7164
▁intelligible	-11.7165
▁educated	-11.7165
▁Useful	-11.7165
▁retreat	-11.7166
▁memorial	-11.7167
▁Raphael	-11.7167
▁kinds	-11.7167
▁47	-11.7168
▁balance	-11.7171
az	-11.7172
▁resume	-11.7173
▁ndim	-11.7175
▁Mensch	-11.7176
▁climate	-11.718
▁sloop	-11.718
▁nan	-11.7181
▁caller	-11.7181
▁hither	-11.7182
Kxa	-11.7184
▁Empire	-11.7187
seed	-11.7191
begin	-11.7199
▁assign	-11.7205
TF	-11.7206
▁beating	-11.7206
▁granite	-11.721
▁commissioner	-11.7211
▁196	-11.7211
▁dismissed	-11.7212
▁refusing	-11.7212
▁lust	-11.7213
hearted	-11.7215
▁indifferent	-11.7217
▁translated	-11.7219
▁Reise	-11.7223
望	-11.7224
▁oppose	-11.7224
▁‘	-11.7228
▁overboard	-11.7231
▁viewing	-11.7233
▁Nose	-11.7235
▁ventured	-11.7237
▁posterity	-11.724
▁sounded	-11.7242
▁33,	-11.7242
▁managers	-11.7242
▁trusted	-11.7242
ay	-11.7245
▁baby	-11.7246
▁apostle	-11.7249
▁lake	-11.7252
extend	-11.7252
▁Pannonia	-11.7255
▁cheek	-11.7258
▁Are	-11.7264
▁fragments	-11.7264
▁simplicity	-11.7271
▁Masters	-11.7271
▁OLD	-11.7274
CAC	-11.7276
▁verb	-11.7276
▁Cove	-11.7277
iers	-11.7278
▁transformations	-11.7278
▁glücklich	-11.7283
ice	-11.7285
▁admission	-11.7286
={	-11.7287
▁sang	-11.7287
▁Several	-11.7287
▁python	-11.7288
▁67	-11.7291
▁Wo	-11.7296
▁"241	-11.73
▁asserted	-11.7301
▁curse	-11.7301
▁literary	-11.7301
▁Tail	-11.7301
▁Te	-11.7302
▁AN	-11.7302
▁158	-11.7304
▁mysteries	-11.7306
▁plot	-11.7307
▁span	-11.7315
grads	-11.7316
▁widow	-11.7316
▁Vineyard	-11.7317
▁travers	-11.7317
▁speeches	-11.7318
私	-11.7319
▁inform	-11.7323
▁recognize	-11.7323
ries	-11.7332
哭	-11.7332
▁identification	-11.7332
doing	-11.7335
▁individuality	-11.7336
▁distinguishing	-11.7338
pts	-11.734
acos	-11.7341
▁Douglas	-11.7343
▁appealed	-11.7343
▁leagues	-11.7343
▁breach	-11.7345
▁specially	-11.7348
▁Pentagoet	-11.7348
▁mingle	-11.735
▁swap	-11.735
▁employment	-11.7352
escape	-11.7353
▁viii	-11.7356
▁18,	-11.7357
▁spared	-11.7358
▁parler	-11.7359
▁presque	-11.7363
▁bird	-11.7363
▁Jacksonís	-11.7364
接	-11.7364
TS	-11.7366
▁exhortation	-11.7367
▁defection	-11.7368
Right	-11.7369
▁Enfin	-11.737
▁donné	-11.7371
一日	-11.7373
trace	-11.7373
▁eighty	-11.7378
▁GERMINIE	-11.7378
▁bureau	-11.7378
mail	-11.7379
▁burst	-11.7383
OTHER	-11.7386
▁fever	-11.7386
▁greed	-11.7388
rac	-11.7391
▁priests	-11.7393
▁tolbooth	-11.7394
▁unhappy	-11.7394
▁Fife	-11.7394
▁Southern	-11.7395
▁touching	-11.7395
▁Sun	-11.7395
▁humor	-11.7396
▁55,	-11.7397
ici	-11.7398
quarters	-11.7398
▁representative	-11.7398
▁Japan	-11.7399
▁organ	-11.7401
▁"217	-11.7403
▁meines	-11.7406
霍夫人	-11.7409
▁ceremony	-11.7409
▁responsible	-11.7409
▁criminal	-11.7409
▁composite	-11.7409
▁envy	-11.7409
▁Zimmer	-11.741
▁observer	-11.741
▁mini	-11.7411
ld	-11.7415
iga	-11.7416
▁motor	-11.7419
▁deserved	-11.7423
?»	-11.7423
▁readable	-11.7424
▁duel	-11.7425
illegible	-11.7425
▁massacre	-11.7425
5.0	-11.7425
horse	-11.7431
▁Rochambeau	-11.7432
▁Jonathan	-11.7434
Sir	-11.7436
▁divers	-11.7438
▁troop	-11.744
▁Mbabane	-11.7441
▁machen	-11.7444
不肯	-11.7447
▁kl	-11.7448
不敢	-11.7448
ried	-11.7456
▁westward	-11.7456
allow	-11.7458
▁LI	-11.7458
▁Ja	-11.7467
▁solemnly	-11.7468
▁USA	-11.7471
▁converse	-11.7471
▁Erigena	-11.7472
▁Newfoundland	-11.7472
▁lantern	-11.7474
▁Phillips	-11.7475
▁Weib	-11.7476
▁superstition	-11.7476
▁integr	-11.7477
▁shield	-11.7477
▁Matthew	-11.7478
▁senses	-11.7478
▁diesem	-11.748
▁reserve	-11.7484
▁shaking	-11.7487
▁vengeance	-11.7487
▁bundle	-11.7487
▁grasped	-11.7488
▁China	-11.7488
osa	-11.7489
Tip	-11.7494
▁flowers	-11.75
expand	-11.7501
▁moderator	-11.7503
▁validity	-11.7506
▁authors	-11.7506
▁babe	-11.7508
▁senators	-11.7508
ert	-11.7512
cio	-11.7513
▁Half	-11.7514
▁------	-11.7517
[:-1]	-11.7518
▁bald	-11.7518
寫	-11.7518
▁Rutherford	-11.7519
▁Scriptures	-11.7519
▁invented	-11.7521
Vi	-11.7527
ION	-11.7528
fund	-11.7532
▁Reason	-11.7536
move	-11.7537
dist	-11.754
▁drown	-11.7542
▁4]]	-11.7543
▁ascent	-11.7547
▁skin	-11.7548
▁equations	-11.755
▁toleration	-11.755
▁poverty	-11.755
▁cows	-11.755
▁Club	-11.7551
▁critique	-11.7556
[0].	-11.7558
▁ESP	-11.756
▁briefly	-11.756
▁corpse	-11.7561
▁subscribed	-11.7562
▁loves	-11.7563
▁sempre	-11.7566
▁Alexandria	-11.7568
▁nobility	-11.7568
▁porta	-11.757
▁decline	-11.7574
▁vigorous	-11.7578
▁plunder	-11.7579
▁lieutenant	-11.7582
▁gravity	-11.7582
▁habitation	-11.7586
lower	-11.7589
regions	-11.7589
inen	-11.7595
▁arr	-11.7597
▁DON	-11.7604
▁contributed	-11.7605
▁victorious	-11.761
▁langue	-11.7613
▁votes	-11.7613
▁Small	-11.7613
▁"1988	-11.7613
▁daughters	-11.7617
▁hated	-11.7618
(3,	-11.7618
▁leaned	-11.762
▁attract	-11.7621
attentions	-11.7621
town	-11.7623
▁arrest	-11.7624
ien	-11.7624
▁Near	-11.7625
▁insurance	-11.7629
▁dated	-11.763
▁destiny	-11.7631
▁mia	-11.7632
▁offended	-11.7632
▁Augustus	-11.7633
▁ripe	-11.7633
▁180	-11.7637
▁offence	-11.7638
▁governed	-11.764
▁quaint	-11.7642
byte	-11.7643
▁sem	-11.7643
ball	-11.7643
▁proclaimed	-11.7649
uses	-11.7649
▁preachers	-11.7649
gar	-11.7649
”)	-11.765
▁evidences	-11.7651
▁fits	-11.7653
▁lively	-11.7656
([[0	-11.7657
▁optimum	-11.7658
)])	-11.766
template	-11.766
▁commerce	-11.7661
▁winning	-11.7661
▁imprisoned	-11.7662
▁endured	-11.7663
▁Find	-11.7664
▁crying	-11.7664
▁Temple	-11.7666
▁Between	-11.767
Lo	-11.767
▁fatigue	-11.7671
▁ample	-11.7671
sequence	-11.7676
▁Ye	-11.7676
▁serving	-11.7676
▁Peden	-11.7677
▁validate	-11.7677
▁Model	-11.7678
▁publicly	-11.768
▁occasional	-11.768
▁70,	-11.768
▁Salt	-11.7681
▁dislike	-11.7687
▁sealed	-11.7689
▁upward	-11.7691
▁revenge	-11.7693
▁Herbert	-11.7694
▁geht	-11.7695
▁joining	-11.7696
▁moreover	-11.77
▁[2]	-11.7702
!«	-11.7704
物	-11.7704
▁apprehension	-11.7705
▁swords	-11.7706
examples	-11.7707
銀	-11.7708
epoch	-11.7709
Invalid	-11.7709
ini	-11.771
▁stole	-11.7711
used	-11.7713
▁sends	-11.7717
▁designs	-11.772
▁attr	-11.7723
▁Cambridge	-11.7724
▁Doktor	-11.7725
▁Charpentier	-11.7725
▁experimental	-11.7725
▁detect	-11.7726
▁clover	-11.7726
▁entitled	-11.7727
▁wondering	-11.7728
Dense	-11.7734
Rhd	-11.7735
boolean	-11.7736
▁Hugo	-11.7738
▁Ca	-11.7738
▁BY	-11.7741
▁yesterday	-11.7741
▁Glück	-11.7741
▁Vetera	-11.7741
▁Winthrop	-11.7741
▁bouche	-11.7741
xpu	-11.7743
▁searching	-11.7744
▁JOURNAL	-11.7744
▁sera	-11.7746
▁diff	-11.7746
ever	-11.7753
▁"236	-11.7755
▁drama	-11.7756
▁persuasion	-11.7757
▁objected	-11.7757
▁Far	-11.7758
NA	-11.7759
▁Monhegan	-11.776
▁Winslow	-11.776
burg	-11.7761
▁boldly	-11.7765
boosting	-11.7766
epsilon	-11.7766
threshold	-11.7766
LongTensor	-11.7767
minimum	-11.7767
▁defections	-11.7769
▁lusts	-11.7769
sw	-11.7771
▁Stephen	-11.7772
aiming	-11.7772
阿壽	-11.7772
ões	-11.7773
▁corporation	-11.7773
adjust	-11.7775
母	-11.7775
▁É	-11.7776
Hu	-11.7776
▁los	-11.7777
▁parlait	-11.7779
▁cart	-11.7779
▁Have	-11.778
theta	-11.778
▁subinterval	-11.778
ExtensionArray	-11.7782
summary	-11.7782
infinity	-11.7782
override	-11.7782
▁"243	-11.7783
▁disclaim	-11.7784
tensorflow	-11.7785
▁album	-11.7786
▁forgive	-11.7786
▁relates	-11.7788
盧杞	-11.7788
太爺	-11.7789
▁remedy	-11.7789
▁voilà	-11.7789
▁ladies	-11.7789
▁bigger	-11.779
consciousness	-11.7793
char	-11.7793
ations	-11.7793
▁worldly	-11.7795
infodict	-11.7795
lag	-11.7796
▁rushed	-11.7797
expansion	-11.7798
▁pack	-11.7804
▁Smutty	-11.7805
▁wrapped	-11.7806
hermite	-11.7806
▁Ndf	-11.7809
août	-11.781
▁References	-11.7813
resized	-11.7817
▁rebel	-11.7818
▁harsh	-11.7818
然後	-11.7818
▁pool	-11.7819
cached	-11.782
▁hfun	-11.7821
試	-11.7821
▁anche	-11.7821
▁smoking	-11.7821
▁Drumont	-11.7821
▁conferred	-11.7821
▁submission	-11.7821
▁eastward	-11.7822
epochs	-11.7824
▁WE	-11.7825
▁rejected	-11.7826
▁arrangement	-11.7829
▁pirates	-11.7829
▁email	-11.7833
▁24,	-11.7833
▁ultimate	-11.7834
▁stretch	-11.7834
▁rays	-11.7835
RA	-11.7836
▁[1,2,3]	-11.7837
▁DDP	-11.7837
▁shone	-11.7837
xdivy	-11.7838
▁instantiat	-11.7838
▁broadcastable	-11.7839
▁normalize	-11.7841
▁iH	-11.7842
▁drank	-11.7842
▁ensued	-11.7843
▁([	-11.7843
▁Fall	-11.7844
▁eyed	-11.7844
▁tag	-11.7845
▁controls	-11.7845
neval	-11.7847
É	-11.7848
▁titles	-11.785
▁fa	-11.7852
multivariate	-11.7853
2023-01-15	-11.7853
▁extremity	-11.7854
FUNCTIONS	-11.7854
▁psutil	-11.7854
▁imprisonment	-11.7854
▁Shortly	-11.7854
▁compressed	-11.7855
▁rooms	-11.7855
parametrizations	-11.7856
aking	-11.7857
▁folks	-11.7858
ora	-11.7858
▁perm	-11.7862
▁valley	-11.7862
▁transfer	-11.7862
▁infant	-11.7862
book	-11.7864
▁unwrap	-11.7865
wi	-11.7865
▁instantiated	-11.7867
ky	-11.7868
▁functools	-11.787
▁popish	-11.787
bptt	-11.787
Iteration	-11.7872
▁1.3.0	-11.7878
▁moves	-11.7879
cher	-11.788
Giustino	-11.788
▁HOUSE	-11.7881
▁hessian	-11.7881
▁visiting	-11.7882
([-2.25	-11.7883
▁trivial	-11.7885
▁proceeding	-11.7885
原	-11.7886
▁recognition	-11.7886
▁Received	-11.7887
▁[1]	-11.7887
進去	-11.7887
▁reasoning	-11.7887
▁cod	-11.7887
▁pitched	-11.7892
opts	-11.7893
dated	-11.7893
▁Bishop	-11.7894
▁speculation	-11.7894
▁commence	-11.7895
polyvalfromroots	-11.7896
grp	-11.7896
▁pursue	-11.7897
Copenhagen	-11.7902
▁Treasury	-11.7902
▁colonists	-11.7902
▁zijn	-11.7905
▁Cartesian	-11.7907
▁implements	-11.7908
▁register	-11.791
▁iaxis	-11.7912
uer	-11.7913
▁exalt	-11.7913
▁polymul	-11.7914
▁nights	-11.7916
▁Saybrook	-11.7919
▁slumber	-11.7919
▁"214	-11.7919
▁vanity	-11.7919
▁forehead	-11.7923
▁"2023-02-01",	-11.7925
▁pier	-11.7925
▁ensur	-11.7925
▁alarmed	-11.7926
▁solicitation	-11.7929
▁pirate	-11.793
patterns	-11.7931
▁Similar	-11.7931
▁38	-11.7933
▁Luxembourg	-11.7935
▁rightly	-11.7935
▁Francisco	-11.7936
何處	-11.7941
▁Appendix	-11.7942
▁consul	-11.7942
▁warrior	-11.7943
▁grammar	-11.7948
▁prelates	-11.7954
▁"244	-11.7957
▁secretary	-11.7958
El	-11.7959
▁emerged	-11.796
ments	-11.7961
▁toast	-11.7962
▁resized	-11.7964
▁payment	-11.7965
▁idle	-11.7965
▁obsolete	-11.7968
▁accident	-11.7968
▁cumulative	-11.7969
liches	-11.7969
▁39,	-11.797
hold	-11.7979
▁role	-11.798
▁sigmoid	-11.7983
必	-11.7984
ory	-11.7984
▁cnt	-11.7986
▁betrayed	-11.7987
▁additions	-11.7988
▁discussed	-11.7988
▁keenly	-11.799
恐	-11.7991
▁Self	-11.7992
iness	-11.7993
more	-11.7994
▁Godhead	-11.7999
▁poets	-11.8
▁primary	-11.8001
▁58,	-11.8004
▁punished	-11.8006
▁helps	-11.8006
▁solvers	-11.8006
PRESS	-11.8008
Ar	-11.8008
▁Albert	-11.8009
▁investigation	-11.801
▁prejudice	-11.801
▁bal	-11.8012
lan	-11.8017
▁improving	-11.8017
▁heed	-11.8019
▁realize	-11.8019
▁horn	-11.802
▁momentum	-11.8021
ock	-11.8021
▁Galileian	-11.8023
▁bonds	-11.803
▁wherever	-11.8032
▁mirror	-11.8032
▁1]))	-11.8033
▁tribute	-11.8034
▁hiding	-11.8034
▁kommen	-11.8039
▁Lorentz	-11.8039
performance	-11.8046
▁singularly	-11.8047
▁tossed	-11.805
Mayflower	-11.805
▁Aberdeen	-11.805
tc	-11.8053
▁flattery	-11.8053
qua	-11.8054
ison	-11.8055
▁sweep	-11.8056
▁ruined	-11.8056
▁occupy	-11.8057
▁sdpa	-11.8059
▁0.1	-11.8059
General	-11.8062
▁neglected	-11.8063
▁medicine	-11.8065
ret	-11.8065
▁bid	-11.8065
忙	-11.8065
禮	-11.8067
Riga	-11.807
倒	-11.8071
some	-11.8073
▁Very	-11.8074
▁29,	-11.8076
▁evaluate	-11.8076
▁8]]	-11.8076
▁neat	-11.808
▁Mollie	-11.8083
▁Saturday	-11.8083
▁Schiff	-11.8083
▁prohibition	-11.8083
▁acceptance	-11.8084
▁donation	-11.8085
▁stores	-11.8088
▁crushed	-11.809
▁ST	-11.809
nes	-11.809
▁suggest	-11.809
▁affliction	-11.8093
▁neighboring	-11.8093
2215	-11.8094
▁spark	-11.8099
邵卞嘉	-11.81
vis	-11.8104
▁battles	-11.8105
本	-11.8106
0]	-11.8108
說了	-11.8108
▁recover	-11.8112
▁doubts	-11.8113
▁Oliver	-11.8116
Ye	-11.8119
▁2.],	-11.8119
▁progressive	-11.812
▁Compare	-11.812
oso	-11.8121
▁vrai	-11.8121
▁(1.0	-11.8126
▁greatness	-11.8131
▁guaranteed	-11.8132
▁disorder	-11.8132
▁mapped	-11.8133
Morph	-11.8133
▁eagle	-11.8134
rk	-11.8136
▁sink	-11.8137
▁Nous	-11.8137
▁cents	-11.8139
▁succeed	-11.8142
▁Sur	-11.8142
▁Base	-11.8144
▁tr	-11.8144
lion	-11.8145
▁cunning	-11.8146
▁stake	-11.815
▁licence	-11.815
▁consequently	-11.8152
▁martyrs	-11.8152
▁0.9	-11.8153
▁discontinue	-11.8155
▁expend	-11.8156
▁zurück	-11.8157
▁Baron	-11.8158
▁subsample	-11.816
▁reset	-11.8164
▁manners	-11.8164
▁barren	-11.8166
小三	-11.8167
aria	-11.8167
▁Four	-11.8169
▁affirm	-11.8172
▁crop	-11.8173
▁distrust	-11.8176
▁sp	-11.8177
▁storms	-11.8177
▁awakened	-11.8178
▁seiner	-11.8178
▁WORK	-11.8178
batchmean	-11.818
▁Asian	-11.818
▁cinq	-11.8181
救	-11.8182
▁readers	-11.8182
歸	-11.8182
冷	-11.8183
▁incomplete	-11.8183
▁admonition	-11.8183
▁ISLAND	-11.8183
▁tel	-11.8186
▁Did	-11.8187
▁Grand	-11.8188
▁receives	-11.8189
▁Buchanan	-11.8192
▁isle	-11.8194
▁drifted	-11.8194
▁calculations	-11.8195
▁aged	-11.8195
▁Bruce	-11.82
▁Kennebec	-11.82
▁welfare	-11.82
▁fraction	-11.8201
▁Madonnas	-11.8202
skins	-11.8204
▁exhibited	-11.8204
oc	-11.8208
▁guards	-11.8209
MP	-11.8211
_1,	-11.8212
▁"216	-11.8213
▁constituted	-11.8214
▁neighbouring	-11.8214
}_{	-11.8215
領	-11.8215
▁Erickson	-11.8217
▁LACERTEUX	-11.8217
▁mathematical	-11.8217
▁médecin	-11.8217
▁facility	-11.8217
▁inaccurate	-11.8217
▁yours	-11.8218
Se	-11.822
邵學	-11.822
▁cycle	-11.8222
▁shadows	-11.8223
▁perceive	-11.8224
▁analysis	-11.8224
▁``1	-11.8224
▁1500	-11.8224
▁declined	-11.8226
▁Chief	-11.8233
IDENTA	-11.8234
▁Montrose	-11.8234
▁memorable	-11.8234
▁undoubtedly	-11.8234
)[0]	-11.8237
▁inserted	-11.8239
▁Rom	-11.8239
▁roused	-11.8242
▁strictly	-11.8243
▁encounter	-11.8243
▁recalled	-11.8247
念	-11.825
▁trumpet	-11.8251
▁swift	-11.8251
▁scores	-11.8254
▁-4]	-11.8256
晚	-11.8256
▁amused	-11.8257
▁lock	-11.8258
▁confident	-11.826
▁implement	-11.826
▁shallow	-11.8263
isse	-11.8264
▁fifth	-11.8264
ridden	-11.8265
▁tomb	-11.8265
▁bind	-11.8265
▁admirable	-11.8266
▁benefits	-11.8267
▁Großmutter	-11.8268
▁Pentland	-11.8268
▁incapable	-11.8268
▁liquid	-11.8268
▁müssen	-11.8269
▁despised	-11.827
▁youthful	-11.8271
▁"219	-11.8273
▁parent	-11.8274
▁oak	-11.8274
▁tables	-11.8276
▁Blue	-11.8277
▁impulse	-11.8279
▁expand	-11.8279
▁divisions	-11.8279
▁blessings	-11.8281
À	-11.8282
候	-11.8282
▁bosom	-11.8285
ati	-11.8291
▁resumed	-11.8295
▁revolt	-11.8299
▁abode	-11.8301
▁perchè	-11.8302
▁bondage	-11.8302
▁protested	-11.8302
▁já	-11.8303
▁"2023-02-15"	-11.8305
▁detachments	-11.8305
▁angel	-11.8308
▁mansions	-11.8308
bb	-11.8309
▁176	-11.8314
▁blowing	-11.8318
▁(0.	-11.8319
Que	-11.8322
▁complained	-11.8323
▁algorithms	-11.8327
▁FRA	-11.833
▁encouraged	-11.833
▁blanket	-11.8331
▁dealt	-11.8331
▁sollte	-11.8331
▁selecting	-11.8332
▁generous	-11.8332
▁sehen	-11.8332
▁bois	-11.8333
▁passions	-11.8333
▁vingt	-11.8336
▁moins	-11.8336
▁endowed	-11.8337
▁Salon	-11.8337
▁fastened	-11.8337
Les	-11.8339
})"	-11.834
EG	-11.834
▁sketch	-11.8342
▁bade	-11.8343
▁70	-11.8343
▁perish	-11.8351
▁kaffirs	-11.8355
▁illumination	-11.8356
ν	-11.8359
▁heels	-11.8359
▁dirt	-11.8359
▁lucky	-11.836
▁scalars	-11.8364
▁mill	-11.8366
▁societies	-11.837
▁wilt	-11.837
▁ecclesiastical	-11.8371
▁unprotected	-11.8372
tanford	-11.8374
▁],	-11.8374
NED	-11.8377
▁Hull	-11.8382
▁plein	-11.8385
▁sheet	-11.8385
▁abandon	-11.8388
ator	-11.839
▁Joshua	-11.8393
▁aggregate	-11.8397
▁distinctions	-11.8398
Base	-11.8401
▁aller	-11.8402
▁directions	-11.8403
Ru	-11.8403
▁bones	-11.8405
▁poco	-11.8406
▁elbow	-11.8407
▁billion	-11.8408
▁definitely	-11.8412
▁Puritans	-11.8412
▁shields	-11.8416
▁perfection	-11.8419
▁REM	-11.842
ita	-11.842
▁crept	-11.8421
▁foul	-11.8423
▁dwelt	-11.8423
▁latitude	-11.8429
▁width	-11.8429
▁separately	-11.8433
▁exclusion	-11.8434
▁admire	-11.8435
▁Jahre	-11.8436
▁enjoyment	-11.8436
▁agreeable	-11.8437
▁erect	-11.8437
Paul	-11.8438
▁heir	-11.8438
▁Zion	-11.844
▁Não	-11.8441
▁factory	-11.8445
lav	-11.8446
]))	-11.8449
▁Puritan	-11.845
▁ports	-11.8451
children	-11.8455
pon	-11.8455
▁immanent	-11.8455
▁slab	-11.8455
▁surf	-11.8457
unt	-11.8461
']:	-11.8462
▁symbolic	-11.8463
▁Berlin	-11.8464
▁Wilson	-11.8465
▁instruments	-11.8465
▁theories	-11.8465
positional	-11.847
▁List	-11.847
lock	-11.847
▁legacy	-11.8471
▁exceed	-11.8479
89	-11.848
▁exceptions	-11.8481
看了	-11.8482
▁powder	-11.8484
▁sixteen	-11.8487
▁cleared	-11.8489
▁0.0,	-11.8489
▁Square	-11.849
▁purity	-11.849
▁XI	-11.8491
▁guardian	-11.8493
▁outbreak	-11.8495
▁divides	-11.8499
▁soit	-11.85
▁princes	-11.8501
igen	-11.8505
▁Cornelius	-11.8507
▁abundance	-11.8507
▁combination	-11.8507
▁mutiny	-11.8507
▁shine	-11.8507
▁slavery	-11.8507
▁nay	-11.8509
▁écrit	-11.8509
▁idol	-11.8512
▁Within	-11.8513
動	-11.8513
▁flames	-11.8517
▁esta	-11.8518
▁attending	-11.8521
▁frozen	-11.8524
▁absurd	-11.8524
▁Mysteries	-11.8524
▁efficiency	-11.8524
▁Wallie	-11.8525
(3)]	-11.8526
▁driving	-11.8531
▁relu	-11.8531
▁Johnson	-11.8531
▁puzzled	-11.8533
These	-11.8534
ult	-11.8536
auteur	-11.8536
sev	-11.8536
▁lean	-11.8537
Men	-11.8537
▁magnitude	-11.8538
ida	-11.8539
▁tobacco	-11.8539
▁peaceful	-11.854
▁inp	-11.8541
▁preface	-11.8542
▁synonymous	-11.8542
-14)	-11.8543
▁finest	-11.8543
▁fulfilled	-11.8543
▁dynamically	-11.8544
▁grim	-11.8544
▁favourite	-11.8544
▁dashed	-11.8547
validity	-11.8548
敢	-11.8549
▁DEN	-11.8549
這樣	-11.8551
▁county	-11.8552
EU	-11.8555
白	-11.8555
▁Varus	-11.8559
▁readiness	-11.856
▁skipper	-11.856
▁cheer	-11.8562
▁jail	-11.8566
▁drunk	-11.8566
▁Name	-11.8567
▁scorn	-11.8568
▁vent	-11.8569
▁feeble	-11.8572
▁technique	-11.8573
▁downloading	-11.8574
▁Gillespie	-11.8577
gue	-11.8577
▁justified	-11.8578
▁Castin	-11.858
▁conformity	-11.8583
▁(3,	-11.8586
▁clever	-11.8591
▁Reformation	-11.8594
▁vielleicht	-11.8594
because	-11.8594
bottom	-11.8594
▁yielding	-11.8594
▁71	-11.8595
▁compat	-11.8595
▁Jafta	-11.8599
▁terre	-11.8601
▁fn	-11.8602
▁171	-11.8603
▁screen	-11.8607
tter	-11.8611
▁manifold	-11.8612
▁191	-11.8614
nA	-11.8615
▁halt	-11.8619
must	-11.862
▁Age	-11.8621
▁cloak	-11.8623
▁padded	-11.8624
常	-11.8629
▁monsieur	-11.8629
▁elevation	-11.8629
▁SEND	-11.863
▁Acts	-11.8631
▁Perform	-11.8632
▁subordinate	-11.8634
▁Distributed	-11.8636
▁resting	-11.8636
▁Samoset	-11.8637
GRAPH	-11.8637
cy	-11.864
▁expresses	-11.864
Ku	-11.864
reading	-11.8641
▁marching	-11.8641
▁keeper	-11.8642
買	-11.8645
▁57,	-11.8645
安	-11.8646
弄	-11.8646
▁reshaped	-11.8648
▁dining	-11.8649
▁sigh	-11.8657
▁chin	-11.8663
轉	-11.8664
▁Republic	-11.8664
▁Poutrincourt	-11.8664
▁believing	-11.8664
TIVE	-11.8665
▁idealistic	-11.8665
不是	-11.8665
))).	-11.867
▁basic	-11.867
▁spirituality	-11.8671
Did	-11.8673
▁exposition	-11.8674
▁Oct	-11.8678
▁mettre	-11.868
遠	-11.868
寒	-11.8682
曰	-11.8682
▁jurisdiction	-11.8682
Curtis	-11.8683
zy	-11.8684
▁checked	-11.8686
Look	-11.8686
▁descended	-11.8688
▁kissed	-11.8688
▁"215	-11.8688
Sh	-11.8691
▁badly	-11.8693
▁winds	-11.8695
▁rescued	-11.8697
repr	-11.8698
▁converting	-11.8699
▁swim	-11.8699
distributing	-11.8704
▁succession	-11.8708
▁clocks	-11.8708
▁esteemed	-11.8709
▁communicate	-11.8711
▁hollow	-11.8711
Relu	-11.8711
annotate	-11.8712
▁TUR	-11.8713
.[4	-11.8716
▁insight	-11.8717
▁montre	-11.8717
ily	-11.872
▁neighbor	-11.8722
ering	-11.8724
▁messengers	-11.8726
vers	-11.8729
▁surroundings	-11.8732
▁chaplain	-11.8735
minded	-11.8738
▁retire	-11.8738
pass	-11.8739
▁executive	-11.8742
▁meditation	-11.8743
▁forbear	-11.8743
▁excuse	-11.8744
▁beasts	-11.8745
▁道	-11.8745
▁eines	-11.8747
老夫人	-11.8748
▁male	-11.8749
▁xxii	-11.875
▁employee	-11.875
▁Up	-11.8752
▁governing	-11.8752
projection	-11.8752
▁prudent	-11.8752
▁accounted	-11.8753
▁Revenue	-11.8754
▁Mal	-11.8754
▁tau	-11.8754
Acts	-11.8755
tol	-11.8755
▁grip	-11.8757
▁villages	-11.876
▁constitutional	-11.8762
▁allies	-11.8762
▁recommend	-11.8762
▁Nay	-11.8762
▁4)	-11.8763
▁conte	-11.8766
▁lc	-11.8767
▁kaffir	-11.8768
▁Vitellian	-11.8768
▁circumstance	-11.8768
▁eliminate	-11.8769
▁tiger	-11.8769
▁abstraction	-11.877
128)	-11.877
▁ties	-11.877
ization	-11.8771
signature	-11.8772
Nkoos	-11.8772
▁173	-11.8773
absolute	-11.8773
▁withal	-11.8776
▁compact	-11.8777
▁overflow	-11.8778
▁161	-11.8782
uit	-11.8784
▁plants	-11.8786
Belgrade	-11.8788
▁sys	-11.879
fast	-11.8793
Man	-11.8794
▁intimately	-11.8794
▁linen	-11.8795
source	-11.8803
status	-11.8803
Tallinn	-11.8806
▁bloodshed	-11.8806
▁Origen	-11.8807
lö	-11.8808
boat	-11.8808
▁Springer	-11.8809
▁Song	-11.881
▁believes	-11.8816
▁Pass	-11.8817
▁economy	-11.8824
▁funeral	-11.8824
▁foresaid	-11.8824
▁influences	-11.8824
▁volumes	-11.8825
▁virus	-11.8825
coast	-11.8826
▁colonial	-11.8828
▁reformed	-11.8828
▁Là	-11.8829
▁evils	-11.8829
▁chimney	-11.8829
▁occurrence	-11.884
▁chicken	-11.884
(0.	-11.8841
▁Gilbert	-11.8842
▁exclamation	-11.8842
▁patronage	-11.8842
`."	-11.8842
▁planet	-11.8843
▁"245	-11.8844
▁parlant	-11.8845
▁XV	-11.8845
\".	-11.8847
▁admired	-11.8849
▁partie	-11.8851
▁55	-11.8852
rò	-11.8853
▁martyr	-11.8855
▁stolen	-11.8857
▁impressions	-11.8857
▁Gallus	-11.886
▁HAVE	-11.886
▁Mobile	-11.886
▁gently	-11.886
▁Rdf	-11.886
▁pinch	-11.886
▁20%	-11.8862
▁Mission	-11.8862
fused	-11.8865
▁Santa	-11.8866
▁Adolf	-11.8868
sampled	-11.8869
enshaw	-11.8869
▁founder	-11.8871
▁gibt	-11.8872
▁nice	-11.8875
▁psalm	-11.8876
position	-11.8878
▁Classicus	-11.8878
▁wire	-11.8884
▁essentially	-11.8885
▁passe	-11.8886
▁hesitated	-11.8893
▁boulevard	-11.8894
ded	-11.8894
4.75	-11.8895
▁Quincy	-11.8895
▁Best	-11.8896
spatial	-11.8898
)],	-11.8899
trim	-11.8899
▁sustained	-11.8901
▁fetch	-11.8902
]``.	-11.8902
▁parallelism	-11.8903
▁parted	-11.8904
▁missed	-11.8906
▁violate	-11.8909
▁lawn	-11.8913
▁Pro	-11.8913
▁prudence	-11.8914
▁Platonists	-11.8916
ette	-11.8917
未知	-11.8922
▁ncol	-11.8926
here	-11.893
har	-11.893
▁antiquity	-11.8932
▁atmosphere	-11.8932
▁stability	-11.8932
▁farewell	-11.8933
(32,	-11.8933
▁1824	-11.8934
profit	-11.8935
色	-11.8939
▁sampling	-11.894
▁yielded	-11.894
▁accomplish	-11.8941
ery	-11.8945
自己	-11.8949
▁suspect	-11.8949
▁swore	-11.895
▁deceived	-11.895
▁lightning	-11.8953
▁hinder	-11.8954
=1.	-11.8955
En	-11.8959
▁Sc	-11.8961
▁horrible	-11.8961
▁conform	-11.8962
▁generator	-11.8962
▁Ch	-11.8966
▁Ten	-11.8967
Have	-11.8967
▁riot	-11.8968
▁BUT	-11.8968
▁hopeless	-11.897
▁collected	-11.8975
▁lasted	-11.8975
▁ciel	-11.8975
▁km	-11.8975
▁arises	-11.8976
▁Quaker	-11.8978
▁realise	-11.8979
▁Divide	-11.8981
▁borders	-11.8985
▁costume	-11.8985
▁Railroad	-11.8987
gamma	-11.8991
▁accord	-11.8992
}'	-11.8992
six	-11.8993
elect	-11.8995
Are	-11.8996
▁strait	-11.8999
sep	-11.8999
▁orig	-11.9
▁advantages	-11.9002
▁achieve	-11.9002
▁Gauss	-11.9004
▁stripped	-11.9005
▁insist	-11.9006
([3	-11.9007
attribute	-11.9008
▁invasion	-11.9008
weighted	-11.9009
49	-11.901
▁challenge	-11.9016
▁pace	-11.9016
▁shewed	-11.9017
▁Creat	-11.9017
▁maid	-11.9021
▁Presbyterian	-11.9022
▁bras	-11.9024
▁501	-11.9024
▁représentation	-11.9026
▁helpful	-11.9026
真	-11.9026
second	-11.9027
李	-11.9027
shot	-11.9028
Model	-11.9028
kin	-11.903
▁cared	-11.9031
▁essay	-11.9034
▁checking	-11.904
▁peinture	-11.904
john	-11.9041
fitted	-11.9044
▁hereafter	-11.9046
Jack	-11.9046
▁introduce	-11.9047
▁procession	-11.9052
▁intend	-11.9054
▁crowned	-11.9054
Pa	-11.9055
▁recursive	-11.9056
Figaro	-11.9059
ITNESS	-11.9059
▁jardin	-11.9059
▁memories	-11.9059
"))	-11.9061
▁shew	-11.9062
Interval	-11.9063
exclusive	-11.9063
Predict	-11.9065
its	-11.9066
Note	-11.9067
97	-11.9069
▁Northern	-11.907
ute	-11.9072
▁transcribe	-11.9072
▁Li	-11.9073
▁fortunate	-11.9074
▁mechanical	-11.9074
庵	-11.9075
王	-11.9077
▁interfere	-11.9077
-9	-11.9078
att	-11.9078
labels	-11.9079
▁trek	-11.9079
ered	-11.9079
adas	-11.908
▁Irish	-11.9084
versions	-11.9085
▁sacraments	-11.9085
▁Lost	-11.9088
▁versions	-11.9091
▁TP	-11.9092
走到	-11.9093
信	-11.9094
法	-11.9095
奉	-11.9095
清	-11.9095
▁lifting	-11.9095
▁robust	-11.9095
▁société	-11.9095
者	-11.9096
▁confinement	-11.9096
▁referring	-11.9096
▁resigned	-11.9098
房	-11.9099
▁quoi	-11.91
▁000	-11.91
HfQuantizer	-11.91
dblquad	-11.91
TYPE	-11.91
▁passé	-11.9102
32),	-11.9103
▁seamen	-11.9104
如此	-11.9107
-19	-11.9108
basics	-11.9108
expanded	-11.9109
▁255	-11.911
▁snug	-11.911
▁copper	-11.9114
▁flexible	-11.9114
HOSE	-11.9114
elbo	-11.9114
▁Suso	-11.9114
CONSE	-11.9115
▁colours	-11.9118
annotation	-11.9118
classifier	-11.9119
polyfromroots	-11.9119
▁blanc	-11.9119
nested	-11.912
([[[	-11.912
▁Historical	-11.9123
▁Women	-11.9123
DType	-11.9123
json	-11.9123
polyint	-11.9124
segmentation	-11.9125
▁Harry	-11.9126
▁decent	-11.9126
▁Boris	-11.9126
gfun	-11.913
▁prey	-11.9131
點	-11.9131
nte	-11.9132
似	-11.9132
▁Evaluate	-11.9132
▁Flaubert	-11.9132
▁Réjane	-11.9132
▁dispensation	-11.9132
▁disturbance	-11.9132
▁dismay	-11.9133
▁kwarg	-11.9133
▁periodic	-11.9134
reset	-11.9136
▁attacks	-11.914
邵十州	-11.914
▁plate	-11.9142
▁Federal	-11.9146
una	-11.9148
▁astern	-11.9148
▁[15	-11.9148
▁==============	-11.9148
child	-11.9149
▁mer	-11.9149
目	-11.915
▁ghost	-11.915
▁seu	-11.9151
▁Dalziel	-11.9151
▁Platonism	-11.9151
▁connexion	-11.9151
▁maladie	-11.9151
▁transcription	-11.9151
▁besoin	-11.9151
▁Regression	-11.9151
▁obligation	-11.9151
▁Pope	-11.9152
▁literally	-11.9152
ili	-11.9154
▁lover	-11.9155
over	-11.9155
▁bleiben	-11.9156
▁Part	-11.9158
▁demi	-11.9159
staged	-11.9159
▁Learning	-11.9159
cur	-11.916
**2``	-11.9162
▁kleinen	-11.9164
幾	-11.9165
▁selection	-11.9167
▁Cotton	-11.9169
▁conjunction	-11.9169
▁navy	-11.9169
▁slain	-11.9169
Hi	-11.917
▁nationality	-11.9172
tôt	-11.9173
▁Menschen	-11.9173
contact	-11.9175
même	-11.9175
docstring	-11.9177
▁invisible	-11.9178
fromroots	-11.9178
▁120	-11.9181
▁eminence	-11.9183
▁ersten	-11.9183
▁breathing	-11.9183
▁rifles	-11.9187
▁assemblies	-11.9188
▁roundoff	-11.9189
ule	-11.9191
▁0.20	-11.9191
▁instructed	-11.9193
▁Logos	-11.9194
使	-11.9195
(20,	-11.9195
ans	-11.9197
=-1	-11.9197
▁73	-11.9198
▁coef	-11.9201
▁0.18	-11.9204
▁batchify	-11.9206
▁Trumbull	-11.9206
▁compilation	-11.9206
▁divisor	-11.9206
▁harvest	-11.9206
▁infeasible	-11.9206
GenerationMixin	-11.9206
▁magnificent	-11.9206
{{'	-11.9207
=1}_{	-11.9207
▁yoke	-11.9207
▁infbounds	-11.9207
▁triplet	-11.9208
▁zur	-11.9209
fillna	-11.9209
▁Wochen	-11.9209
▁tmp	-11.9209
▁upsampling	-11.921
▁Oriental	-11.921
ende	-11.921
▁``2``	-11.9211
toucan	-11.9212
▁errand	-11.9212
▁nqs	-11.9214
▁null	-11.9216
ATIONS	-11.9216
你可	-11.9216
datetimelike	-11.9217
NDER	-11.9217
▁(``'	-11.9218
▁scaler	-11.9221
lum	-11.9223
Nfd	-11.9223
({"	-11.9224
▁"1989	-11.9225
▁warmup	-11.9227
Softmax	-11.9229
▁changing	-11.923
▁serves	-11.9231
abstract	-11.9231
▁63,	-11.9231
▁iterable	-11.9233
▁scenes	-11.9233
▁Lectures	-11.9234
▁products	-11.9235
ser	-11.9237
▁Sequence	-11.9238
▁extending	-11.9238
ind	-11.9239
▁questa	-11.924
▁patient	-11.924
erie	-11.924
▁mypy	-11.9242
▁Volunteers	-11.9244
▁cemetery	-11.9244
▁guidance	-11.9244
▁Sewall	-11.9244
▁polypow	-11.9244
▁polymulx	-11.9245
▁silly	-11.9245
▁polyadd	-11.9246
▁saith	-11.9246
▁establishment	-11.9247
▁npfunc	-11.9248
▁marry	-11.9252
▁invention	-11.9255
▁polydiv	-11.9257
▁camera	-11.9257
.0/	-11.926
ré	-11.9261
▁64-6	-11.9262
▁traced	-11.9262
▁mots	-11.9263
▁abserr	-11.9264
flat	-11.9265
Per	-11.9269
▁polysub	-11.9269
ably	-11.927
▁Rhd	-11.9272
▁winding	-11.9273
row	-11.9275
▁concat	-11.9277
▁quasi	-11.9278
▁40,	-11.9279
▁Arab	-11.928
▁indicates	-11.9281
▁crisis	-11.9281
▁Ruth	-11.9281
▁vehicle	-11.9282
MARK	-11.9283
▁endeavour	-11.9283
▁overthrow	-11.9286
▁dissolved	-11.9288
▁pré	-11.9288
▁44	-11.9289
Gra	-11.929
▁41	-11.929
▁ter	-11.9294
▁assertion	-11.9294
▁Third	-11.9296
card	-11.9297
▁discern	-11.9299
rio	-11.93
▁automatic	-11.93
ways	-11.9301
▁pleasing	-11.9303
▁167	-11.9304
▁earned	-11.9305
▁normalized	-11.9305
▁ranging	-11.9308
▁dies	-11.9311
▁INC	-11.9314
Ree	-11.9315
▁curiously	-11.9315
das	-11.9319
▁repeatedly	-11.932
▁manifestation	-11.9321
vent	-11.9322
Your	-11.9323
▁assisted	-11.9326
▁1650	-11.9328
▁departed	-11.933
直	-11.9331
IABLE	-11.9332
▁2000	-11.9333
cent	-11.9335
▁Freund	-11.9337
▁hastily	-11.9337
uro	-11.9337
▁Ree	-11.9338
▁PUR	-11.9339
▁pit	-11.9342
▁Ages	-11.9342
▁behave	-11.9343
estimate	-11.9344
Me	-11.9349
▁chapters	-11.9353
Havana	-11.9356
▁Rudolph	-11.9356
▁salmon	-11.9357
▁certainty	-11.9359
▁argued	-11.9359
▁tasks	-11.9359
GER	-11.9361
▁honoured	-11.9361
▁nowhere	-11.9361
history	-11.9363
down	-11.9363
▁52	-11.9364
▁Whereupon	-11.9365
ping	-11.9368
active	-11.937
▁elaborate	-11.937
▁pointer	-11.937
nrow	-11.9371
▁RIGHT	-11.9371
urs	-11.9374
▁vita	-11.9374
extensions	-11.9375
▁Tutor	-11.9375
▁Gal	-11.9375
▁vulgar	-11.9379
▁solely	-11.9383
intp	-11.9383
愛	-11.9383
▁Cromwell	-11.9383
▁adj	-11.9383
+1)	-11.9384
▁annual	-11.939
▁brand	-11.939
▁hearty	-11.9391
IED	-11.9392
=1.0,	-11.9392
itz	-11.9393
▁Release	-11.9394
▁Teresa	-11.9394
▁stature	-11.9394
▁warfare	-11.9394
▁1828	-11.9395
▁crois	-11.9396
▁slice	-11.9399
▁decks	-11.94
▁shorter	-11.94
▁curr	-11.94
▁everybody	-11.94
025	-11.94
▁puts	-11.9405
▁Gen	-11.9411
▁53,	-11.9411
▁international	-11.9413
▁brass	-11.9414
▁XVI	-11.9415
▁resize	-11.9418
▁traveling	-11.9421
(6)	-11.9422
▁foundations	-11.9422
▁internally	-11.9426
rb	-11.9428
▁thirteen	-11.9429
▁28,	-11.9429
Hello	-11.9429
▁watchful	-11.9432
▁autumn	-11.9432
▁WILL	-11.9432
交	-11.9433
▁Ach	-11.9435
▁observing	-11.9435
▁contradiction	-11.9437
matched	-11.9444
▁leak	-11.9446
▁150	-11.9448
By	-11.9449
▁extinct	-11.945
▁cars	-11.945
▁Celsus	-11.9451
▁baptism	-11.9451
▁regulating	-11.9451
▁filling	-11.9453
▁railroad	-11.9453
cut	-11.9456
▁36	-11.9458
glass	-11.9459
tag	-11.9461
▁mano	-11.9462
Ref	-11.9465
▁employ	-11.9466
▁accurate	-11.9466
▁tutto	-11.9467
▁Großeltern	-11.947
▁DISC	-11.947
▁trap	-11.947
▁justly	-11.9476
next	-11.9478
assignment	-11.948
▁precise	-11.9485
BILITY	-11.9485
▁sabbath	-11.9489
▁institutions	-11.9491
▁examine	-11.9491
▁Ruysbroek	-11.9492
▁($1	-11.9493
▁lassen	-11.9495
▁Max	-11.9497
▁"212	-11.9498
▁174	-11.95
▁2024	-11.9503
▁bist	-11.9504
ERS	-11.9506
warnings	-11.9506
Prague	-11.9508
▁delighted	-11.9508
92	-11.951
▁deadly	-11.951
▁fountain	-11.9511
▁relatively	-11.9511
▁climbed	-11.9515
rsqrt	-11.9515
▁`[0	-11.9516
▁personne	-11.9518
▁Calderwood	-11.952
黃	-11.9521
▁convince	-11.9522
▁MERCHANT	-11.9527
▁rigging	-11.9527
▁charity	-11.9527
▁faithfully	-11.9529
▁159	-11.9531
remove	-11.9531
▁singing	-11.9536
▁Ist	-11.9536
bvalues	-11.9537
▁varied	-11.9541
▁exclusively	-11.9542
LAF	-11.9542
▁Cromwel	-11.9545
▁marines	-11.9546
▁awoke	-11.9546
▁laisse	-11.9548
▁rumour	-11.955
EL	-11.9551
OSSI	-11.9552
▁daran	-11.9552
▁smith	-11.9554
▁remarks	-11.9555
After	-11.9555
809	-11.9557
distribution	-11.956
USE	-11.9563
▁huggingface	-11.9564
封	-11.9565
邵郎	-11.9565
▁Vinius	-11.9566
▁moyen	-11.9566
▁nouvelle	-11.9566
▁idealism	-11.9567
▁stamp	-11.9567
▁1832,	-11.9567
暗想	-11.9569
ston	-11.9572
▁qual	-11.9574
▁alien	-11.9576
...."	-11.9579
▁sums	-11.958
né	-11.9582
▁sentences	-11.9582
八	-11.9584
▁whaling	-11.9585
Identify	-11.9585
▁trouvait	-11.9585
▁suspended	-11.9588
▁bone	-11.9594
readable	-11.9595
▁1))	-11.9595
▁detached	-11.9596
▁dieses	-11.9597
▁graces	-11.9598
▁」	-11.9598
▁cosa	-11.9598
▁moss	-11.96
▁écrire	-11.9601
悟凡	-11.9602
皆	-11.9603
黃公	-11.9604
兵	-11.9604
太	-11.9604
▁greeted	-11.9605
▁este	-11.9606
▁disasters	-11.9606
▁Girls	-11.9607
▁associates	-11.961
▁Protestant	-11.961
▁ratio	-11.9612
arguments	-11.9612
were	-11.9613
▁wearing	-11.9613
▁facing	-11.9614
▁nos	-11.9614
▁piano	-11.9619
▁brush	-11.962
▁draws	-11.962
留	-11.9621
ties	-11.9622
▁novel	-11.9623
▁EVEN	-11.9623
▁Céard	-11.9623
▁geometry	-11.9623
▁opposing	-11.9623
▁unseen	-11.9624
▁terrace	-11.9624
ière	-11.9626
見了	-11.9627
','	-11.9628
▁boom	-11.9629
▁6)	-11.9629
▁philosopher	-11.9629
▁theoretical	-11.9634
備	-11.9636
ification	-11.9638
▁inquire	-11.9639
▁27,	-11.9639
lle	-11.9639
▁AD	-11.964
NCLU	-11.964
ual	-11.964
落	-11.9642
▁Senator	-11.9643
▁isolated	-11.9644
▁revival	-11.9644
▁crush	-11.9647
▁poly	-11.9656
▁glanced	-11.9656
▁37,	-11.9656
▁READ	-11.9656
▁Yea	-11.9657
écrie	-11.9658
▁allowing	-11.9658
('-	-11.9659
ITA	-11.966
水	-11.9661
▁ordinances	-11.9661
Stockholm	-11.9662
▁supporters	-11.9663
▁mieux	-11.9663
Li	-11.9664
▁funny	-11.9665
▁Eh	-11.9665
▁proprietary	-11.9669
▁revenue	-11.967
▁indemnif	-11.9674
▁distinctly	-11.9676
rm	-11.9676
tas	-11.9677
1887.	-11.9678
kT	-11.9679
州	-11.9681
▁withdrew	-11.9682
▁voce	-11.9682
▁moonlight	-11.9682
不覺	-11.9683
▁consult	-11.9685
ability	-11.9689
母親	-11.969
ford	-11.969
▁neighbours	-11.9692
▁"210	-11.9694
▁Others	-11.9694
▁visitors	-11.9695
▁9.0	-11.9698
▁TRAD	-11.9699
Heb	-11.97
▁compass	-11.9701
LEASE	-11.9701
▁synod	-11.9701
▁enforce	-11.9701
也不	-11.9702
▁Ziegler	-11.9703
▁DIRECT	-11.9707
isation	-11.9708
▁UT	-11.9708
▁collect	-11.971
▁disposed	-11.9711
三人	-11.9712
▁feast	-11.9713
▁rng	-11.9714
▁accessed	-11.9719
ES	-11.972
▁grievous	-11.9721
STRICT	-11.9721
▁malice	-11.9721
▁robbed	-11.9721
▁Dieu	-11.9722
▁indifference	-11.9723
NN	-11.9724
▁pretend	-11.9725
▁afflicted	-11.9727
▁ray	-11.9732
▁Creeks	-11.9734
ett	-11.9735
Help	-11.9737
16]	-11.9739
▁thief	-11.974
▁anchorage	-11.9742
▁naval	-11.9745
▁wollen	-11.9745
▁factors	-11.9747
▁prompt	-11.9748
▁Matt	-11.9749
wan	-11.975
▁REFU	-11.975
▁throng	-11.9752
▁belle	-11.9757
▁cargo	-11.9758
▁uint	-11.9758
▁reckoned	-11.9758
▁"206	-11.9762
▁lodging	-11.9767
▁peak	-11.9767
▁traditions	-11.9768
相見	-11.9769
▁trunk	-11.9769
###############	-11.977
▁1638,	-11.9771
Extract	-11.9771
▁rely	-11.9771
▁Hope	-11.9771
▁denken	-11.9772
▁Water	-11.9773
▁thine	-11.9778
▁REPLACE	-11.978
▁ACTUAL	-11.978
▁Interzonal	-11.978
▁Murray	-11.978
▁OWNER	-11.978
▁Treviri	-11.978
▁YORK	-11.978
▁tremble	-11.978
▁ungodly	-11.978
▁cheese	-11.978
▁darted	-11.9783
Rff	-11.9784
▁fed	-11.9786
▁concepts	-11.9788
▁3]	-11.9788
▁executioner	-11.9789
▁video	-11.9789
▁hunt	-11.979
▁206	-11.9794
_0,	-11.9794
卻是	-11.9795
▁empirical	-11.9796
▁steep	-11.9798
CEPT	-11.9799
▁Bedriacum	-11.9799
▁FOUNDATION	-11.9799
▁dividing	-11.9799
▁peninsula	-11.9799
▁PROVI	-11.9799
}'.	-11.9799
▁GIVE	-11.9799
▁CONT	-11.9799
▁petites	-11.9802
▁pilgrimage	-11.9802
▁Gedanken	-11.9804
▁stress	-11.9804
asse	-11.9809
fitting	-11.9809
▁download	-11.9811
▁Jahren	-11.9816
▁careless	-11.9819
▁vostra	-11.9819
▁driver	-11.9819
▁constrained	-11.982
DED	-11.9821
▁Qual	-11.9821
▁人	-11.9822
▁luxury	-11.9823
▁blessedness	-11.9823
THING	-11.9824
(2),	-11.9825
▁prevail	-11.9826
▁redistribute	-11.9828
見他	-11.9828
Information	-11.9831
▁transported	-11.9831
▁rises	-11.9834
▁increases	-11.9834
▁USE	-11.9837
▁grade	-11.9837
Au	-11.9838
▁Graham	-11.9839
▁percussion	-11.9839
▁clamour	-11.9839
▁terrified	-11.9839
▁flush	-11.984
▁antique	-11.9843
▁37	-11.9843
?--	-11.9844
▁Defect	-11.9845
▁PARA	-11.9847
▁consisted	-11.9848
hon	-11.9848
▁poi	-11.985
▁EIN	-11.9852
▁prose	-11.9854
64]	-11.9857
▁Culture	-11.9858
Classify	-11.9859
64(	-11.9859
▁cluster	-11.986
▁abruptly	-11.9861
POS	-11.9861
lder	-11.9862
ible	-11.9864
▁halted	-11.9867
▁persecutors	-11.9876
license	-11.9878
▁Title	-11.9878
▁Wordsworth	-11.9878
▁trimmed	-11.9881
▁gazing	-11.9882
▁rampart	-11.9884
▁colonel	-11.9887
▁vastly	-11.9888
▁metal	-11.9889
trans	-11.989
▁deducti	-11.989
▁128,	-11.9894
ige	-11.9896
▁Fisher	-11.9897
▁competition	-11.9898
▁deletions	-11.9898
had	-11.99
UENTIAL	-11.99
▁joue	-11.9901
▁temptations	-11.9904
▁confirm	-11.9905
▁avete	-11.9906
▁honours	-11.9909
▁Gott	-11.9909
esprit	-11.9911
▁comrades	-11.9913
▁Batavians	-11.9916
die	-11.9918
▁Divinity	-11.9918
▁hesitation	-11.9918
▁identified	-11.9918
▁temporary	-11.9918
▁whites	-11.9918
ill	-11.9919
▁sandy	-11.9922
▁valued	-11.9922
▁learnt	-11.9924
▁cru	-11.9925
▁beset	-11.9926
ompliance	-11.9928
▁torment	-11.993
▁cord	-11.9932
▁Nbxd	-11.9935
``:	-11.9936
▁diligent	-11.9936
▁esse	-11.9936
war	-11.9938
▁merits	-11.9938
▁constancy	-11.9938
▁annals	-11.9938
▁functionality	-11.9938
▁$5,000	-11.9939
▁laughing	-11.994
▁expressing	-11.9941
sequential	-11.9942
▁Faith	-11.9942
▁fertile	-11.9944
▁cohort	-11.9945
▁commenced	-11.9948
▁(80	-11.9948
▁Civil	-11.9949
▁processes	-11.995
Paradise	-11.9951
solicited	-11.9951
lon	-11.9954
▁hooks	-11.9954
▁kleine	-11.9955
▁cas	-11.9955
▁infringement	-11.9958
▁primarily	-11.9958
▁Ocean	-11.9958
▁whales	-11.9958
▁Rcd	-11.996
▁photograph	-11.996
這個	-11.9961
liness	-11.9961
Canno	-11.9962
▁weapon	-11.9965
▁weigh	-11.9966
▁owners	-11.9967
▁bunks	-11.9967
optim	-11.9969
▁sobre	-11.9969
▁mag	-11.9969
▁fierce	-11.9972
01"]	-11.9975
ln	-11.9976
hall	-11.9977
▁propagation	-11.9978
▁"1925	-11.9978
▁donors	-11.9981
▁colleague	-11.9985
▁Psalm	-11.9986
▁seit	-11.9988
▁sect	-11.999
té	-11.999
▁expectation	-11.9991
copyright	-11.9992
▁expanding	-11.9994
▁Chesapeake	-11.9996
▁discourses	-11.9997
▁Contact	-11.9998
▁triste	-11.9998
▁bene	-12.0001
eBook	-12.0001
▁wheels	-12.0005
▁dates	-12.0006
▁flashed	-12.0007
▁stem	-12.0008
▁balls	-12.0008
proprietary	-12.0012
trademark	-12.0012
▁prophetic	-12.0014
IMPL	-12.0014
▁cult	-12.0015
LIGEN	-12.0018
)*	-12.0021
▁Email	-12.0021
▁musical	-12.0023
"\	-12.0023
ative	-12.0024
▁disturbed	-12.0025
▁IRS	-12.0026
▁infinity	-12.0027
yn	-12.0028
-3,	-12.0029
under	-12.003
there	-12.003
DIRECT	-12.0032
▁Doch	-12.0033
anchor	-12.0033
▁sands	-12.0034
▁Über	-12.0034
pruned	-12.0038
▁Contribution	-12.0038
▁originator	-12.0039
▁Renaissance	-12.004
▁repair	-12.0042
▁contribution	-12.0046
▁Hal	-12.0048
虛齋	-12.0048
▁Air	-12.005
mir	-12.0051
splitting	-12.0052
bos	-12.0052
▁fearing	-12.0054
16'	-12.0054
▁formats	-12.0056
▁Proof	-12.0057
▁notifie	-12.0057
▁destination	-12.0059
▁unenforceab	-12.0059
IMER	-12.006
▁IX	-12.006
▁redistribution	-12.0061
▁"207	-12.0061
iel	-12.0061
▁Commissioner	-12.0061
▁withdraw	-12.0061
▁Replacement	-12.0062
Su	-12.0063
▁chunk	-12.0068
mit	-12.0071
▁Mas	-12.0072
reflection	-12.0073
Defect	-12.0073
▁historically	-12.0073
▁defended	-12.0074
▁laboured	-12.0074
▁POL	-12.0075
▁XXI	-12.0076
▁murmur	-12.0077
▁pur	-12.0077
票	-12.0078
神	-12.0079
﻿	-12.0079
▁trading	-12.0079
▁charities	-12.0079
▁newsletter	-12.0079
▁suppress	-12.0079
▁famille	-12.0079
▁civilization	-12.0079
▁PUN	-12.008
▁hunger	-12.0082
▁officials	-12.0083
▁occasioned	-12.0083
tum	-12.0083
comp	-12.0083
▁841	-12.0084
ssi	-12.0085
▁malignant	-12.0087
Type	-12.0087
▁islanders	-12.0087
▁perished	-12.0088
步	-12.0092
▁INDE	-12.0092
▁thirst	-12.0093
His	-12.0094
▁stupid	-12.0095
▁execute	-12.0095
▁drag	-12.0096
▁Ga	-12.0097
應	-12.0097
▁cruise	-12.0099
東	-12.0099
喝	-12.0099
歡喜	-12.0099
怪	-12.0099
▁Horse	-12.0099
▁supplication	-12.0099
▁HENR	-12.0099
▁struggled	-12.01
2018	-12.01
▁gladly	-12.0103
ups	-12.0103
î	-12.0106
▁relics	-12.0108
gate	-12.0108
▁camels	-12.0108
▁lengths	-12.0112
▁alla	-12.0112
MNI	-12.0112
▁sonst	-12.0113
▁jealous	-12.0113
Mak	-12.0113
▁fellowship	-12.0113
generic	-12.0114
▁quit	-12.0115
accumulate	-12.0116
▁unobserved	-12.0117
ear	-12.0117
邵相公	-12.0119
題	-12.0119
RACT	-12.0119
étais	-12.0119
矣	-12.012
▁Crespinell	-12.012
▁displeasure	-12.012
▁impact	-12.012
▁genug	-12.012
▁reveals	-12.0124
▁darf	-12.0125
▁uma	-12.0126
▁avaient	-12.0127
▁demonstration	-12.0131
▁38,	-12.0133
bridge	-12.0134
▁effet	-12.0135
▁respected	-12.0136
▁Much	-12.0136
席	-12.0139
▁optimized	-12.0139
絕	-12.0139
▁approaches	-12.0139
ês	-12.014
告	-12.014
▁crazy	-12.014
輕綃	-12.014
▁Dun	-12.0141
▁Norumbega	-12.0141
▁reads	-12.0141
▁Q	-12.0144
ax	-12.0144
▁beds	-12.0145
一時	-12.0145
1]	-12.0145
▁shooting	-12.0146
▁disjoint	-12.0147
Matt	-12.0148
▁passenger	-12.0148
▁Free	-12.0154
▁grandes	-12.0156
▁egg	-12.0156
▁failing	-12.0156
▁integrated	-12.0158
馬	-12.0159
Moving	-12.016
▁courtesy	-12.016
▁tableaux	-12.0163
option	-12.0164
▁healthy	-12.0165
legally	-12.0167
▁infinitely	-12.0168
}[	-12.0168
Rcd	-12.0175
▁snake	-12.0176
▁convictions	-12.0177
▁gleich	-12.018
▁[10	-12.018
▁sanction	-12.0181
▁Mit	-12.0185
▁hastened	-12.0186
▁sweetness	-12.0186
Gu	-12.0191
TABLE	-12.0193
▁Alp	-12.0194
▁banker	-12.0196
▁warmth	-12.0199
▁Ek	-12.0201
父	-12.0201
▁onward	-12.0201
▁"1959	-12.0201
▁influential	-12.0202
▁seventeenth	-12.0204
▁Same	-12.0204
▁artistic	-12.0205
▁proj	-12.0205
▁mast	-12.0207
destined	-12.0208
EFOR	-12.0212
▁sincere	-12.0216
▁doubted	-12.0217
▁Dans	-12.0218
flu	-12.0218
▁"2016	-12.0218
0\	-12.0218
▁AI	-12.0223
▁ethical	-12.0225
▁submitted	-12.0225
▁"249	-12.0225
▁rests	-12.0226
[10]	-12.0226
▁paroles	-12.0229
ois	-12.0232
主	-12.0237
▁heute	-12.0237
▁Majesty	-12.0242
▁Supreme	-12.0242
▁properties	-12.0243
▁media	-12.0244
▁farmhouse	-12.0244
▁1623	-12.0245
▁AT	-12.0245
▁mason	-12.0247
▁aligned	-12.025
>`_	-12.0253
tel	-12.0255
▁pat	-12.0255
▁advise	-12.0257
▁appeals	-12.0263
▁defiance	-12.0263
▁vindication	-12.0263
▁mild	-12.0264
nS	-12.0264
▁rooted	-12.0264
▁undertaking	-12.0265
▁cri	-12.0267
▁rounding	-12.027
▁fragment	-12.0272
▁dicts	-12.0272
iloc	-12.0275
▁Way	-12.0276
Real	-12.0277
applicable	-12.0279
▁wings	-12.0282
Rom	-12.0283
▁Observer	-12.0284
▁gedacht	-12.0284
▁offensive	-12.0284
▁merry	-12.0284
hip	-12.0285
▁coordinates	-12.0287
▁faction	-12.0287
▁heure	-12.0287
dos	-12.029
▁sait	-12.0291
▁文新	-12.0292
28"]	-12.0293
▁loses	-12.0294
▁4:	-12.0296
▁avoids	-12.0297
jar	-12.0297
▁argue	-12.0297
▁unused	-12.0299
起身	-12.0299
nominally	-12.03
▁repose	-12.03
tus	-12.0301
▁nigh	-12.0302
▁illustrated	-12.0307
▁beam	-12.0307
aa	-12.0308
▁generously	-12.0309
▁QUEEN	-12.031
▁locked	-12.0314
ean	-12.0315
▁wider	-12.0318
▁ami	-12.0318
▁(2)	-12.0321
▁liberal	-12.0321
▁zij	-12.0322
▁inch	-12.0323
▁craving	-12.0327
▁propositions	-12.0328
consul	-12.033
▁jouer	-12.033
▁Jun	-12.0331
▁formulation	-12.0333
▁wandering	-12.0342
▁163	-12.0343
unique	-12.0343
have	-12.0345
▁circuit	-12.0346
▁Florence	-12.0346
▁"1927	-12.0346
▁Few	-12.0346
ctivation	-12.0349
▁habits	-12.0349
}\\	-12.0351
▁inwardly	-12.0355
2023-02-15	-12.0356
▁association	-12.0356
▁gesture	-12.0356
客	-12.0358
950	-12.0363
roofread	-12.0364
▁modest	-12.0365
▁139	-12.0369
▁affections	-12.0371
▁35,	-12.0374
▁realisation	-12.0374
▁...)	-12.0374
▁Cologne	-12.0375
▁Shields	-12.0376
▁centurion	-12.0377
▁siete	-12.038
▁grandmother	-12.038
▁IF	-12.0381
便了	-12.0382
▁Par	-12.0382
[2:]	-12.0382
六	-12.0386
fu	-12.0386
▁keeps	-12.0387
▁judgments	-12.0387
▁projects	-12.0387
▁Redeemer	-12.0388
▁striving	-12.0388
▁rugged	-12.0388
▁guided	-12.0388
到了	-12.0389
▁kingdoms	-12.039
▁streams	-12.0394
▁ascended	-12.0395
▁palm	-12.0395
abc	-12.0396
▁Mem	-12.0397
▁1812	-12.0397
▁climbing	-12.0398
▁response	-12.0401
▁boundaries	-12.0402
▁85,	-12.0403
▁faite	-12.0403
▁liberties	-12.0409
▁senior	-12.0409
▁conquest	-12.0409
▁fare	-12.0411
▁Thought	-12.0411
▁engage	-12.0412
▁deposed	-12.0412
▁peur	-12.0413
node	-12.0415
▁millions	-12.0416
▁prerogative	-12.0419
_2_	-12.042
▁lei	-12.042
▁Fox	-12.0423
▁fiery	-12.043
▁potatoes	-12.0431
▁worthies	-12.0433
▁Ci	-12.0435
works	-12.0438
border	-12.0439
wing	-12.044
0+	-12.0441
ima	-12.0444
杯	-12.0444
foot	-12.0446
▁prune	-12.0448
▁builds	-12.0448
yan	-12.0449
▁Mother	-12.045
▁Aristotle	-12.0451
▁liable	-12.0451
▁Power	-12.0452
▁Paton	-12.0452
▁lightly	-12.0455
▁roar	-12.0455
▁Rdg	-12.0455
▁ro	-12.0458
period	-12.0459
▁liegt	-12.0461
▁framework	-12.0463
ico	-12.0464
king	-12.0465
lot	-12.0466
陸漸	-12.0469
▁Dundee	-12.0472
▁chagrin	-12.0472
▁guerre	-12.0472
▁Ermelo	-12.0472
▁honey	-12.0472
▁Paulinus	-12.0472
ami	-12.0472
▁alten	-12.0473
▁62,	-12.0473
▁"27	-12.0478
▁knights	-12.0479
deck	-12.0482
▁stove	-12.0482
▁Deane	-12.0484
肯	-12.0484
sail	-12.0487
▁stout	-12.049
▁publish	-12.0491
▁Dann	-12.0492
▁ropes	-12.0493
▁damit	-12.0494
stein	-12.0495
ali	-12.0495
▁today	-12.0499
-2,	-12.0501
année	-12.0502
▁endeavoured	-12.0504
Return	-12.0504
AIL	-12.0505
▁diesen	-12.0506
▁Mon	-12.0509
books	-12.051
▁[11	-12.051
▁rec	-12.051
▁throwing	-12.051
▁shewing	-12.0511
▁bend	-12.0513
▁hospitality	-12.0514
▁Roger	-12.0514
▁kiss	-12.0514
lay	-12.0516
▁preparations	-12.0517
▁wandered	-12.0519
▁consecrated	-12.052
ôn	-12.052
▁flame	-12.0522
▁flowing	-12.0525
▁Adventure	-12.0525
▁descendant	-12.0526
▁acte	-12.0527
▁appetite	-12.0527
uve	-12.0528
▁Haven	-12.0528
▁artists	-12.0529
Perform	-12.0533
before	-12.0533
▁Meine	-12.0533
Oui	-12.0533
▁gros	-12.0534
▁Library	-12.0535
▁Uhr	-12.0535
▁contemporary	-12.0535
▁vostro	-12.0535
▁(4,	-12.0535
▁cellar	-12.0536
▁"247	-12.0538
▁5.75	-12.0538
▁scared	-12.0543
.[3	-12.0545
git	-12.0545
then	-12.0545
▁mouvement	-12.0546
▁traitor	-12.0547
ency	-12.0549
Enn	-12.055
histoire	-12.0551
▁Bra	-12.0551
▁continual	-12.0553
▁advancing	-12.0556
▁dualism	-12.0556
▁sunlight	-12.0557
▁Give	-12.0558
▁Fénelon	-12.0559
STER	-12.0561
▁BRA	-12.0561
Vert	-12.0563
▁eternally	-12.0563
▁bills	-12.0564
▁banquet	-12.0566
Say	-12.0567
▁guest	-12.0568
▁washed	-12.057
▁Williams	-12.0573
ev	-12.0574
pressing	-12.0575
▁Voi	-12.0575
▁sta	-12.0576
▁folly	-12.0577
▁Skip	-12.0578
▁foam	-12.0578
▁Arm	-12.0579
▁chant	-12.0582
ister	-12.0583
▁leap	-12.0584
Lu	-12.0586
dimension	-12.0587
act	-12.0588
hfun	-12.0588
▁chemin	-12.0589
Bi	-12.0595
▁excess	-12.0596
^{2}	-12.0596
Variable	-12.0597
▁historic	-12.0597
▁desk	-12.0598
▁Hooper	-12.0599
▁subjectivity	-12.0599
▁Scottish	-12.0599
▁precedent	-12.0599
這般	-12.06
▁Jacksonian	-12.06
▁ignoring	-12.0601
▁Following	-12.0602
罪	-12.0603
▁harbors	-12.0603
triple	-12.0605
▁"209	-12.0606
早	-12.0608
dataset	-12.0612
▁totally	-12.0612
00000	-12.0617
partial	-12.0619
ascending	-12.0619
polygrid	-12.0619
abserr	-12.0619
remaining	-12.0619
▁Geffroy	-12.062
▁mackerel	-12.062
▁maintenant	-12.062
▁moderation	-12.062
▁sujet	-12.062
▁presidential	-12.0621
Credits	-12.0622
unknown	-12.0622
ego	-12.0622
▁enthroned	-12.0622
▁murderer	-12.0623
▁kick	-12.0623
▁"258	-12.0623
▁celui	-12.0624
ME	-12.0624
▁Mikhail	-12.0626
▁particulars	-12.0631
▁loge	-12.0632
▁dernière	-12.0632
▁mille	-12.0634
▁Georg	-12.0634
齊	-12.0635
▁coal	-12.0636
SE	-12.0638
▁alter	-12.0639
corpus	-12.064
polyder	-12.064
stats	-12.064
ants	-12.0641
飛	-12.0641
QAGS	-12.0641
鄉	-12.0641
▁Neck	-12.0641
跪下	-12.0641
春	-12.0641
約	-12.0641
依	-12.0641
德	-12.0642
▁Popham	-12.0642
▁persecuting	-12.0642
▁Thames	-12.0642
▁Langdon	-12.0642
▁whither	-12.0642
▁innumerable	-12.0642
▁condemnation	-12.0642
▁usurpation	-12.0642
▁infantry	-12.0642
tur	-12.0643
▁terra	-12.0645
src	-12.0647
▁Anne	-12.0647
prune	-12.0648
▁causerie	-12.0648
▁qualified	-12.0649
▁Andersen	-12.0651
▁Raffaëlli	-12.0651
▁ledges	-12.0656
▁deliberate	-12.0659
ohlc	-12.0662
tplquad	-12.0662
verify	-12.0662
乃	-12.0662
lbnd	-12.0662
服	-12.0662
cumcount	-12.0662
▁divergent	-12.0663
▁mechanism	-12.0663
▁shirt	-12.0663
▁wharves	-12.0663
▁bruit	-12.0663
▁park	-12.0663
▁proverb	-12.0663
▁traveled	-12.0664
兩人	-12.0665
▁Whatever	-12.0666
-08	-12.0666
3.0	-12.0667
▁stirring	-12.0668
argmin	-12.0671
▁51	-12.0676
oH	-12.0676
爺	-12.0677
樂	-12.0677
ncia	-12.0679
▁butter	-12.068
▁cal	-12.0682
dz	-12.0683
火	-12.0684
繼祖	-12.0684
討	-12.0684
▁Positional	-12.0685
▁remarkably	-12.0685
▁Kingdom	-12.0685
▁Arguments	-12.0685
▁unnecessary	-12.0685
▁Rapid	-12.0686
▁numbered	-12.0686
▁lowered	-12.0689
▁perdu	-12.0689
▁songs	-12.0689
meaning	-12.0691
▁besieged	-12.0692
▁cometh	-12.0693
Fractional	-12.0694
▁Gauls	-12.0694
▁complètement	-12.0694
Ch	-12.0697
selu	-12.0698
▁Bett	-12.0699
▁Input	-12.07
ptimization	-12.0702
dec	-12.0702
**3	-12.0704
▁spy	-12.0704
▁52,	-12.0705
▁pin	-12.0705
LowLevelCallable	-12.0706
Nottingham	-12.0706
▁Rudolf	-12.0706
▁mémoire	-12.0706
HQQ	-12.0706
▁vacant	-12.0706
▁embraced	-12.0708
▁sheriff	-12.0709
▁favours	-12.0709
▁Rob	-12.0709
▁climb	-12.071
▁tracing	-12.071
▁sixteenth	-12.071
▁Duxbury	-12.0711
ALL	-12.0712
▁ménage	-12.0713
▁Timestamp	-12.0714
▁avez	-12.0715
ose	-12.0719
▁pitch	-12.072
▁Vor	-12.0722
compiled	-12.0723
auchy	-12.0725
offloaded	-12.0725
aussian	-12.0726
tentionInterface	-12.0728
▁continuing	-12.0728
▁spacing	-12.0728
Tanh	-12.0728
▁PEFT	-12.0728
▁menace	-12.0728
▁TPU	-12.0728
▁Barton	-12.0729
fmt	-12.0729
▁leaky	-12.0729
▁silk	-12.0729
▁convolv	-12.073
▁présente	-12.0733
rag	-12.0734
▁bass	-12.0738
dem	-12.074
ete	-12.0741
▁fallback	-12.0742
▁twinkled	-12.0742
▁Specify	-12.0742
reindex	-12.0743
▁invite	-12.0743
14>	-12.0749
▁lettres	-12.0749
LOSSES	-12.0749
Generator	-12.0749
ModuleUtilsMixin	-12.0749
Sigmoid	-12.0749
▁BaseMaskedArray	-12.0749
BatchNorm	-12.0749
▁Normalization	-12.0749
▁injury	-12.0749
ATTENTION	-12.0749
StrOptions	-12.0749
▁KeyError	-12.0749
(3.14	-12.0749
▁MaxPooling	-12.0749
LlamaAttention	-12.075
▁subsetted	-12.075
▁doit	-12.075
▁qagie	-12.075
▁Weights	-12.0752
▁smp	-12.0755
▁foe	-12.0755
▁1.0]`	-12.0756
even	-12.0756
501	-12.0757
▁"211	-12.0757
(1.0	-12.0757
▁journée	-12.0763
▁avail	-12.0763
▁victims	-12.0764
▁OutputRecorder	-12.0764
▁multilabel	-12.0764
▁93.	-12.0764
▁14],	-12.0765
▁suited	-12.0765
▁0.2	-12.0769
▁styles	-12.0769
sti	-12.077
▁"246	-12.0771
▁Illustrated	-12.0771
▁roast	-12.0771
▁Lucius	-12.0771
▁HiGHS	-12.0772
▁painful	-12.0772
▁shifting	-12.0772
▁probable	-12.0773
▁89.	-12.0775
|"	-12.0775
▁compliment	-12.0777
▁sigmasq	-12.0779
▁10],	-12.0779
▁Big	-12.078
▁builtins	-12.0781
tile	-12.0782
▁seeming	-12.0782
esse	-12.0785
fields	-12.0785
▁honestly	-12.0785
▁Philo	-12.0785
▁barrels	-12.0785
aga	-12.0788
▁cui	-12.079
▁ridicule	-12.079
▁cu	-12.0791
']}	-12.0791
Psalm	-12.0793
▁Gardiner	-12.0793
▁Margaret	-12.0793
▁wrestling	-12.0793
▁qagse	-12.0793
elu	-12.0793
▁AutoModel	-12.0793
10	-12.0794
▁"208	-12.0795
▁brow	-12.0798
▁Welt	-12.0798
qint	-12.0803
▁vue	-12.0804
sel	-12.0805
▁revived	-12.0806
▁Gentile	-12.0807
▁trans	-12.0807
▁protestation	-12.0808
▁qfun	-12.0809
▁76;	-12.081
Ja	-12.0812
inner	-12.0814
James	-12.0815
(-2)	-12.0818
▁Mc	-12.0818
▁ntokens	-12.0821
ppl	-12.0825
▁seventh	-12.0828
▁candidates	-12.0833
▁knight	-12.0834
▁sanctification	-12.0836
▁trousers	-12.0836
▁Lanerk	-12.0836
32.	-12.0838
▁joint	-12.0839
results	-12.084
guard	-12.0841
▁"252	-12.0842
▁Moesia	-12.0845
▁69	-12.0847
olo	-12.0847
▁precept	-12.085
抱	-12.0851
兄弟	-12.0852
▁Real	-12.0853
▁projected	-12.0855
rolling	-12.0855
▁Campbel	-12.0857
▁{:5	-12.0857
▁zwei	-12.0858
▁Mifflin	-12.0858
▁biography	-12.0858
▁gehabt	-12.0858
▁Ihnen	-12.0858
▁kaum	-12.0858
▁dedans	-12.0858
▁subtle	-12.0859
▁plays	-12.086
▁collector	-12.0864
▁anxiously	-12.0867
▁summary	-12.0867
▁realised	-12.0867
▁dominion	-12.0873
▁sensation	-12.0873
▁narrowly	-12.0874
▁practices	-12.0876
▁covering	-12.0877
▁tin	-12.0878
忽	-12.0879
▁swimming	-12.088
▁tremendous	-12.088
▁Division	-12.088
▁freedmen	-12.0881
poly	-12.0882
▁passive	-12.0883
▁XVIII	-12.0883
▁[5]	-12.0884
▁smell	-12.0885
▁nobody	-12.0885
▁program	-12.0887
▁Fill	-12.089
▁delightful	-12.089
▁keinen	-12.0891
mark	-12.0892
沒有	-12.0892
100	-12.0896
ene	-12.0897
▁furnish	-12.09
▁gravel	-12.0901
▁cries	-12.0903
▁senza	-12.0903
▁Scott	-12.0904
▁batches	-12.0904
▁blankets	-12.0909
▁geben	-12.0916
▁Bu	-12.0916
▁Person	-12.0917
▁sinner	-12.0921
▁expensive	-12.0924
▁owing	-12.0926
▁bury	-12.0928
UF	-12.093
▁rent	-12.0931
toc	-12.0934
▁beseech	-12.0936
▁descend	-12.0937
lement	-12.0937
▁venu	-12.0939
ray	-12.094
▁hunting	-12.0943
▁cumprod	-12.0944
tta	-12.0944
many	-12.0945
▁shabby	-12.0947
不曾	-12.0948
▁crimes	-12.0949
▁earnestness	-12.095
▁1.0`	-12.0954
▁sources	-12.0954
▁109	-12.0954
aime	-12.0956
▁pretext	-12.0959
pg	-12.0959
nde	-12.0961
▁misfortune	-12.0961
▁Cherokee	-12.0961
▁ramble	-12.0961
▁3.25]	-12.0963
▁aff	-12.0963
embeds	-12.0967
Sochi	-12.0969
Lord	-12.097
ology	-12.0971
▁"205	-12.0971
▁aren	-12.0972
▁argmax	-12.0975
▁loan	-12.0976
EY	-12.0976
▁hunted	-12.0977
▁embrace	-12.0982
關	-12.0982
▁Maryland	-12.0983
Barcelona	-12.0991
▁delicious	-12.0991
Anderssen	-12.0991
▁proving	-12.0991
worn	-12.0991
出去	-12.0993
▁wont	-12.0993
▁peril	-12.0993
▁myargs	-12.0994
▁traces	-12.0995
▁technical	-12.0997
▁rewards	-12.0999
▁frequented	-12.1001
41.	-12.1009
身上	-12.1009
▁relieved	-12.1009
▁pretence	-12.1013
▁foregoing	-12.1013
▁2))	-12.1014
▁decomposition	-12.1014
▁67,	-12.1016
▁volley	-12.1017
▁belt	-12.1018
▁Romance	-12.1019
▁91.	-12.1019
▁caves	-12.1021
▁yonder	-12.1023
▁Eph	-12.1025
life	-12.1027
▁drain	-12.1029
▁awe	-12.1029
hat	-12.1031
libs	-12.1031
▁dumb	-12.1032
▁0`	-12.1032
▁units	-12.1033
▁addressing	-12.1034
article	-12.1035
▁beaver	-12.1035
▁Google	-12.1035
▁Stanton	-12.1035
▁meanwhile	-12.1036
▁Golden	-12.1038
▁confronted	-12.104
▁borrowed	-12.104
99	-12.1041
▁questioned	-12.1043
▁impart	-12.1046
▁rr	-12.1047
▁pytorch	-12.1047
▁cumsum	-12.1047
▁hers	-12.105
DIV	-12.1051
▁recollection	-12.1051
▁duly	-12.1052
▁ornament	-12.1057
▁optimizers	-12.1057
wen	-12.1058
▁mixture	-12.1059
esta	-12.106
▁boldness	-12.106
wed	-12.1063
▁guarded	-12.1063
▁bat	-12.1065
▁spoil	-12.1069
▁aims	-12.1069
▁Stevenson	-12.107
▁dice	-12.1072
▁alphabet	-12.108
▁frightened	-12.1082
▁rem	-12.1082
▁startled	-12.1082
▁commencement	-12.1082
▁negation	-12.1084
▁courier	-12.1087
▁mas	-12.1088
▁Look	-12.1091
▁Luke	-12.1092
▁mix	-12.1093
pro	-12.1093
▁Englishman	-12.1093
▁1605	-12.1095
▁micro	-12.1098
▁emperors	-12.1098
▁stiff	-12.1098
AR	-12.1098
▁enclosed	-12.1098
▁rot	-12.1099
▁anecdote	-12.1101
▁Konrad	-12.1102
「	-12.1102
▁157	-12.1103
▁upright	-12.1103
iamo	-12.1103
install	-12.1105
▁adapted	-12.1107
generated	-12.111
▁focus	-12.1114
▁10)	-12.1115
May	-12.1116
▁Venice	-12.1117
▁fence	-12.1117
▁141	-12.112
▁57	-12.1124
Candidat	-12.1125
▁glorified	-12.1125
▁Place	-12.1125
multiclass	-12.1127
▁ashes	-12.1129
▁XIII	-12.1129
▁objection	-12.1133
▁unconscious	-12.1133
▁了	-12.1137
▁answering	-12.1138
Mat	-12.1138
▁indexer	-12.1138
▁slaughter	-12.114
bull	-12.1141
▁Jesuits	-12.1146
▁recognised	-12.1147
▁Coffin	-12.1147
▁knob	-12.1147
▁Franklin	-12.1147
▁transportation	-12.1149
gather	-12.115
▁connect	-12.1151
▁severely	-12.1155
▁dredge	-12.116
ski	-12.1161
▁endless	-12.1162
▁dig	-12.1164
Data	-12.1164
ncreasing	-12.1167
▁stationed	-12.1167
▁ganze	-12.1167
▁chains	-12.1169
衣服	-12.1169
▁railing	-12.117
▁Marcellus	-12.117
▁languages	-12.1171
complete	-12.1172
立	-12.1173
▁exterior	-12.1177
aba	-12.1177
▁precisely	-12.1179
▁intuition	-12.1179
▁Yankee	-12.118
▁morceau	-12.1181
▁Dan	-12.1182
▁arrangements	-12.1182
三個	-12.1183
▁"213	-12.1183
▁threat	-12.1184
▁imagined	-12.1186
—”	-12.1189
傳	-12.1191
_0()	-12.1191
▁pet	-12.1191
祁公	-12.1192
流	-12.1192
初	-12.1192
淚	-12.1192
▁Rufus	-12.1192
▁Verginius	-12.1192
▁Siegel	-12.1193
忽然	-12.1194
▁Vindex	-12.1195
▁princesse	-12.1198
▁adventures	-12.12
▁consumed	-12.1203
▁mourn	-12.1204
改	-12.1206
▁Wells	-12.1206
▁consciences	-12.1206
▁Pring	-12.1206
}\	-12.1206
▁lad	-12.121
upper	-12.1211
到此	-12.1212
▁pièces	-12.1213
疑	-12.1214
南	-12.1215
君	-12.1215
感	-12.1215
紅	-12.1215
▁Char	-12.1215
▁Warriston	-12.1215
▁zusammen	-12.1215
σ	-12.1215
▁Goncourt	-12.1215
▁alleged	-12.1215
幸	-12.1215
▁jeunesse	-12.1216
try	-12.1216
▁tenderness	-12.1218
▁envelope	-12.1219
▁expired	-12.1219
▁Biddle	-12.122
▁absorbed	-12.122
▁directeur	-12.1222
hint	-12.1222
▁76,	-12.1223
stable	-12.1223
32))	-12.1224
▁cur	-12.1225
Reprint	-12.1225
▁buffers	-12.1226
▁decade	-12.1228
([3.	-12.1231
▁bulk	-12.1231
▁{1	-12.1232
▁component	-12.1233
▁exchanged	-12.1235
▁1.],	-12.1236
▁homes	-12.1236
}'"	-12.1237
西	-12.1237
奇	-12.1237
屋	-12.1238
▁Patuxent	-12.1238
▁Welwood	-12.1238
▁cependant	-12.1238
▁souvenir	-12.1238
▁"1929	-12.1238
輕	-12.1238
▁nerveux	-12.1238
▁quanto	-12.1238
▁Augenblick	-12.1238
▁ruhig	-12.1238
▁veto	-12.1239
▁Psalmist	-12.1239
▁Abend	-12.124
ani	-12.1243
▁Cherokees	-12.1245
▁slopes	-12.1245
▁durst	-12.1247
▁holes	-12.1248
▁chercher	-12.1249
vol	-12.125
▁flows	-12.125
▁2011	-12.125
▁Finding	-12.1252
▁conjecture	-12.1255
rei	-12.1256
tz	-12.1256
回來	-12.1257
尊	-12.1257
這些	-12.1257
▁ruling	-12.1258
縣	-12.1259
郎	-12.126
▁irregular	-12.126
院	-12.126
深	-12.126
▁voit	-12.126
▁categories	-12.1261
▁irresistible	-12.1261
▁Fabius	-12.1261
▁Gesicht	-12.1261
久	-12.1261
▁produit	-12.1261
DS	-12.1261
▁idolatry	-12.1261
▁integrity	-12.1261
▁tombe	-12.1261
▁rend	-12.1262
▁tempest	-12.1262
unto	-12.1263
▁Data	-12.1264
▁shards	-12.1264
Great	-12.1265
自然	-12.1266
▁charms	-12.1269
read	-12.127
▁Additionally	-12.1271
▁GRE	-12.1272
▁Benjamin	-12.1272
▁66	-12.1276
▁tiny	-12.1279
▁voici	-12.1281
8.2	-12.1281
road	-12.1281
▁ceux	-12.1281
滿	-12.1283
光景	-12.1283
▁sincerity	-12.1283
▁carved	-12.1283
▁34,	-12.1284
▁oui	-12.1287
▁pairs	-12.1288
▁humiliation	-12.1289
▁conspiracy	-12.1289
▁Dio	-12.1289
▁Mannes	-12.1291
▁hub	-12.1293
▁colour	-12.1296
▁Tree	-12.1298
▁Nacht	-12.1299
▁hatch	-12.13
iva	-12.13
▁cling	-12.1301
▁cottage	-12.1301
▁wages	-12.1302
▁friar	-12.1303
▁msgs	-12.1304
▁Pilgrim	-12.1305
▁steadfast	-12.1305
▁exciting	-12.1306
▁symbolism	-12.1307
▁Fi	-12.131
▁1999	-12.1311
Fortune	-12.1311
▁abundantly	-12.1312
▁Pantheism	-12.1313
▁Oui	-12.1314
▁significantly	-12.1314
▁permanently	-12.1316
▁Mode	-12.1316
space	-12.1319
▁Build	-12.1319
IO	-12.1319
cho	-12.1321
▁wishes	-12.1321
Pad	-12.1322
▁furious	-12.1326
▁surprising	-12.1327
▁populous	-12.1329
▁recollect	-12.1329
▁89)	-12.133
▁horseback	-12.133
▁Batavi	-12.133
oi	-12.1332
▁spending	-12.1332
▁dredgers	-12.1334
Nbxd	-12.1335
▁MR	-12.1337
▁trouver	-12.1344
Mlle	-12.1344
▁sod	-12.1344
▁signature	-12.1345
▁Sand	-12.1345
roll	-12.1349
▁terminated	-12.135
▁Fathers	-12.1351
▁importances	-12.1352
▁nest	-12.1353
▁npt	-12.1355
為何	-12.1356
▁despise	-12.1357
▁pleine	-12.1357
cas	-12.1361
lling	-12.1365
▁expectations	-12.1368
▁tasted	-12.1372
maker	-12.1372
▁detachment	-12.1372
finite	-12.1373
▁cython	-12.1373
▁successive	-12.1374
▁gallery	-12.1375
▁inauguration	-12.1376
▁vs	-12.1379
▁Cha	-12.138
▁suppressed	-12.1384
▁lodged	-12.1385
▁Tag	-12.1392
迎	-12.1393
▁advancement	-12.1394
▁indignant	-12.1395
▁emotions	-12.1396
▁offset	-12.1396
▁inevitable	-12.1398
▁vivre	-12.1398
奴	-12.1404
▁ascend	-12.1406
▁Spaniards	-12.1406
rati	-12.1407
▁beware	-12.1408
▁weeping	-12.1408
▁13)	-12.1409
▁wishing	-12.141
▁u	-12.1411
▁tard	-12.1411
▁masts	-12.1412
▁allait	-12.1416
▁parapet	-12.1421
▁slender	-12.1421
▁Tiberius	-12.1422
▁sublime	-12.1424
▁tooth	-12.1424
ono	-12.1425
detach	-12.1427
LLE	-12.1427
▁boot	-12.1428
TER	-12.1428
▁presentation	-12.1431
▁oaths	-12.1433
▁yard	-12.1435
▁stretching	-12.1437
ured	-12.1439
▁Shall	-12.1439
▁Grace	-12.144
eurs	-12.1442
▁Job	-12.1443
▁persuade	-12.1444
▁populace	-12.1445
▁Turner	-12.1445
▁Taylor	-12.1446
-15	-12.1447
▁discouraged	-12.145
Life	-12.1451
▁Australia	-12.1452
pel	-12.1454
▁heights	-12.1456
▁shy	-12.1461
▁hinge	-12.1462
ios	-12.1464
▁wasted	-12.1471
▁firmness	-12.1472
ville	-12.1472
▁temples	-12.1473
▁discoveries	-12.1473
容	-12.1475
▁état	-12.1475
▁shells	-12.1476
▁establishing	-12.1479
says	-12.1482
▁inhabit	-12.1483
▁knee	-12.1486
▁shade	-12.1487
bes	-12.1488
▁Denn	-12.149
▁regiments	-12.149
▁cuda	-12.1491
▁penetrate	-12.1491
▁Paterson	-12.1491
▁mar	-12.1493
房裡	-12.1494
▁DO	-12.1495
▁enlightened	-12.1496
Wodrow	-12.1498
▁Har	-12.1501
▁affect	-12.1504
▁ceiling	-12.1505
globals	-12.1505
▁impress	-12.1508
▁58	-12.1508
ets	-12.1511
▁observes	-12.1511
▁154	-12.1513
▁acceleration	-12.1515
▁quantity	-12.1515
▁democracy	-12.1515
▁"1962	-12.1515
▁realises	-12.1516
([4	-12.1516
▁secrets	-12.1516
▁是	-12.1517
▁Ki	-12.1519
▁arrow	-12.152
▁49	-12.1521
MADONNA	-12.1521
▁Death	-12.1528
▁oh	-12.1529
cow	-12.1529
yer	-12.153
-01	-12.1533
▁thankful	-12.1534
▁tem	-12.1535
now	-12.1536
▁legend	-12.1537
▁accession	-12.1538
▁pencil	-12.1538
▁Relativity	-12.1538
▁greeting	-12.154
uri	-12.1541
▁morality	-12.1542
(["	-12.1543
▁Dei	-12.1546
▁destroying	-12.1546
ures	-12.1548
▁sadly	-12.155
atory	-12.155
zen	-12.155
▁procure	-12.1551
mbo	-12.1552
▁heaped	-12.1553
父母	-12.1554
▁breathe	-12.1554
▁redistribut	-12.1555
▁sheltered	-12.1556
▁originated	-12.1556
▁Hebrews	-12.1557
▁Kate	-12.1559
▁forbidden	-12.1562
▁0])	-12.1563
▁tough	-12.1563
With	-12.1563
▁birthplace	-12.1563
▁lesser	-12.1566
▁ALL	-12.1568
kl	-12.1569
Thou	-12.1569
shire	-12.1571
▁practiced	-12.1574
▁partition	-12.1576
▁succeeding	-12.1576
lé	-12.1577
vec	-12.1577
▁jung	-12.158
▁Flavian	-12.1581
▁swallow	-12.1581
▁divorce	-12.1583
▁eloquent	-12.1585
▁marvellous	-12.1585
▁pouvoir	-12.1585
▁Choos	-12.1585
▁prevents	-12.1585
▁krank	-12.159
pol	-12.1591
ij	-12.1592
Amsterdam	-12.1592
▁formally	-12.16
▁komme	-12.1602
ggi	-12.1602
▁repent	-12.1603
▁oars	-12.1604
▁delivery	-12.1604
▁faults	-12.1607
▁Moody	-12.1609
▁ROBERT	-12.1609
▁furnace	-12.1609
▁requisite	-12.1609
▁repository	-12.1609
▁travelled	-12.1609
▁shipping	-12.1609
▁knock	-12.1613
▁Midi	-12.1613
▁firing	-12.1613
▁Milan	-12.1614
▁apostolic	-12.1615
▁header	-12.1615
▁2010	-12.1622
▁combine	-12.1622
uma	-12.1623
▁comprehend	-12.1625
▁likeness	-12.1626
▁monitoring	-12.1627
▁income	-12.1627
Ngf	-12.1628
=3.	-12.1628
lant	-12.1629
tle	-12.1629
85]	-12.1631
1*	-12.1631
▁Fast	-12.1631
▁drüben	-12.1632
▁eloquence	-12.1632
▁fantastic	-12.1632
▁discrete	-12.1632
▁Moray	-12.1632
▁antecedent	-12.1634
▁XII	-12.1635
▁Tro	-12.1635
▁cooking	-12.1636
▁letzten	-12.1636
▁Hardy	-12.1636
ador	-12.1639
▁Bass	-12.1641
▁illustrate	-12.1642
cia	-12.1644
▁rebels	-12.1645
[...]
